{"version":"1.0","truncation":null,"padding":null,"added_tokens":[{"id":0,"special":true,"content":"[UNK]","single_word":false,"lstrip":false,"rstrip":false,"normalized":false},{"id":1,"special":true,"content":"[CLS]","single_word":false,"lstrip":false,"rstrip":false,"normalized":false},{"id":2,"special":true,"content":"[SEP]","single_word":false,"lstrip":false,"rstrip":false,"normalized":false},{"id":3,"special":true,"content":"[PAD]","single_word":false,"lstrip":false,"rstrip":false,"normalized":false},{"id":4,"special":true,"content":"[MASK]","single_word":false,"lstrip":false,"rstrip":false,"normalized":false}],"normalizer":null,"pre_tokenizer":{"type":"Whitespace"},"post_processor":{"type":"TemplateProcessing","single":[{"SpecialToken":{"id":"[CLS]","type_id":0}},{"Sequence":{"id":"A","type_id":0}},{"SpecialToken":{"id":"[SEP]","type_id":0}}],"pair":[{"SpecialToken":{"id":"[CLS]","type_id":0}},{"Sequence":{"id":"A","type_id":0}},{"SpecialToken":{"id":"[SEP]","type_id":0}},{"Sequence":{"id":"B","type_id":1}},{"SpecialToken":{"id":"[SEP]","type_id":1}}],"special_tokens":{"[CLS]":{"id":"[CLS]","ids":[1],"tokens":["[CLS]"]},"[SEP]":{"id":"[SEP]","ids":[2],"tokens":["[SEP]"]}}},"decoder":null,"model":{"type":"BPE","dropout":null,"unk_token":"[UNK]","continuing_subword_prefix":null,"end_of_word_suffix":null,"fuse_unk":false,"vocab":{"[UNK]":0,"[CLS]":1,"[SEP]":2,"[PAD]":3,"[MASK]":4,"\"":5,",":6,"H":7,"d":8,"i":9,"n":10,"ँ":11,"ं":12,"ः":13,"अ":14,"आ":15,"इ":16,"ई":17,"उ":18,"ऊ":19,"ऋ":20,"ऍ":21,"ऎ":22,"ए":23,"ऐ":24,"ऑ":25,"ऒ":26,"ओ":27,"औ":28,"क":29,"ख":30,"ग":31,"घ":32,"ङ":33,"च":34,"छ":35,"ज":36,"झ":37,"ञ":38,"ट":39,"ठ":40,"ड":41,"ढ":42,"ण":43,"त":44,"थ":45,"द":46,"ध":47,"न":48,"प":49,"फ":50,"ब":51,"भ":52,"म":53,"य":54,"र":55,"ल":56,"ळ":57,"व":58,"श":59,"ष":60,"स":61,"ह":62,"़":63,"ा":64,"ि":65,"ी":66,"ु":67,"ू":68,"ृ":69,"ॄ":70,"ॅ":71,"ॆ":72,"े":73,"ै":74,"ॉ":75,"ॊ":76,"ो":77,"ौ":78,"्":79,"ॐ":80,"॑":81,"॓":82,"।":83,"०":84,"१":85,"२":86,"३":87,"४":88,"५":89,"६":90,"७":91,"८":92,"९":93,"॰":94,"है":95,"ें":96,"के":97,"या":98,"ने":99,"से":100,"ार":101,"कर":102,"कि":103,"ता":104,"में":105,"ही":106,"और":107,"्र":108,"ना":109,"को":110,"का":111,"की":112,"ों":113,"हैं":114,"क्":115,"मै":116,"ते":117,"हा":118,"मैं":119,"स्":120,"एक":121,"हो":122,"लि":123,"नही":124,"सा":125,"हम":126,"नहीं":127,"आप":128,"र्":129,"जा":130,"वा":131,"।\"":132,"ले":133,"पर":134,"यह":135,"ला":136,"भी":137,"लिए":138,"मा":139,"्य":140,"दे":141,"मे":142,"तु":143,"मु":144,"ड़":145,"रह":146,"वि":147,"प्र":148,"था":149,"इस":150,"रा":151,"तुम":152,"हु":153,"बा":154,"नी":155,"नि":156,"चा":157,"गा":158,"ये":159,"ती":160,"ति":161,"सक":162,"रे":163,"अप":164,"मुझ":165,"न्":166,"सी":167,"दि":168,"री":169,"तो":170,"हू":171,"मुझे":172,"जो":173,"पा":174,"ोग":175,"क्या":176,"कु":177,"मि":178,"ारे":179,"कार":180,"हाँ":181,"उस":182,"ज़":183,"सम":184,"सं":185,"त्":186,"यों":187,"वह":188,"हूँ":189,"जि":190,"दा":191,"देख":192,"ली":193,"क्ष":194,"वे":195,"कुछ":196,"च्":197,"रहे":198,"रू":199,"शा":200,"चाह":201,"्या":202,"लग":203,"अपने":204,"ित":205,"जी":206,"करने":207,"रहा":208,"साथ":209,"उन":210,"भा":211,"बहु":212,"िक":213,"गे":214,"बहुत":215,"सब":216,"लोग":217,"किया":218,"सकते":219,"हें":220,"हर":221,"ल्":222,"मेरे":223,"जब":224,"सु":225,"ैसे":226,"पू":227,"स्त":228,"सि":229,"किन":230,"पह":231,"गया":232,"श्":233,"दो":234,"खा":235,"लेकिन":236,"तुम्":237,"फ़":238,"बे":239,"मी":240,"बात":241,"ंग":242,"थी":243,"उन्":244,"गर":245,"िर":246,"थे":247,"त्र":248,"तरह":249,"अब":250,"मान":251,"ारी":252,"द्":253,"तक":254,"ंद":255,"वो":256,"कोई":257,"सो":258,"च्छ":259,"कहा":260,"दी":261,"करते":262,"क्यों":263,"बना":264,"तर":265,"बारे":266,"्ट":267,"जान":268,"दू":269,"शि":270,"उसे":271,"मैंने":272,"पता":273,"करना":274,"रो":275,"सकता":276,"गी":277,"काम":278,"चे":279,"ची":280,"अच्छ":281,"हमें":282,"िया":283,"ारा":284,"क्र":285,"दु":286,"लो":287,"होगा":288,"यहाँ":289,"ठी":290,"हों":291,"अन":292,"बि":293,"अध":294,"इन":295,"हमारे":296,"ेंगे":297,"अगर":298,"बी":299,"कह":300,"मह":301,"मिल":302,"टी":303,"ठीक":304,"वी":305,"टे":306,"पहले":307,"रूप":308,"दिया":309,"छो":310,"पि":311,"ड़ा":312,"ढ़":313,"फिर":314,"मत":315,"किसी":316,"इसे":317,"आपको":318,"समय":319,"पास":320,"पु":321,"कम":322,"शु":323,"टा":324,"लगता":325,"अपनी":326,"रु":327,"पी":328,"प्":329,"चार":330,"लोगों":331,"ओं":332,"मेरी":333,"सर":334,"डा":335,"परि":336,"बच्":337,"रही":338,"िए":339,"व्य":340,"जिस":341,"ार्":342,"रि":343,"बता":344,"साल":345,"उन्हें":346,"नों":347,"तुम्हें":348,"वर्":349,"कभी":350,"्री":351,"सू":352,"कैसे":353,"हां":354,"निया":355,"करता":356,"देश":357,"तुम्ह":358,"म्":359,"योग":360,"रख":361,"यो":362,"होता":363,"चि":364,"क्योंकि":365,"चाहिए":366,",\"":367,"चु":368,"प्रति":369,"जैसे":370,"बद":371,"बार":372,"समझ":373,"रत":374,"ष्ट":375,"अं":376,"मेरा":377,"सभी":378,"टर":379,"ड़े":380,"अनु":381,"जाए":382,"जीव":383,"उप":384,"ंड":385,"लिया":386,"सोच":387,"तना":388,"बो":389,"खु":390,"सबसे":391,"हुआ":392,"अच्छा":393,"बाद":394,"ऐसा":395,"पूर्":396,"लगा":397,"ूल":398,"बु":399,"पे":400,"यु":401,"अधिक":402,"स्थ":403,"्यादा":404,"वहाँ":405,"वास्त":406,"ज्":407,"ब्":408,"द्ध":409,"होने":410,"स्था":411,"सिर्":412,"बाहर":413,"क्ति":414,"जन":415,"्रा":416,"बन":417,"हि":418,"बस":419,"मार":420,"ड़ी":421,"डि":422,"हूं":423,"उसके":424,"स्ट":425,"जीवन":426,"पै":427,"उनके":428,"चाहते":429,"निक":430,"चल":431,"वर":432,"होंने":433,"खो":434,"हुए":435,"अभी":436,"कै":437,"जाता":438,"शी":439,"दुनिया":440,"दिन":441,"हमने":442,"विश्":443,"उत्":444,"क्षा":445,"जे":446,"हे":447,"गु":448,"न्य":449,"भाव":450,"पस":451,"आद":452,"यी":453,"निर्":454,"वार":455,"लड़":456,"कृ":457,"करो":458,"सिर्फ":459,"घर":460,"जाओ":461,"ज्ञ":462,"त्व":463,"धा":464,"वापस":465,"उन्होंने":466,"आज":467,"कों":468,"लिये":469,"विक":470,"गह":471,"वास्तव":472,"इं":473,"दूस":474,"वाले":475,"बै":476,"सही":477,"डी":478,"रूरत":479,"मन":480,"िला":481,"वाद":482,"दर्":483,"जै":484,"गल":485,"चित":486,"चाहता":487,"ज्ञा":488,"पूर्ण":489,"वास":490,"बंद":491,"हमे":492,"जानते":493,"यद":494,"देखा":495,"धार":496,"बढ़":497,"णा":498,"करें":499,"खे":500,"ज्यादा":501,"वल":502,"लब":503,"आदमी":504,"कोशि":505,"टि":506,"शुरू":507,"आपके":508,"्रे":509,"हमारी":510,"मद":511,"शायद":512,"पिता":513,"मो":514,"गो":515,"यही":516,"वाला":517,"कारण":518,"ंत्र":519,"बदल":520,"जाना":521,"मतलब":522,"शन":523,"डे":524,"त्म":525,"तरी":526,"ंदर":527,"प्या":528,"यू":529,"ंच":530,"पहु":531,"भग":532,"गए":533,"कई":534,"शे":535,"केवल":536,"मदद":537,"दिखा":538,"अलग":539,"नाम":540,"प्रा":541,"ष्":542,"इसके":543,"जाने":544,"प्त":545,"वै":546,"र्थ":547,"सच":548,"एं":549,"अपना":550,"चला":551,"यन":552,"ंध":553,"मर":554,"जगह":555,"अस":556,"फो":557,"ियों":558,"याद":559,"मौ":560,"समा":561,"पर्":562,"बेह":563,"छोड़":564,"यर":565,"भाग":566,"बच्चे":567,"भव":568,"कौ":569,"ग्र":570,"स्ते":571,"साम":572,"नो":573,"तब":574,"विचार":575,"फी":576,"नीचे":577,"कं":578,"होती":579,"कार्य":580,"जाएगा":581,"पो":582,"होते":583,"उसने":584,"हं":585,"होना":586,"स्व":587,"व्यक्ति":588,"मिला":589,"जरूरत":590,"टो":591,"छा":592,"बर":593,"द्व":594,"बच्च":595,"चलो":596,"इसलिए":597,"क्त":598,"सकती":599,"माँ":600,"चीज़":601,"स्या":602,"हुई":603,"यदि":604,"जु":605,"्यू":606,"कॉ":607,"इसका":608,"डॉ":609,"भर":610,"ठा":611,"करेंगे":612,"द्वारा":613,"कर्":614,"ऐसे":615,"भू":616,"ंक":617,"जाते":618,"दर":619,"भे":620,"तुम्हारे":621,"वान":622,"दोस्त":623,"प्यार":624,"आया":625,"हँ":626,"दूर":627,"दार":628,"तै":629,"समस्या":630,"पार":631,"कारी":632,"यार":633,"स्ता":634,"सान":635,"हमेशा":636,"कहते":637,"खुद":638,"कोशिश":639,"बच्चों":640,"ल्प":641,"माल":642,"क्षण":643,"थो":644,"करती":645,"पसं":646,"महिला":647,"डर":648,"कौन":649,"छे":650,"लै":651,"ूँ":652,"ध्या":653,"उसकी":654,"क्रिया":655,"त्य":656,"तीन":657,"देखो":658,"नौ":659,"कुल":660,"करी":661,"ँच":662,"उपयोग":663,"पूरी":664,"स्वी":665,"प्रे":666,"उनकी":667,"गई":668,"कल":669,"सुर":670,"तने":671,"बीच":672,"आगे":673,"जू":674,"बेहतर":675,"कंप":676,"जिन":677,"तनी":678,"लों":679,"विष":680,"राज":681,"ंत":682,"स्वा":683,"उसका":684,"कहाँ":685,"अच्छी":686,"ख़":687,"माण":688,"सम्":689,"दूसरे":690,"क्स":691,"अव":692,"स्क":693,"बर्":694,"ध्यान":695,"धी":696,"ंगा":697,"श्य":698,"पसंद":699,"ैर":700,"महत्व":701,"हँसी":702,"निय":703,"सूस":704,"पक":705,"भि":706,"विश्व":707,"द्र":708,"वर्ष":709,"भावना":710,"ज़ा":711,"ओर":712,"रात":713,"हंसी":714,"जल्":715,"महा":716,"बनाने":717,"इतना":718,"ट्":719,"समु":720,"ऊपर":721,"खेल":722,"ौर":723,"वाली":724,"स्प":725,"द्य":726,"धन्य":727,"भाष":728,"ख्या":729,"जहाँ":730,"बंध":731,"महसूस":732,"ओह":733,"जना":734,"बह":735,"सै":736,"विश्वास":737,"००":738,"भार":739,"वाह":740,"सुन":741,"दान":742,"अंत":743,"गत":744,"ट्र":745,"लर":746,"गयी":747,"व्या":748,"स्थि":749,"ंस":750,"बड़ा":751,"पड़":752,"धन्यवाद":753,"एँ":754,"फा":755,"िन":756,"पिछ":757,"देखते":758,"जैसा":759,"अमे":760,"यहां":761,"शो":762,"ध्य":763,"तैयार":764,"परिवार":765,"कता":766,"भु":767,"होगी":768,"अन्य":769,"दृ":770,"चीज":771,"्त":772,"अरे":773,"बचा":774,"कहानी":775,"क्षम":776,"सर्":777,"हाथ":778,"शब्":779,"पीछे":780,"सह":781,"िये":782,"क्षे":783,"इससे":784,"सोचा":785,"लता":786,"छोटे":787,"स्थिति":788,"करे":789,"ब्र":790,"धे":791,"देते":792,"जाती":793,"कृति":794,"शब्द":795,"ेंट":796,"कू":797,"महत्वपूर्ण":798,"हीं":799,"बड़ी":800,"देने":801,"चना":802,"करण":803,"तालिया":804,"फि":805,"लना":806,"हमारा":807,"अमेरि":808,"अंदर":809,"शहर":810,"प्रयोग":811,"बिना":812,"लू":813,"अग":814,"क़":815,"गति":816,"बैठ":817,"सारे":818,"खि":819,"दिल":820,"सुना":821,"ुक":822,"क्षित":823,"त्रा":824,"तन":825,"वित":826,"तुमने":827,"पानी":828,"देखने":829,"पत्":830,"झा":831,"फोन":832,"जार":833,"जिसे":834,"शक्ति":835,"पुरु":836,"ज्ञान":837,"मू":838,"इस्ते":839,"सामान":840,"मानव":841,"इस्तेमाल":842,"मूल":843,"जानता":844,"अधि":845,"खोज":846,"पुरुष":847,"पूछ":848,"लन":849,"काल":850,"व्यव":851,"गलत":852,"देता":853,"रों":854,"सार":855,"आपकी":856,"स्कूल":857,"ऐसी":858,"सीख":859,"\",":860,"र्क":861,"आई":862,"शक":863,"आपका":864,"हिस्":865,"शत":866,"भगवान":867,"वज":868,"पहली":869,"कला":870,"पढ़":871,"न्न":872,"कान":873,"कार्":874,"काफी":875,"किस":876,"र्म":877,"प्रतिशत":878,"जहां":879,"स्ति":880,"डाल":881,"सन":882,"देना":883,"दम":884,"लेने":885,"अच्छे":886,"तुम्हारी":887,"चर्":888,"काश":889,"नीय":890,"न्यू":891,"भाषा":892,"उदा":893,"बू":894,"आपने":895,"त्मक":896,"धि":897,"हैँ":898,"शुरु":899,"मुख":900,"पिछले":901,"कल्प":902,"घट":903,"किल":904,"दोनों":905,"बिल्":906,"ज़्यादा":907,"सवा":908,"दिख":909,"मैने":910,"चित्र":911,"ज़ार":912,"जिन्":913,"नए":914,"धान":915,"क्षेत्र":916,"ंट":917,"आने":918,"दिमा":919,"लगभग":920,"योजना":921,"साइ":922,"जल्दी":923,"शेष":924,"ंकि":925,"बड़े":926,"होंगे":927,"नें":928,"श्री":929,"प्रकार":930,"क्रम":931,"मही":932,"बनाया":933,"दौ":934,"फे":935,"चाहती":936,"पन":937,"निश्":938,"अनुभव":939,"उससे":940,"इन्":941,"शान":942,"फै":943,"म्र":944,"ून":945,"कठ":946,"खी":947,"तों":948,"आता":949,"वहां":950,"मुझसे":951,"सके":952,"स्तर":953,"साह":954,"रिया":955,"पूरा":956,"चिं":957,"वरण":958,"खैर":959,"पैसे":960,"पहुँच":961,"अफ":962,"दिमाग":963,"प्रो":964,"मार्":965,"लय":966,"चान":967,"मिन":968,"मिले":969,"हरण":970,"मगर":971,"राष्ट":972,"ग्रह":973,"बोल":974,"आओ":975,"चो":976,"लं":977,"अर":978,"मृ":979,"उठा":980,"परिवर्":981,"िय":982,"प्रभाव":983,"बच":984,"वेश":985,"तकनी":986,"धन":987,"जाय":988,"कहीं":989,"ताकि":990,"रोक":991,"सवाल":992,"ताओं":993,"बताया":994,"लगे":995,"कें":996,"दन":997,"परी":998,"पुरा":999,"म्मी":1000,"सौ":1001,"अर्थ":1002,"विका":1003,"घा":1004,"परे":1005,"प्राप्त":1006,"आवा":1007,"भारत":1008,"कल्पना":1009,"भाई":1010,"आव":1011,"विशेष":1012,"मेँ":1013,"स्वास्थ":1014,"उदाहरण":1015,"गिर":1016,"भविष":1017,"भविष्य":1018,"हवा":1019,"दाय":1020,"बिल":1021,"मिनट":1022,"करा":1023,"जिससे":1024,"क्यू":1025,"युद्ध":1026,"पर्या":1027,"त्या":1028,"उनका":1029,"डियो":1030,"जल":1031,"पड़े":1032,"रहते":1033,"गीत":1034,"तस्वी":1035,"सिक":1036,"तालियाँ":1037,"बक":1038,"बदला":1039,"निश्चित":1040,"अके":1041,"जवा":1042,"सला":1043,"पूरे":1044,"ज़ी":1045,"ग्":1046,"लिस":1047,"मिलता":1048,"पल":1049,"इसमें":1050,"घं":1051,"वही":1052,"करके":1053,"रान":1054,"छोटी":1055,"सामने":1056,"ढा":1057,"स्पष्ट":1058,"मरी":1059,"पया":1060,"रहने":1061,"ट्ट":1062,"देंगे":1063,"तुम्हारा":1064,"शाली":1065,"कीन":1066,"ज़ि":1067,"संभव":1068,"कृपया":1069,"र्ट":1070,"जानकारी":1071,"लड़की":1072,"घु":1073,"नेट":1074,"आधार":1075,"असल":1076,"करीब":1077,"तंत्र":1078,"पति":1079,"ंदगी":1080,"कहना":1081,"आते":1082,"बल्":1083,"रण":1084,"श्र":1085,"तान":1086,"तरीके":1087,"परा":1088,"माध्य":1089,"विकास":1090,"खिला":1091,"हाय":1092,"इंत":1093,"द्योग":1094,"तः":1095,"सित":1096,"पृ":1097,"ज़रूरत":1098,"तार":1099,"फ्":1100,"शरी":1101,"ष्टि":1102,"अंतर":1103,"टन":1104,"दें":1105,"र्स":1106,"अमेरिका":1107,"हरा":1108,"लिक":1109,"बिल्कुल":1110,"र्ष":1111,"ज़र":1112,"थोड़ा":1113,"वृ":1114,"माम":1115,"मुश्":1116,"मित":1117,"सरकार":1118,"निर्माण":1119,"महान":1120,"जवाब":1121,"आए":1122,"बल":1123,"भेज":1124,"गि":1125,"बॉ":1126,"कितना":1127,"स्तु":1128,"प्रणा":1129,"ऊँ":1130,"खों":1131,"आँ":1132,"इसी":1133,"तिक":1134,"अध्य":1135,"पूर्व":1136,"उम्र":1137,"षण":1138,"पाया":1139,"जिक":1140,"सिखा":1141,"बुरा":1142,"शरीर":1143,"तम":1144,"हिस्सा":1145,"चले":1146,"नर":1147,"उत्पा":1148,"स्वास्थ्य":1149,"कित्":1150,"आशा":1151,"लॉ":1152,"ार्थ":1153,"चिकित्":1154,"इसकी":1155,"संख्या":1156,"संगीत":1157,"देशों":1158,"आसान":1159,"ड्र":1160,"लाने":1161,"डॉलर":1162,"आवश्य":1163,"समाज":1164,"मुश्किल":1165,"आस":1166,"डो":1167,"जाये":1168,"राम":1169,"सुरक्षित":1170,"माध्यम":1171,"यकीन":1172,"यात्रा":1173,"द्धि":1174,"परिवर्तन":1175,"आत":1176,"रॉ":1177,"तिहा":1178,"ज़रू":1179,"वास्तविक":1180,"सुरक्षा":1181,"जन्":1182,"सफ":1183,"भाल":1184,"पकड़":1185,"खरी":1186,"ग्री":1187,"वायु":1188,"अन्":1189,"मारी":1190,"ूह":1191,"पाने":1192,"देखना":1193,"तरफ":1194,"आश्":1195,"गर्":1196,"लु":1197,"क्टर":1198,"स्थान":1199,"रचना":1200,"विज्ञान":1201,"ंगी":1202,"जहा":1203,"टू":1204,"सामा":1205,"लेकर":1206,"क्ष्य":1207,"दूसरी":1208,"कोशिका":1209,"ड्":1210,"महीने":1211,"तस्वीर":1212,"प्रभा":1213,"पुलिस":1214,"अभि":1215,"भाग्य":1216,"इतनी":1217,"हार":1218,"सुंदर":1219,"सामान्य":1220,"उम्मी":1221,"कमी":1222,"चू":1223,"चीन":1224,"गरी":1225,"डिया":1226,"र्जा":1227,"सोचते":1228,"तौर":1229,"माता":1230,"इट":1231,"छु":1232,"जर":1233,"भूल":1234,"ोर":1235,"अंग":1236,"मशी":1237,"सेवा":1238,"फ़ी":1239,"्यूटर":1240,"जूद":1241,"दवा":1242,"क्रि":1243,"जिसका":1244,"सामाजिक":1245,"उम्मीद":1246,"शादी":1247,"रखने":1248,"गये":1249,"लेते":1250,"चलते":1251,"बकवास":1252,"जन्म":1253,"भो":1254,"लें":1255,"सारी":1256,"ड़ों":1257,"सकें":1258,"बुला":1259,"क्षमता":1260,"रिक":1261,"थीं":1262,"छोटा":1263,"बल्कि":1264,"पहला":1265,"पैदा":1266,"शिक्षा":1267,"कहता":1268,"आती":1269,"ताब":1270,"तरीका":1271,"रहना":1272,"न्स":1273,"फ़ो":1274,"लक्ष्य":1275,"लाइन":1276,"शामिल":1277,"नया":1278,"धारण":1279,"घटना":1280,"प्रणाली":1281,"पिताजी":1282,"ुष":1283,"नियों":1284,"दुर्":1285,"वैज्ञा":1286,"घंटे":1287,"आम":1288,"बदलाव":1289,"आं":1290,"णी":1291,"यं":1292,"सास":1293,"व्यवस्था":1294,"ग्रा":1295,"मिली":1296,"ंति":1297,"वजह":1298,"रखना":1299,"निकल":1300,"राब":1301,"पागल":1302,"मिक":1303,"बढ़ा":1304,"इला":1305,"कठिन":1306,"ॉन":1307,"ल्स":1308,"खुश":1309,"मस्ति":1310,"टीम":1311,"ंदा":1312,"शल":1313,"औरत":1314,"क्षि":1315,"सालों":1316,"राष्ट्र":1317,"लिख":1318,"तुलना":1319,"न्या":1320,"रुको":1321,"रोग":1322,"संबंध":1323,"दर्द":1324,"र्ड":1325,"वैश्":1326,"कट":1327,"चर्य":1328,"उसी":1329,"एंड":1330,"रहो":1331,"कितने":1332,"साब":1333,"अगले":1334,"चिंता":1335,"थ्":1336,"रखा":1337,"सप":1338,"्रीका":1339,"मनुष":1340,"अधिकार":1341,"वैसे":1342,"२०":1343,"प्रकाश":1344,"छात्र":1345,"भूमि":1346,"मनुष्य":1347,"चुका":1348,"भिन्न":1349,"आश्चर्य":1350,"अस्":1351,"विद":1352,"पड़ता":1353,"पत्र":1354,"प्रक्रिया":1355,"लोगो":1356,"फ़ा":1357,"कैसा":1358,"कंप्यूटर":1359,"अल":1360,"कियों":1361,"हाला":1362,"तकनीक":1363,"नई":1364,"मॉ":1365,"हाल":1366,"रास्ता":1367,"तीय":1368,"च्च":1369,"सिद्ध":1370,"निर्ण":1371,"दरवा":1372,"दृश्य":1373,"झू":1374,"पक्ष":1375,"णाम":1376,"ंश":1377,"गण":1378,"नु":1379,"देर":1380,"बताओ":1381,"ूं":1382,"चाहे":1383,"्यालय":1384,"पहचान":1385,"ष्क":1386,"ऊर्जा":1387,"सिर्फ़":1388,"ट्स":1389,"यक":1390,"लौ":1391,"देती":1392,"रास्ते":1393,"बिलकुल":1394,"कदम":1395,"नीति":1396,"ल्ला":1397,"जारी":1398,"धु":1399,"शर्":1400,"सड़":1401,"स्टे":1402,"पैसा":1403,"करेगा":1404,"मुख्य":1405,"थ्वी":1406,"इतने":1407,"खत्म":1408,"रंग":1409,"सत":1410,"ूम":1411,"एम":1412,"टने":1413,"परिणाम":1414,"अस्पता":1415,"अमरी":1416,"स्य":1417,"असली":1418,"केंद्र":1419,"मजब":1420,"समूह":1421,"स्वयं":1422,"दौरान":1423,"वैश्विक":1424,"सक्षम":1425,"ह्":1426,"सेना":1427,"क्ट":1428,"न्तु":1429,"उत्तर":1430,"व्यापार":1431,"अभ":1432,"टल":1433,"व्":1434,"चाहिये":1435,"आर्थ":1436,"गं":1437,"हसास":1438,"साधारण":1439,"नियंत्र":1440,"मजबू":1441,"हरे":1442,"स्त्र":1443,"ूँगा":1444,"समुदाय":1445,"पृथ्वी":1446,"मस्तिष्क":1447,"अक्":1448,"पद":1449,"लड़ा":1450,"किताब":1451,"बेटा":1452,"इक":1453,"िकी":1454,"पांच":1455,"वहार":1456,"दोस्तों":1457,"अध्ययन":1458,"ख्त":1459,"पड़ा":1460,"ब्रा":1461,"लियों":1462,"निर्णय":1463,"गठ":1464,"दारी":1465,"पित":1466,"साय":1467,"खाना":1468,"आवश्यकता":1469,"तीस":1470,"महिलाओं":1471,"कत":1472,"धर":1473,"लक":1474,"निकाल":1475,"उनसे":1476,"फ़िर":1477,"बनाना":1478,"विकसित":1479,"दृष्टि":1480,"अजी":1481,"सहाय":1482,"बताने":1483,"चुनौ":1484,"उच्च":1485,"चर":1486,"लिखा":1487,"खाने":1488,"बेच":1489,"चुके":1490,"राज्य":1491,"नक":1492,"बेटी":1493,"जिसके":1494,"तनाव":1495,"युवा":1496,"इतिहा":1497,"बच्चा":1498,"दर्शन":1499,"आर्थिक":1500,"उड़ा":1501,"रक्षा":1502,"उनमें":1503,"रोध":1504,"ियाँ":1505,"नौकरी":1506,"रहता":1507,"तुमसे":1508,"बाकी":1509,"संघ":1510,"च्छा":1511,"सामना":1512,"अजीब":1513,"टॉ":1514,"कितनी":1515,"सुबह":1516,"सिर":1517,"टिंग":1518,"ष्ठ":1519,"जंग":1520,"वादी":1521,"त्ता":1522,"लड़का":1523,"मूर्":1524,"अफ़":1525,"आर":1526,"खड़े":1527,"तृ":1528,"केट":1529,"मीन":1530,"क्रा":1531,"दूसरा":1532,"कंपनी":1533,"धीरे":1534,"इतिहास":1535,"उनको":1536,"पूछा":1537,"बातें":1538,"प्ता":1539,"्रीय":1540,"सम्मान":1541,"समान":1542,"लाख":1543,"समझा":1544,"समझने":1545,"मौका":1546,"गन":1547,"धो":1548,"समर्थ":1549,"पुरुषों":1550,"डल":1551,"दय":1552,"प्रशि":1553,"जित":1554,"मौत":1555,"भुग":1556,"पत्नी":1557,"ट्टी":1558,"फ्ट":1559,"मक":1560,"करनी":1561,"जीवित":1562,"पौ":1563,"हैः":1564,"नाक":1565,"लित":1566,"प्रया":1567,"संभावना":1568,"बख्त":1569,"बेटे":1570,"पोर्ट":1571,"वैज्ञानिक":1572,"अक्सर":1573,"लड़ाई":1574,"खबर":1575,"घो":1576,"जाति":1577,"लेख":1578,"देखें":1579,"लगी":1580,"खास":1581,"इंटर":1582,"डॉक्टर":1583,"वर्षों":1584,"शोध":1585,"पुराने":1586,"वस्तु":1587,"ोगे":1588,"पुन":1589,"जहाज":1590,"कमा":1591,"बजाय":1592,"ड़ने":1593,"संस्":1594,"कमबख्त":1595,"बरा":1596,"लाल":1597,"मिलने":1598,"डेटा":1599,"पर्याप्त":1600,"ज़रूरी":1601,"प्रयास":1602,"एस":1603,"जलवायु":1604,"अकेले":1605,"अपरा":1606,"सीमा":1607,"कमरे":1608,"स्वीकार":1609,"चिकित्सा":1610,"अस्पताल":1611,"जली":1612,"दक्षि":1613,"मैन":1614,"लेना":1615,"मूल्य":1616,"भुगतान":1617,"आय":1618,"ट्रे":1619,"ूब":1620,"जिए":1621,"त्यु":1622,"दस":1623,"किये":1624,"निवेश":1625,"टाइ":1626,"जिसमें":1627,"बताना":1628,"युक्त":1629,"मशीन":1630,"आख":1631,"चौ":1632,"सप्ता":1633,"जिये":1634,"ल्म":1635,"जबकि":1636,"सुनो":1637,"तुम्हे":1638,"जिन्हें":1639,"प्रभावित":1640,"लम्":1641,"व्यवहार":1642,"खत":1643,"टुक":1644,"शै":1645,"विकल्प":1646,"गोली":1647,"प्रेर":1648,"विषय":1649,"भोजन":1650,"सात":1651,"तित":1652,"मारने":1653,"जेल":1654,"आखिर":1655,"ंजी":1656,"आग":1657,"ध्":1658,"सार्":1659,"्म":1660,"किए":1661,"जितना":1662,"जानती":1663,"डाला":1664,"अरब":1665,"ंख":1666,"टक":1667,"हिर":1668,"मृत्यु":1669,"कब":1670,"दों":1671,"भारी":1672,"हल":1673,"र्च":1674,"तुर":1675,"बाव":1676,"शील":1677,"भुत":1678,"कार्बन":1679,"आवाज़":1680,"अद्":1681,"णु":1682,"बढ":1683,"हरी":1684,"नागर":1685,"कोण":1686,"चारों":1687,"बदलने":1688,"अवसर":1689,"नियम":1690,"आये":1691,"टिक":1692,"नाइ":1693,"प्रश्":1694,"निका":1695,"म्मे":1696,"प्रतिक्रिया":1697,"कैं":1698,"आसपास":1699,"ँव":1700,"लैंड":1701,"जल्द":1702,"परीक्षण":1703,"आकार":1704,"सच्":1705,"जिसने":1706,"व्यक्तिगत":1707,"चीजें":1708,"शुरुआत":1709,"तिम":1710,"ज़े":1711,"खुशी":1712,"बंदू":1713,"सहयोग":1714,"गरीब":1715,"एहसास":1716,"िका":1717,"याँ":1718,"लाभ":1719,"भीर":1720,"आत्":1721,"ग़":1722,"वाता":1723,"देखिये":1724,"दीवार":1725,"कहने":1726,"शुक्रिया":1727,"पर्क":1728,"नत":1729,"फु":1730,"विशा":1731,"रुरत":1732,"प्ला":1733,"लगाने":1734,"चीज़ें":1735,"इलाज":1736,"गू":1737,"हट":1738,"बेव":1739,"बिजली":1740,"अफ्रीका":1741,"खरीद":1742,"आराम":1743,"वादा":1744,"भीतर":1745,"प्रिय":1746,"फ़ि":1747,"आवाज":1748,"फ़ोन":1749,"प्रती":1750,"क्षक":1751,"उपकरण":1752,"डै":1753,"तल":1754,"हार्":1755,"बनाते":1756,"अंतिम":1757,"जाएँ":1758,"चलता":1759,"लड़के":1760,"ंडा":1761,"उल्":1762,"लियन":1763,"परवाह":1764,"विभिन्न":1765,"राजा":1766,"पाते":1767,"चीत":1768,"मौजूद":1769,"स्तान":1770,"जग":1771,"ड्रा":1772,"ढूँ":1773,"नज़र":1774,"सते":1775,"संदेश":1776,"जैक":1777,"समाप्त":1778,"गंभीर":1779,"इच्छा":1780,"नै":1781,"मंत्र":1782,"लिंग":1783,"ंदु":1784,"क्रो":1785,"पहुँ":1786,"कर्ष":1787,"यल":1788,"संगठ":1789,"जीत":1790,"वीडियो":1791,"पहुंच":1792,"विशाल":1793,"अति":1794,"ग्रे":1795,"टै":1796,"मर्":1797,"्ड":1798,"शांत":1799,"रोबो":1800,"पुस्त":1801,"ार्क":1802,"रखते":1803,"चीज़ों":1804,"चीजों":1805,"मार्ग":1806,"तला":1807,"भरो":1808,"सारा":1809,"हथ":1810,"मेल":1811,"प्रत्य":1812,"प्रदान":1813,"संके":1814,"संस्था":1815,"बातचीत":1816,"सोचता":1817,"स्थानीय":1818,"इंतज़ार":1819,"बेवकू":1820,"वॉ":1821,"नाव":1822,"लेज":1823,"प्रौ":1824,"चाई":1825,"संपर्क":1826,"लैंग":1827,"हालांकि":1828,"उद्":1829,"पश्":1830,"यत":1831,"स्टर":1832,"आपसे":1833,"माफ":1834,"कहां":1835,"दूँ":1836,"सरों":1837,"जटि":1838,"भौ":1839,"चुप":1840,"लेट":1841,"बढ़िया":1842,"खींच":1843,"सप्ताह":1844,"गै":1845,"िल":1846,"बाँ":1847,"दिनों":1848,"देखभाल":1849,"सिल":1850,"फ्र":1851,"जोर":1852,"चिल्ला":1853,"पर्यावरण":1854,"वातावरण":1855,"आन":1856,"आत्म":1857,"सद":1858,"यां":1859,"कीमत":1860,"राह":1861,"निर्भर":1862,"जैसी":1863,"दिलच":1864,"पढ़ा":1865,"सहायता":1866,"प्रौद्योग":1867,"आइ":1868,"आदेश":1869,"वं":1870,"शू":1871,"शॉ":1872,"तेजी":1873,"जादू":1874,"पापा":1875,"बीमार":1876,"अला":1877,"तू":1878,"प्ट":1879,"बन्":1880,"यें":1881,"वन":1882,"सीखा":1883,"सियों":1884,"अनुसार":1885,"कृत":1886,"शब्दों":1887,"इंतजार":1888,"संघर्ष":1889,"छि":1890,"तय":1891,"हजार":1892,"क्का":1893,"र्य":1894,"बाल":1895,"संसार":1896,"मीडिया":1897,"जानवर":1898,"रोप":1899,"लोक":1900,"दिखाई":1901,"प्रेम":1902,"शक्तिशाली":1903,"झूठ":1904,"उह":1905,"थ्य":1906,"फल":1907,"मध्य":1908,"लब्":1909,"१९":1910,"समाधान":1911,"कृतिक":1912,"लंबे":1913,"चुनौती":1914,"अद्भुत":1915,"ंसा":1916,"एल":1917,"नष्ट":1918,"श्रे":1919,"विधा":1920,"गाँव":1921,"जोड़":1922,"समुद्र":1923,"कैंसर":1924,"लैंगिक":1925,"आंक":1926,"सीधे":1927,"त्ति":1928,"सुधार":1929,"बनने":1930,"ज्यादातर":1931,"मामले":1932,"उठ":1933,"करू":1934,"मुद्":1935,"कॉल":1936,"चोट":1937,"परेशान":1938,"छू":1939,"छवि":1940,"भया":1941,"भ्र":1942,"लेंगे":1943,"हटा":1944,"लेता":1945,"माने":1946,"ोग्रा":1947,"जनक":1948,"समर्थन":1949,"अल्":1950,"सल":1951,"ताकत":1952,"काफ़ी":1953,"परमाण":1954,"दूसरों":1955,"रखता":1956,"समझते":1957,"उपलब्":1958,"कार्यक्रम":1959,"कॉलेज":1960,"बहन":1961,"बचाने":1962,"अमेरिकी":1963,"कोशिकाओं":1964,"सड़क":1965,"नियंत्रण":1966,"दल":1967,"मं":1968,"साझा":1969,"लाया":1970,"देगा":1971,"देखेंगे":1972,"अपराध":1973,"ध्व":1974,"खर्च":1975,"बहा":1976,"हत्या":1977,"काट":1978,"लाइ":1979,"पाँच":1980,"बीमारी":1981,"तालियां":1982,"दक्षिण":1983,"कंड":1984,"ेक":1985,"स्ती":1986,"प्रगति":1987,"मित्र":1988,"वर्ग":1989,"जाएगी":1990,"ब्रि":1991,"जिन्होंने":1992,"परमाणु":1993,"एन":1994,"मार्ट":1995,"गुण":1996,"कानून":1997,"आधारित":1998,"मजबूत":1999,"ंगे":2000,"आठ":2001,"ट्यू":2002,"मना":2003,"मारा":2004,"मैनें":2005,"परं":2006,"मियों":2007,"मॉडल":2008,"पश्चि":2009,"पॉ":2010,"सों":2011,"िक्ष":2012,"क्यो":2013,"माय":2014,"पाठ":2015,"शाला":2016,"कहती":2017,"ढ़ी":2018,"स्थिर":2019,"दिखता":2020,"क्यूंकि":2021,"राष्ट्रपति":2022,"मूर्ख":2023,"ंभ":2024,"खून":2025,"तथ्य":2026,"मजा":2027,"वार्":2028,"सॉ":2029,"मैँ":2030,"लिन":2031,"सानी":2032,"विस्त":2033,"इसने":2034,"बनाता":2035,"चेहरे":2036,"रखें":2037,"इन्हें":2038,"प्रश्न":2039,"हथिया":2040,"ंतर":2041,"१०":2042,"हमला":2043,"परन्तु":2044,"निकों":2045,"रेखा":2046,"एंगे":2047,"भरोसा":2048,"जटिल":2049,"प्रौद्योगिकी":2050,"नुक":2051,"सें":2052,"कोड":2053,"तेज":2054,"लाई":2055,"प्रदर्शन":2056,"रानी":2057,"निष्":2058,"कहानिया":2059,"कैम":2060,"पहुं":2061,"कर्ता":2062,"फिल्म":2063,"मिलेगा":2064,"सिद्धा":2065,"इंटरनेट":2066,"कहें":2067,"खूब":2068,"तें":2069,"लाना":2070,"भूत":2071,"खिम":2072,"चानक":2073,"वृद्धि":2074,"विद्यालय":2075,"अचानक":2076,"पं":2077,"बने":2078,"मति":2079,"मज़ा":2080,"कारों":2081,"उसको":2082,"लीन":2083,"फ़्":2084,"मानसिक":2085,"सूरत":2086,"म्स":2087,"बुरी":2088,"बुद्धि":2089,"थोड़ी":2090,"साहित":2091,"सलाह":2092,"घूम":2093,"छह":2094,"दशक":2095,"रक्त":2096,"वक्त":2097,"त्त":2098,"सुल":2099,"त्रि":2100,"अनुमान":2101,"सोचने":2102,"स्थापित":2103,"बनना":2104,"दर्शा":2105,"यहीं":2106,"जिनके":2107,"नरक":2108,"आकाश":2109,"खतर":2110,"सनीय":2111,"तोड़":2112,"डिजा":2113,"खोजने":2114,"खिलाफ":2115,"उत्पादन":2116,"संस्कृति":2117,"उद्य":2118,"चक":2119,"ट्रा":2120,"नयी":2121,"रै":2122,"जोखिम":2123,"दूरी":2124,"बिता":2125,"रिश्":2126,"लड़कियों":2127,"गलती":2128,"दिखाने":2129,"विश्वसनीय":2130,"कार्ड":2131,"हवाई":2132,"बंदूक":2133,"अलावा":2134,"नुकसान":2135,"गड़":2136,"हज़ार":2137,"सागर":2138,"पालन":2139,"सुपर":2140,"पहन":2141,"बेशक":2142,"योग्य":2143,"रखो":2144,"हिसाब":2145,"पत्ति":2146,"पड़ेगा":2147,"सफल":2148,"तुरंत":2149,"महो":2150,"साफ़":2151,"माना":2152,"मिशन":2153,"कारा":2154,"संभाल":2155,"हूँगा":2156,"मीटर":2157,"क्रे":2158,"स्वागत":2159,"राष्ट्रीय":2160,"दृष्टिकोण":2161,"सार्वज":2162,"संकेत":2163,"अर्":2164,"आह":2165,"उतना":2166,"खराब":2167,"यम":2168,"सहम":2169,"ेंक":2170,"सेल":2171,"वायर":2172,"शांति":2173,"जानना":2174,"शिया":2175,"कम्":2176,"इंसान":2177,"ऊँगा":2178,"सफलता":2179,"रोबोट":2180,"प्रत्येक":2181,"सार्वजनिक":2182,"आना":2183,"तथा":2184,"नं":2185,"केलिए":2186,"करवा":2187,"स्टी":2188,"साधन":2189,"माफ़":2190,"निरा":2191,"न्द":2192,"दियों":2193,"दोष":2194,"देश्य":2195,"चुकी":2196,"बोला":2197,"करोड़":2198,"समस्याओं":2199,"पार्ट":2200,"अकेला":2201,"उत्पाद":2202,"गणित":2203,"गार":2204,"धर्म":2205,"मुस्":2206,"मुक्त":2207,"संवे":2208,"सुनिश्चित":2209,"सोचना":2210,"अधिका":2211,"िलए":2212,"ऑन":2213,"फ्यू":2214,"क्सी":2215,"माइ":2216,"मात्र":2217,"रूम":2218,"फोट":2219,"विचारों":2220,"भेजा":2221,"मृत":2222,"ड्रै":2223,"नम":2224,"रस्":2225,"ीय":2226,"क्ता":2227,"लेन":2228,"लायक":2229,"ल्ड":2230,"बताता":2231,"अनुमति":2232,"चलने":2233,"बैंक":2234,"स्वस्थ":2235,"ख्याल":2236,"शानदार":2237,"अंतरिक्ष":2238,"उपलब्ध":2239,"\",\"":2240,"अत्य":2241,"कक्षा":2242,"२००":2243,"नेता":2244,"साफ":2245,"लेक्":2246,"इसलिये":2247,"गाय":2248,"दिए":2249,"फ़े":2250,"फ़्त":2251,"मानना":2252,"बनाए":2253,"पीड़":2254,"उद्देश्य":2255,"खर":2256,"गंदगी":2257,"सेकंड":2258,"किंग":2259,"मां":2260,"विध":2261,"जानने":2262,"रुक":2263,"ंव":2264,"इमार":2265,"भरा":2266,"वकी":2267,"शनी":2268,"जांच":2269,"ज़ोर":2270,"लगते":2271,"शीर्ष":2272,"धारणा":2273,"लगेगा":2274,"इल":2275,"उपा":2276,"ऊंगा":2277,"ब्रे":2278,"हॉ":2279,"स्को":2280,"रहें":2281,"चाल":2282,"रोज़":2283,"दुश्":2284,"दिखाया":2285,"व्यवसाय":2286,"न्याय":2287,"ढे":2288,"पें":2289,"स्पे":2290,"जाँच":2291,"दुख":2292,"सरल":2293,"एच":2294,"डरा":2295,"पहा":2296,"मछ":2297,"िता":2298,"माफी":2299,"विस्":2300,"क्षमा":2301,"बैठे":2302,"चिंतित":2303,"तृत्व":2304,"सच्चाई":2305,"आकर्ष":2306,"झु":2307,"नमू":2308,"वें":2309,"काग":2310,"सां":2311,"उसमें":2312,"संयुक्त":2313,"जिम्मे":2314,"जिसकी":2315,"क्रमण":2316,"क्रिस":2317,"गें":2318,"जॉन":2319,"सव":2320,"निजी":2321,"प्ली":2322,"चुरा":2323,"डिंग":2324,"अंग्रे":2325,"साबित":2326,"आसानी":2327,"नल":2328,"रल":2329,"नेतृत्व":2330,"विमान":2331,"बाई":2332,"गाड़ी":2333,"त्कार":2334,"चुन":2335,"लगाया":2336,"भूति":2337,"प्रेरित":2338,"नागरिक":2339,"भयानक":2340,"अधिकांश":2341,"जमीन":2342,"ढूं":2343,"नफ":2344,"पण":2345,"सन्":2346,"हित":2347,"ीन":2348,"क्ला":2349,"दिशा":2350,"पाए":2351,"फ़ै":2352,"मानते":2353,"शिक्षक":2354,"गहरा":2355,"अगली":2356,"टूट":2357,"क्रांति":2358,"अमी":2359,"उद्योग":2360,"दया":2361,"धिक":2362,"नक्":2363,"पट":2364,"हीन":2365,"साध":2366,"संकट":2367,"टेड":2368,"म्मत":2369,"गुना":2370,"पहुँचा":2371,"नंबर":2372,"ऑनलाइन":2373,"झे":2374,"द्री":2375,"बड़":2376,"यंत्र":2377,"काब":2378,"क्शन":2379,"वाकई":2380,"प्रार":2381,"देखे":2382,"बेकार":2383,"द्वी":2384,"ियां":2385,"मरने":2386,"ख़ा":2387,"आत्मा":2388,"खतरनाक":2389,"चय":2390,"बारी":2391,"हक":2392,"१५":2393,"एकदम":2394,"वालों":2395,"निशान":2396,"तियों":2397,"सबको":2398,"सुविधा":2399,"मील":2400,"जिसमे":2401,"उपचार":2402,"स्ट्र":2403,"ख़ु":2404,"रोकने":2405,"आँखों":2406,"प्रशिक्षण":2407,"जगहों":2408,"जनों":2409,"बज":2410,"बत":2411,"लने":2412,"सौर":2413,"ताव":2414,"जाकर":2415,"विष्":2416,"बाजार":2417,"सुझा":2418,"्रीकी":2419,"बर्ट":2420,"०००":2421,"पुरानी":2422,"सिकंदर":2423,"ज़रूर":2424,"एंडी":2425,"पदार्थ":2426,"घोष":2427,"बेवकूफ":2428,"ध्वनि":2429,"नफरत":2430,"शरण":2431,"जाग":2432,"लाखों":2433,"मुच":2434,"रहती":2435,"प्रबंध":2436,"साथी":2437,"श्वर":2438,"बेबी":2439,"चीनी":2440,"वीय":2441,"अमरीका":2442,"इकट्":2443,"बावजूद":2444,"दिलचस्प":2445,"सिद्धांत":2446,"कहो":2447,"खें":2448,"चढ़":2449,"जरुरत":2450,"डेंट":2451,"दबा":2452,"फ्त":2453,"हैलो":2454,"मांग":2455,"मालिक":2456,"विज्ञा":2457,"क्ष्म":2458,"्यास":2459,"उड़ान":2460,"आनंद":2461,"कन":2462,"जें":2463,"मिलते":2464,"फोटो":2465,"सुनने":2466,"चर्चा":2467,"रिकॉ":2468,"अविश्वसनीय":2469,"गर्म":2470,"ठे":2471,"वय":2472,"सरे":2473,"सज्":2474,"मांस":2475,"देह":2476,"मेह":2477,"संरचना":2478,"स्थित":2479,"हेतु":2480,"वास्तविकता":2481,"ढूँढ":2482,"परंतु":2483,"डिजाइन":2484,"कपड़े":2485,"यॉ":2486,"ूनी":2487,"मात्रा":2488,"विदा":2489,"बनाई":2490,"समझना":2491,"दर्श":2492,"जुड़े":2493,"ट्रो":2494,"खिड़":2495,"पूछना":2496,"अन्दर":2497,"मायने":2498,"विस्तार":2499,"इरा":2500,"गैर":2501,"जरू":2502,"टों":2503,"लड":2504,"ेक्षा":2505,"्रिय":2506,"स्ना":2507,"प्रि":2508,"उन्हे":2509,"सूचना":2510,"पैर":2511,"कर्म":2512,"बर्फ":2513,"समुद्री":2514,"ट्रै":2515,"ब्रह्":2516,"प्रयोगशाला":2517,"सीखने":2518,"अमरीकी":2519,"टका":2520,"थर":2521,"फेंक":2522,"रहस्य":2523,"प्रवेश":2524,"संतु":2525,"शास्त्र":2526,"सिस्ट":2527,"बिंदु":2528,"वर्क":2529,"वर्त":2530,"सूक्ष्म":2531,"बुरे":2532,"स्टिक":2533,"सचमुच":2534,"सम्बन्":2535,"शोर":2536,"अभिया":2537,"ड्राइ":2538,"गिन":2539,"नज़":2540,"भले":2541,"कां":2542,"हाउस":2543,"साव":2544,"मिट्टी":2545,"समलैंगिक":2546,"खाली":2547,"अंदा":2548,"बेहतरी":2549,"कंपनियों":2550,"हिस्से":2551,"स्तित्व":2552,"जायेंगे":2553,"सिखाया":2554,"अभ्यास":2555,"खतरा":2556,"गायब":2557,"दुश्मन":2558,"उल":2559,"ज्य":2560,"पन्न":2561,"पढा":2562,"फर्क":2563,"वट":2564,"करूँ":2565,"देखता":2566,"रोमा":2567,"टीवी":2568,"लगाना":2569,"द्धा":2570,"यूरोप":2571,"भारतीय":2572,"पड़ो":2573,"सर्व":2574,"छात्रों":2575,"महोदय":2576,"वर्तमान":2577,"अस्तित्व":2578,"ऊं":2579,"ण्ड":2580,"थि":2581,"रर":2582,"हद":2583,"लागू":2584,"विदेश":2585,"मिलियन":2586,"देखी":2587,"देखकर":2588,"चाहेंगे":2589,"दोलन":2590,"ंदी":2591,"शिष्ट":2592,"डिग्री":2593,"स्वतंत्र":2594,"सुझाव":2595,"चम":2596,"चली":2597,"डम":2598,"तर्क":2599,"बनी":2600,"सदी":2601,"सांस":2602,"इसको":2603,"बाज़ार":2604,"दायों":2605,"मिलती":2606,"हांक":2607,"लगातार":2608,"पेट":2609,"फैसला":2610,"बचपन":2611,"गिरा":2612,"जायेगा":2613,"गर्व":2614,"ंखला":2615,"मंत्री":2616,"लत":2617,"करूँगा":2618,"करोगे":2619,"तेज़":2620,"होकर":2621,"मुकाब":2622,"विपरी":2623,"प्रकृति":2624,"प्रमुख":2625,"दादी":2626,"शिकार":2627,"रुप":2628,"चार्":2629,"लड़कों":2630,"थोडा":2631,"बर्बाद":2632,"साइकिल":2633,"गरीबी":2634,"जंगल":2635,"सुलझा":2636,"अमीर":2637,"असर":2638,"आधा":2639,"उंड":2640,"खड़ा":2641,"बढा":2642,"यदा":2643,"रें":2644,"विरोध":2645,"चालित":2646,"तोह":2647,"क्षर":2648,"बताते":2649,"योजन":2650,"सामग्री":2651,"हाथों":2652,"दुर्भाग्य":2653,"सपना":2654,"हथियार":2655,"खूबसूरत":2656,"कम्प":2657,"बेहतरीन":2658,"विपरीत":2659,"अना":2660,"आधे":2661,"जरा":2662,"धित":2663,"फ्रा":2664,"बद्ध":2665,"लक्षण":2666,"ूर":2667,"कीजिए":2668,"कीजिये":2669,"परिक":2670,"विड":2671,"चाहूँगा":2672,"तीत":2673,"कुत्":2674,"रोशनी":2675,"दुसरे":2676,"व्यस्त":2677,"रिपोर्ट":2678,"प्रतिभा":2679,"वादन":2680,"समुदायों":2681,"सर्जन":2682,"मानवता":2683,"चोरी":2684,"श्रृ":2685,"तलाश":2686,"द्वीप":2687,"चै":2688,"जॉ":2689,"टर्":2690,"डन":2691,"मेंट":2692,"कीय":2693,"सरकारी":2694,"निर्धार":2695,"इंजी":2696,"दर्भ":2697,"प्राकृतिक":2698,"सैनिक":2699,"कमीने":2700,"व्हा":2701,"पुनर्":2702,"बराबर":2703,"फुट":2704,"सहमत":2705,"पार्टी":2706,"ँकि":2707,"उचित":2708,"जेंट":2709,"नजर":2710,"बारा":2711,"यौ":2712,"५०":2713,"देव":2714,"विन":2715,"भाड़":2716,"मानवीय":2717,"समाचार":2718,"हंसते":2719,"भौतिक":2720,"शून्य":2721,"फ्यूरर":2722,"यॉर्क":2723,"ँस":2724,"ंज":2725,"आखि":2726,"बजे":2727,"मंड":2728,"३०":2729,"वासी":2730,"निर":2731,"सक्रिय":2732,"कार्यालय":2733,"संभा":2734,"बातों":2735,"बनाये":2736,"ब्लॉ":2737,"महीनों":2738,"विष्कार":2739,"आखिरी":2740,"गंगा":2741,"छत":2742,"भय":2743,"वत":2744,"ूर्":2745,"करु":2746,"किस्":2747,"हाई":2748,"रहेगा":2749,"चेहरा":2750,"बिस्तर":2751,"वीं":2752,"रिंग":2753,"सूर":2754,"हिंसा":2755,"मनो":2756,"माँग":2757,"राजनी":2758,"आवश्यक":2759,"भाग्यशाली":2760,"संगठन":2761,"पश्चिम":2762,"मजाक":2763,"वायरस":2764,"रिकॉर्ड":2765,"घन":2766,"थक":2767,"पत":2768,"येंगे":2769,"वहीं":2770,"सहा":2771,"किन्तु":2772,"्यता":2773,"प्रजाति":2774,"जिंदगी":2775,"जीने":2776,"स्त्री":2777,"सोने":2778,"चलाने":2779,"बूढ़":2780,"भूमिका":2781,"कहानियाँ":2782,"एवं":2783,"गधे":2784,"ढंग":2785,"मल":2786,"मले":2787,"स्र":2788,"िश":2789,"औरतों":2790,"वाही":2791,"विधि":2792,"सीमित":2793,"दीदा":2794,"रिये":2795,"वर्ण":2796,"खुला":2797,"बढ़ने":2798,"बेहद":2799,"जिनका":2800,"स्थितियों":2801,"कलाकार":2802,"चिकित्सक":2803,"टुकड़ा":2804,"हजारों":2805,"ड्रैगन":2806,"पीड़ित":2807,"मछली":2808,"इकट्ठा":2809,"निर्धारित":2810,"कप":2811,"कस":2812,"कप्":2813,"थम":2814,"फ्रे":2815,"भरे":2816,"भरी":2817,"शौ":2818,"शारी":2819,"सँ":2820,"हफ्":2821,"हैंः":2822,"क्वा":2823,"स्पर्":2824,"वात":2825,"विच":2826,"निवार":2827,"लगती":2828,"कहानियों":2829,"दुकान":2830,"मिलकर":2831,"खुले":2832,"त्वचा":2833,"एँगे":2834,"कूद":2835,"पका":2836,"मों":2837,"कालीन":2838,"तेल":2839,"स्पी":2840,"स्कॉ":2841,"होनी":2842,"वाई":2843,"प्रसार":2844,"निधि":2845,"रेडियो":2846,"शाम":2847,"तरफ़":2848,"पीठ":2849,"चुनाव":2850,"बुनिया":2851,"दिखाना":2852,"पोस्ट":2853,"सपने":2854,"दरवाजा":2855,"धुनिक":2856,"प्लास्टिक":2857,"करूंगा":2858,"कप्तान":2859,"कने":2860,"तट":2861,"नदी":2862,"पान":2863,"संदेह":2864,"देखिए":2865,"वेयर":2866,"मानता":2867,"बच्ची":2868,"डिजि":2869,"प्राथ":2870,"ज़िंदगी":2871,"मनुष्यों":2872,"आकाशगंगा":2873,"श्रृंखला":2874,"व्हाइट":2875,"असंभव":2876,"उतर":2877,"चलिए":2878,"ठहा":2879,"डौ":2880,"तह":2881,"नन्":2882,"शर्म":2883,"यान":2884,"ताला":2885,"रहेंगे":2886,"निग":2887,"अपेक्षा":2888,"सबके":2889,"पुरस्":2890,"सूची":2891,"कैसी":2892,"ज्ञात":2893,"पसंदीदा":2894,"आतंक":2895,"बुलाया":2896,"खतरे":2897,"सिस्टम":2898,"हफ्ते":2899,"एल्":2900,"गले":2901,"दस्त":2902,"नये":2903,"नवी":2904,"सभ":2905,"१२":2906,"मेट":2907,"ड़ियों":2908,"प्रस्ता":2909,"नित":2910,"तिया":2911,"पाना":2912,"इनमें":2913,"डाटा":2914,"चिन्":2915,"स्थानों":2916,"उत्पन्न":2917,"लड़ने":2918,"अर्थव्यवस्था":2919,"अलविदा":2920,"वकील":2921,"असाधारण":2922,"आयी":2923,"चन":2924,"नशे":2925,"बडा":2926,"मंच":2927,"हड्":2928,"सेट":2929,"ताप":2930,"हासिल":2931,"मुसी":2932,"सकारा":2933,"दिला":2934,"कार्ट":2935,"शासन":2936,"रखती":2937,"जुड़ा":2938,"भावनात्मक":2939,"ट्रि":2940,"साइड":2941,"नुभूति":2942,"केंद्रित":2943,"धरती":2944,"श्रेष्ठ":2945,"गड़बड़":2946,"संवेदन":2947,"इमारत":2948,"अंग्रेजी":2949,"मेहनत":2950,"सहानुभूति":2951,"शारीरिक":2952,"अप्र":2953,"आधुनिक":2954,"जय":2955,"जमा":2956,"रस":2957,"्स":2958,"क्सि":2959,"होटल":2960,"लेषण":2961,"न्दर":2962,"जिंदा":2963,"कमजोर":2964,"पीछा":2965,"रखे":2966,"अनुसं":2967,"सोचो":2968,"जेक्ट":2969,"गहरी":2970,"जुड़":2971,"छेद":2972,"नौकर":2973,"सीखना":2974,"न्यूरो":2975,"भेजने":2976,"तूफा":2977,"कहेंगे":2978,"ढूंढ":2979,"रोमांच":2980,"राजनीतिक":2981,"ऑफ़":2982,"पशु":2983,"ात":2984,"रेट":2985,"ज़रा":2986,"संचार":2987,"शिका":2988,"रिस":2989,"बदले":2990,"गुस्":2991,"नेटवर्क":2992,"तस्वीरें":2993,"विद्या":2994,"दरवाजे":2995,"रिश्ते":2996,"ईमान":2997,"जर्":2998,"डु":2999,"थन":3000,"दै":3001,"फूल":3002,"बिक":3003,"प्रार्थ":3004,"सीट":3005,"सिस":3006,"म्प":3007,"पेड़":3008,"चलना":3009,"पहुँचने":3010,"परेशा":3011,"इसीलिए":3012,"अभिवादन":3013,"सतह":3014,"धोखा":3015,"प्रस्ताव":3016,"सकारात्मक":3017,"अनुसंधान":3018,"प्रार्थना":3019,"टना":3020,"नृ":3021,"पना":3022,"मारे":3023,"व्र":3024,"जाम":3025,"सबू":3026,"शुक्र":3027,"पीढ़ी":3028,"जाएंगे":3029,"पेले":3030,"हिम्मत":3031,"पैमाने":3032,"उत्सर्जन":3033,"गुला":3034,"कानूनी":3035,"वृत्ति":3036,"शर्मि":3037,"पुस्तक":3038,"प्लीज़":3039,"एशिया":3040,"कूल":3041,"जों":3042,"डिक":3043,"ढी":3044,"नव":3045,"वु":3046,"िकों":3047,"ेंस":3048,"लिप":3049,"वियों":3050,"प्रश":3051,"प्रभु":3052,"बादी":3053,"जिम":3054,"वेब":3055,"दोहरा":3056,"दूंगा":3057,"महत्":3058,"पिस":3059,"म्बर":3060,"सोचें":3061,"नियमित":3062,"सैम":3063,"पत्थर":3064,"शुरुवात":3065,"साइट":3066,"प्रशिक्षित":3067,"दूँगा":3068,"ट्यूब":3069,"स्कॉट":3070,"बुनियादी":3071,"पथ":3072,"पड़ी":3073,"मजे":3074,"मम्मी":3075,"वक":3076,"शॉन":3077,"कित":3078,"मुला":3079,"वितर":3080,"संवाद":3081,"मिलना":3082,"परियोजना":3083,"बदलना":3084,"लैक":3085,"साहब":3086,"सौदा":3087,"यौन":3088,"आज़ा":3089,"टरी":3090,"तभी":3091,"मच्छ":3092,"तेज़ी":3093,"स्मार्ट":3094,"होनें":3095,"मातृ":3096,"विडियो":3097,"प्रधान":3098,"संपत्ति":3099,"संदर्भ":3100,"शिशु":3101,"ार्थी":3102,"सूट":3103,"समझता":3104,"स्टार":3105,"उत्तरी":3106,"प्राचीन":3107,"आँखें":3108,"नियंत्रित":3109,"अफ़्रीका":3110,"न्दगी":3111,"डौग":3112,"मुसीबत":3113,"आदि":3114,"इंग":3115,"उड़":3116,"उतार":3117,"औसत":3118,"धू":3119,"पढ":3120,"मक्":3121,"हमसे":3122,"वापिस":3123,"्यु":3124,"विभा":3125,"राय":3126,"नियर":3127,"दिये":3128,"पाल":3129,"ज़न":3130,"समर्":3131,"ार्म":3132,"चुना":3133,"समझौ":3134,"गुज़र":3135,"डीए":3136,"दिखाता":3137,"थोड़े":3138,"प्रेज़ी":3139,"सैन":3140,"क्षेप":3141,"मामलों":3142,"प्रभावी":3143,"जन्मदिन":3144,"मजबूर":3145,"तीसरा":3146,"सवारी":3147,"साधनों":3148,"विदेशी":3149,"प्रेज़ीडेंट":3150,"आबादी":3151,"कथा":3152,"हफ़्":3153,"ोह":3154,"यात्र":3155,"काउ":3156,"नहीँ":3157,"हमले":3158,"र्श":3159,"माप":3160,"बाधा":3161,"जीवा":3162,"रोज":3163,"रोचक":3164,"इनके":3165,"सूर्य":3166,"योद्धा":3167,"गुप्त":3168,"छोड़ने":3169,"अवस्था":3170,"प्रोत्":3171,"तकनीकी":3172,"अध्यक्ष":3173,"दुर्घटना":3174,"जरूरी":3175,"ंब":3176,"इयों":3177,"गार्":3178,"चक्र":3179,"चरण":3180,"बडी":3181,"मय":3182,"सत्य":3183,"सराह":3184,"सानों":3185,"विंस":3186,"विविध":3187,"चाय":3188,"जोकि":3189,"ल्ली":3190,"सुनी":3191,"ंडर":3192,"पेश":3193,"युग":3194,"अधिकतर":3195,"बैग":3196,"डेविड":3197,"नामक":3198,"अंतर्":3199,"शहरों":3200,"लंबी":3201,"बचने":3202,"तंत्रिका":3203,"ड्स":3204,"पहुंचा":3205,"कुत्ते":3206,"पुरस्कार":3207,"आकर":3208,"कवर":3209,"खड़ी":3210,"डू":3211,"दस्ता":3212,"धों":3213,"फलता":3214,"मज़े":3215,"सजा":3216,"स्टा":3217,"आपात":3218,"वित्":3219,"निंग":3220,"चाचा":3221,"न्त":3222,"कुंजी":3223,"संर":3224,"खाते":3225,"ंदन":3226,"सोचि":3227,"चेताव":3228,"टेली":3229,"सूअर":3230,"बारिश":3231,"अंधे":3232,"बोली":3233,"स्ट्री":3234,"मोड़":3235,"वैसा":3236,"छोड़कर":3237,"कर्ताओं":3238,"भूख":3239,"मालूम":3240,"आश्चर्यजनक":3241,"आखिरकार":3242,"डिजिटल":3243,"सबूत":3244,"ँग":3245,"अणु":3246,"आयु":3247,"कच":3248,"घि":3249,"ठो":3250,"फर":3251,"वक़":3252,"सका":3253,"ृत":3254,"ताल":3255,"क्कर":3256,"साँस":3257,"ज़रुरत":3258,"जितनी":3259,"सिं":3260,"किनारे":3261,"टाई":3262,"रिक्त":3263,"अंक":3264,"विश्लेषण":3265,"घरों":3266,"तरीकों":3267,"मौसम":3268,"राजनीति":3269,"महासागर":3270,"खेलने":3271,"भाषण":3272,"व्याख्या":3273,"बचाव":3274,"ज़िन्दगी":3275,"सदस्य":3276,"प्रारंभ":3277,"सूरज":3278,"नृत्य":3279,"विंसेंट":3280,"वक़्त":3281,"आन्":3282,"इश":3283,"इधर":3284,"घृ":3285,"जवान":3286,"दबाव":3287,"१००":3288,"याल":3289,"किरा":3290,"जाल":3291,"मास्टर":3292,"विशिष्ट":3293,"प्रोग्रा":3294,"बान":3295,"निस्तान":3296,"सुन्दर":3297,"पूंजी":3298,"बनाती":3299,"योजित":3300,"प्रतियोग":3301,"दर्शक":3302,"गोल":3303,"कौशल":3304,"भेद":3305,"माण्ड":3306,"पिछली":3307,"अधिकारी":3308,"पढ़ने":3309,"धिकार":3310,"ज़्यादातर":3311,"दिखती":3312,"दौड़":3313,"कराह":3314,"ट्टा":3315,"रणनीति":3316,"पृष्ठ":3317,"ग्रामी":3318,"ट्रेवर":3319,"नागरिकों":3320,"कैमरा":3321,"निराशा":3322,"अभियान":3323,"वित्तीय":3324,"ख्":3325,"मती":3326,"प्रसिद्ध":3327,"राक्ष":3328,"बाहरी":3329,"चालक":3330,"गांव":3331,"पाये":3332,"जीते":3333,"उनमे":3334,"पहे":3335,"उन्होनें":3336,"पुष्टि":3337,"पीने":3338,"बोर्ड":3339,"पेशे":3340,"हिट":3341,"पैरों":3342,"निर्देश":3343,"वैध":3344,"भागों":3345,"भरने":3346,"राजकु":3347,"अफगा":3348,"उठाया":3349,"रोगी":3350,"एंडर":3351,"पौधे":3352,"पुनः":3353,"प्रेरणा":3354,"उपाय":3355,"सज्जनों":3356,"सम्बन्ध":3357,"क्वांट":3358,"परेशानी":3359,"सोचिये":3360,"चेतावनी":3361,"एक्स":3362,"कही":3363,"नर्स":3364,"पार्":3365,"पार्क":3366,"बम":3367,"सफ़":3368,"नाते":3369,"क्यु":3370,"स्मृ":3371,"लाते":3372,"निप":3373,"न्द्र":3374,"ोगी":3375,"कुतिया":3376,"ज़मीन":3377,"संक्रमण":3378,"रूसी":3379,"क्री":3380,"होंगी":3381,"टेक्":3382,"व्यक्त":3383,"योगदान":3384,"स्थल":3385,"चलती":3386,"गुरु":3387,"बैठा":3388,"हँसते":3389,"विश्वविद्यालय":3390,"सुनना":3391,"ट्रिक":3392,"िनेंट":3393,"बोलते":3394,"परीक्षा":3395,"बॉस":3396,"लौट":3397,"प्रतीक्षा":3398,"तलवार":3399,"घोषणा":3400,"ब्रह्माण्ड":3401,"ग्रामीण":3402,"क्वांटम":3403,"अँ":3404,"इड":3405,"जरु":3406,"ठंड":3407,"नारा":3408,"ोत":3409,"तेरे":3410,"एकमात्र":3411,"लेफ्ट":3412,"पात":3413,"पाता":3414,"चाहें":3415,"सिटी":3416,"रखी":3417,"उत्साहित":3418,"बढ़ती":3419,"ंकन":3420,"जिनमें":3421,"भावनाओं":3422,"ब्रू":3423,"जानवरों":3424,"सॉफ्ट":3425,"उद्यमी":3426,"विस्फोट":3427,"आकर्षित":3428,"तापमान":3429,"तूफान":3430,"रोमांचक":3431,"आधी":3432,"इये":3433,"उद":3434,"लहर":3435,"ैंक":3436,"साई":3437,"हुये":3438,"उसमे":3439,"समी":3440,"फ़्र":3441,"उन्होने":3442,"शुद्ध":3443,"स्थायी":3444,"उत्ते":3445,"उत्सु":3446,"खेद":3447,"असफल":3448,"प्रेमी":3449,"अवधि":3450,"पूछता":3451,"दायक":3452,"जहाज़":3453,"अफ़्रीकी":3454,"भ्रष्ट":3455,"जिम्मेदार":3456,"मजेदार":3457,"मातृभाषा":3458,"हफ़्ते":3459,"सराहना":3460,"स्मृति":3461,"लेफ्टिनेंट":3462,"अतीत":3463,"एलि":3464,"कना":3465,"फू":3466,"मई":3467,"मंद":3468,"वश":3469,"शराब":3470,"सटी":3471,"हस्ता":3472,"१८":3473,"नेताओं":3474,"क्य":3475,"हानि":3476,"वाणी":3477,"चालू":3478,"जीरिया":3479,"दोनो":3480,"कामया":3481,"बीस":3482,"छोड":3483,"रुद्ध":3484,"वर्ड":3485,"जाओगे":3486,"जिनकी":3487,"सैनिकों":3488,"बचाया":3489,"पूछते":3490,"क्षेत्रों":3491,"साहस":3492,"प्रोजेक्ट":3493,"विशेषज्ञ":3494,"नियमों":3495,"उल्लेख":3496,"अतिरिक्त":3497,"नमस्ते":3498,"ड्राइव":3499,"डों":3500,"धम":3501,"वजन":3502,"हस्त":3503,"काई":3504,"क्लिक":3505,"लेडी":3506,"लाओ":3507,"लाइट":3508,"प्रमाण":3509,"नीला":3510,"पाकि":3511,"पाएंगे":3512,"कारो":3513,"भागी":3514,"शिंग":3515,"कहे":3516,"पुल":3517,"डाउन":3518,"परिचित":3519,"समझे":3520,"सोचती":3521,"खोल":3522,"टियों":3523,"बच्चो":3524,"ज़ाहिर":3525,"अंततः":3526,"पकड़ो":3527,"संबंधित":3528,"मुद्दा":3529,"फोटोग्रा":3530,"अत्यधिक":3531,"नवीन":3532,"ंप":3533,"ंटी":3534,"इलेक्":3535,"ईंध":3536,"उतनी":3537,"एगा":3538,"चमक":3539,"नती":3540,"बडे":3541,"हृ":3542,"ॉक":3543,"केल":3544,"यात":3545,"साद":3546,"लांग":3547,"लानत":3548,"भीड़":3549,"मुम":3550,"प्रस्तु":3551,"हुल":3552,"सकेंगे":3553,"अपमान":3554,"न्ना":3555,"जीना":3556,"दोबारा":3557,"पासपोर्ट":3558,"बोलो":3559,"जनता":3560,"जेम्स":3561,"इंजन":3562,"गोरि":3563,"बदलते":3564,"हंस":3565,"टोपी":3566,"जूते":3567,"फिल":3568,"मिलेगी":3569,"ज़िम्मे":3570,"वैज्ञानिकों":3571,"लम्बे":3572,"टुकड़े":3573,"आंकड़े":3574,"माइक्रो":3575,"स्नातक":3576,"गिनती":3577,"इए":3578,"ईश्वर":3579,"एजेंट":3580,"नून":3581,"पसी":3582,"बटन":3583,"ल्यू":3584,"वत्ता":3585,"हल्":3586,"िंग":3587,"ूंगा":3588,"ोन":3589,"नाटक":3590,"हम्म":3591,"वास्तु":3592,"विरो":3593,"राहुल":3594,"निश":3595,"सीधा":3596,"पाई":3597,"संसाधनों":3598,"जीतने":3599,"कियाँ":3600,"पूँ":3601,"ढ़ियों":3602,"डाइ":3603,"म्भ":3604,"उत्तम":3605,"जेब":3606,"यीशु":3607,"बंदर":3608,"ग्रस्त":3609,"पोषण":3610,"कॉफी":3611,"कर्षण":3612,"तैर":3613,"स्पद":3614,"सुनते":3615,"परिवारों":3616,"अगला":3617,"क़ा":3618,"बैठक":3619,"किसने":3620,"डालते":3621,"अरबी":3622,"घुस":3623,"मशीनों":3624,"अधिकारों":3625,"टिकट":3626,"मार्टिन":3627,"ख़ास":3628,"प्रबंधन":3629,"गुस्सा":3630,"प्रतियोगिता":3631,"मुमकिन":3632,"अतः":3633,"आकृति":3634,"कहूँ":3635,"मस":3636,"वरी":3637,"षित":3638,"ैल":3639,"किलो":3640,"कोने":3641,"हमनें":3642,"र्ग":3643,"लागत":3644,"माह":3645,"नींद":3646,"रेल":3647,"संपूर्ण":3648,"लगने":3649,"जीन":3650,"भाविक":3651,"ल्ट":3652,"दुर":3653,"टायर":3654,"प्रतिनिधि":3655,"उपभो":3656,"लियाँ":3657,"गुजर":3658,"ग्रि":3659,"सामूह":3660,"महामारी":3661,"व्यापक":3662,"सहज":3663,"खिल":3664,"ंटों":3665,"कठोर":3666,"प्रभावशाली":3667,"पूर्वक":3668,"सहायक":3669,"पौधों":3670,"खासकर":3671,"वस्तुओं":3672,"लम्बी":3673,"गुणवत्ता":3674,"प्रोग्राम":3675,"ईंधन":3676,"सामूहिक":3677,"उभर":3678,"उदार":3679,"दना":3680,"धारा":3681,"बं":3682,"बहू":3683,"लंदन":3684,"नाई":3685,"नाश":3686,"क्ल":3687,"क्की":3688,"मैडम":3689,"सायन":3690,"वासियों":3691,"लेस":3692,"बायो":3693,"तोड़ने":3694,"कारक":3695,"जितने":3696,"शियों":3697,"बीज":3698,"टेन":3699,"प्स":3700,"ब्लैक":3701,"यूनि":3702,"तैया":3703,"महिलाएं":3704,"जिनसे":3705,"पकड़ा":3706,"वाहन":3707,"पूछने":3708,"स्कूलों":3709,"क्यूँ":3710,"चलेगा":3711,"रचनात्मक":3712,"प्रकाशित":3713,"गणना":3714,"नाइजीरिया":3715,"लोकतंत्र":3716,"हज़ारों":3717,"सांस्":3718,"मंडल":3719,"आन्दोलन":3720,"अस्पष्ट":3721,"एन्":3722,"कक्ष":3723,"कड़ी":3724,"दौर":3725,"बचे":3726,"क्साइड":3727,"स्वर":3728,"स्वान":3729,"जाऊँगा":3730,"लेगा":3731,"मेज":3732,"प्रिया":3733,"निदान":3734,"निहित":3735,"कुत्ता":3736,"समृ":3737,"संसाधन":3738,"लोड":3739,"बीमा":3740,"महारा":3741,"शुभ":3742,"रुचि":3743,"परिभाषा":3744,"जाएं":3745,"बनता":3746,"स्ट्रे":3747,"निकलना":3748,"गुणा":3749,"गहरे":3750,"ष्ठा":3751,"टोनी":3752,"कॉर्":3753,"कॉपी":3754,"पारि":3755,"बर्लिन":3756,"कठि":3757,"घाव":3758,"गिरफ्त":3759,"भविष्यवाणी":3760,"मामला":3761,"पकड़ने":3762,"निकाला":3763,"खरीदने":3764,"बुद्धिमान":3765,"सावधान":3766,"बूढ़े":3767,"वर्णन":3768,"पेशेवर":3769,"उत्सुक":3770,"ईमेल":3771,"कण":3772,"कड़ों":3773,"खंड":3774,"जला":3775,"टकरा":3776,"डब्":3777,"तत्":3778,"रसायन":3779,"सफे":3780,"केन्द्र":3781,"कोरिया":3782,"क्लि":3783,"हाइ":3784,"यहू":3785,"मुँ":3786,"विवरण":3787,"राशि":3788,"न्त्र":3789,"पाती":3790,"वहन":3791,"रूस":3792,"रोल":3793,"मतौर":3794,"जनरल":3795,"चलें":3796,"कारणों":3797,"मौलिक":3798,"चीज़े":3799,"दरअसल":3800,"स्वाभाविक":3801,"ट्रक":3802,"सहारा":3803,"फैला":3804,"उठाने":3805,"पुराना":3806,"तस्वीरों":3807,"अंगू":3808,"आमंत्र":3809,"सपनों":3810,"नकली":3811,"पाठ्य":3812,"नक्शे":3813,"चढ़ा":3814,"इंजीनियर":3815,"ठहाका":3816,"वितरण":3817,"ंह":3818,"अदा":3819,"आविष्कार":3820,"आमतौर":3821,"ओक्":3822,"घरे":3823,"ड्रे":3824,"पिया":3825,"षि":3826,"सश":3827,"सचे":3828,"नेक":3829,"लियो":3830,"वाइ":3831,"माइक":3832,"मुड़":3833,"राजन":3834,"बाप":3835,"दित":3836,"संग":3837,"फ़ॉ":3838,"ंगल":3839,"क्रमित":3840,"अध्या":3841,"टेलो":3842,"प्रतिरक्षा":3843,"अनुकूल":3844,"बुल":3845,"स्थापना":3846,"शीलता":3847,"गुरू":3848,"प्यारा":3849,"प्यारी":3850,"करेगी":3851,"सुनाई":3852,"सीखते":3853,"मार्च":3854,"घातक":3855,"शल्य":3856,"पुस्तकाल":3857,"आइए":3858,"अत्यंत":3859,"आकर्षक":3860,"नमूने":3861,"ख़ुशी":3862,"मुकाबले":3863,"चार्ल्स":3864,"जरुरी":3865,"तैयारी":3866,"सांस्कृतिक":3867,"उपह":3868,"गंध":3869,"पहर":3870,"पडे":3871,"पक्का":3872,"फसल":3873,"मज":3874,"सृ":3875,"ैतिक":3876,"कात":3877,"स्क्र":3878,"लेती":3879,"मानित":3880,"विभाग":3881,"गाह":3882,"तीव्र":3883,"ज़ो":3884,"देखती":3885,"वेन":3886,"मीटिंग":3887,"त्रु":3888,"बादल":3889,"मनोर":3890,"बढ़ते":3891,"मोन":3892,"छाया":3893,"भाषित":3894,"सैन्य":3895,"गतिविधि":3896,"द्योगिक":3897,"तिहाई":3898,"छुट्टी":3899,"ग्राहक":3900,"शर्त":3901,"बेचने":3902,"जाएँगे":3903,"मज़ाक":3904,"निरंतर":3905,"मलेरिया":3906,"तहत":3907,"एल्गोरि":3908,"क्सिको":3909,"शिकायत":3910,"अफगानिस्तान":3911,"मुँह":3912,"उपहार":3913,"एयर":3914,"ऑक्साइड":3915,"तत्व":3916,"मरे":3917,"शहरी":3918,"ौल":3919,"४०":3920,"ेंच":3921,"परो":3922,"देकर":3923,"वित्र":3924,"कुरा":3925,"पहने":3926,"दोपहर":3927,"फ़्रा":3928,"ंद्र":3929,"डाय":3930,"बताती":3931,"ब्ला":3932,"आदमियों":3933,"शेयर":3934,"एंटी":3935,"कार्यों":3936,"न्यूयॉर्क":3937,"दिखने":3938,"ग्रहण":3939,"बॉल":3940,"बॉक्स":3941,"आसमान":3942,"अन्त":3943,"शैली":3944,"दीवारों":3945,"पश्चिमी":3946,"निराश":3947,"गहराई":3948,"नक्शा":3949,"देवताओं":3950,"संवेदनशील":3951,"दस्तावे":3952,"मज़ेदार":3953,"निपटने":3954,"सटीक":3955,"हस्ताक्षर":3956,"कामयाब":3957,"हृदय":3958,"ंसक":3959,"अहम":3960,"औद्योगिक":3961,"कसम":3962,"घड़ी":3963,"चट्टा":3964,"दफ":3965,"वंश":3966,"शर":3967,"ाचार":3968,"ृह":3969,"ोँ":3970,"किरण":3971,"लिपि":3972,"जात":3973,"लाइस":3974,"मुना":3975,"प्रचार":3976,"तुमको":3977,"न्डो":3978,"सीधी":3979,"जोड":3980,"मिकता":3981,"जिज्ञा":3982,"दावा":3983,"जीवी":3984,"पूर":3985,"दीजिये":3986,"दुः":3987,"परिस्थितियों":3988,"पेशा":3989,"अधिकतम":3990,"हिम":3991,"डिज़ा":3992,"निर्मित":3993,"आजकल":3994,"जैविक":3995,"व्यक्तियों":3996,"चित्रों":3997,"आएगा":3998,"कोशिकाएं":3999,"आत्मह":4000,"पंक्ति":4001,"क्सीजन":4002,"खिड़की":4003,"ब्लॉक":4004,"ूर्ति":4005,"हड्डी":4006,"दैनिक":4007,"मुलाकात":4008,"सफेद":4009,"आमंत्रित":4010,"ओक्जा":4011,"टेलोमेरे":4012,"अहसास":4013,"उंग":4014,"उतने":4015,"उर्जा":4016,"कमाल":4017,"गौर":4018,"चयन":4019,"छः":4020,"झी":4021,"तंग":4022,"नॉ":4023,"पों":4024,"फॉ":4025,"रवि":4026,"लटका":4027,"ौती":4028,"सेक्स":4029,"काले":4030,"साक्षा":4031,"जाहिर":4032,"जाऊंगा":4033,"विद्य":4034,"बाइल":4035,"दिखे":4036,"दिल्ली":4037,"संक्रमित":4038,"फ़र्क":4039,"सोस":4040,"दीजिए":4041,"तरंग":4042,"रोना":4043,"रहीं":4044,"बोतल":4045,"धानी":4046,"टिन":4047,"टिस":4048,"मोटा":4049,"मोबाइल":4050,"खेलते":4051,"सैकड़ों":4052,"पुरुषः":4053,"पड़ेगी":4054,"औरतें":4055,"स्टेशन":4056,"तीसरी":4057,"कमांडर":4058,"एसडी":4059,"सहयोगी":4060,"शरणार्थी":4061,"विज्ञापन":4062,"स्वतंत्रता":4063,"संभावित":4064,"डीएनए":4065,"आत्महत्या":4066,"अजन":4067,"अड्":4068,"इंदु":4069,"एका":4070,"चारी":4071,"तारी":4072,"दश":4073,"दंड":4074,"धत्":4075,"नकारा":4076,"बला":4077,"बगल":4078,"िमा":4079,"स्कार":4080,"आपस":4081,"वाना":4082,"मानी":4083,"जिल":4084,"जिंग":4085,"गेट":4086,"द्वि":4087,"दूं":4088,"रोको":4089,"दुखी":4090,"कमरा":4091,"कमज़ोर":4092,"ब्दी":4093,"बनते":4094,"मारना":4095,"स्टन":4096,"हेलो":4097,"आदत":4098,"आदर्श":4099,"त्मकता":4100,"शेर":4101,"उपयोगी":4102,"कंपनिया":4103,"ख़त्म":4104,"धीमी":4105,"बहस":4106,"सहित":4107,"दौरा":4108,"बोलने":4109,"लंबा":4110,"जायें":4111,"ज़िंदा":4112,"संभवतः":4113,"घुमा":4114,"हारण":4115,"समानता":4116,"नैतिक":4117,"गैस":4118,"ढेर":4119,"नमूना":4120,"जिम्मेदारी":4121,"दर्शकों":4122,"निगरानी":4123,"घृणा":4124,"उपभोक्ता":4125,"बहूत":4126,"पुस्तकालय":4127,"ँद":4128,"इस्":4129,"ईस":4130,"ओके":4131,"घबरा":4132,"घंटों":4133,"नस्":4134,"नक़":4135,"पड":4136,"पवित्र":4137,"लूँगा":4138,"शता":4139,"सेंट":4140,"याय":4141,"कोल":4142,"काया":4143,"एकत्र":4144,"सांख":4145,"वाल":4146,"नीले":4147,"रेगि":4148,"न्ट":4149,"कुशल":4150,"मिश्र":4151,"मिरै":4152,"दाता":4153,"सबकुछ":4154,"श्त":4155,"शिक्ष":4156,"परिभाषित":4157,"पूर्वी":4158,"बुन":4159,"कैरि":4160,"हेल":4161,"गुड":4162,"शनल":4163,"प्यारे":4164,"पहुच":4165,"एंटो":4166,"चलाते":4167,"पर्य":4168,"स्वचालित":4169,"हँस":4170,"लूंगा":4171,"श्रीमान":4172,"इन्टर":4173,"अफ्रीकी":4174,"घटनाओं":4175,"आंखों":4176,"निकलने":4177,"बढ़ावा":4178,"अलार्म":4179,"ब्रायन":4180,"तीसरे":4181,"दक्षिणी":4182,"गूगल":4183,"क्रोध":4184,"दिलचस्पी":4185,"उठो":4186,"भ्रम":4187,"स्थिरता":4188,"त्रिम":4189,"मुस्कुरा":4190,"डराव":4191,"कागज":4192,"सर्वश्रेष्ठ":4193,"चमत्कार":4194,"टर्न":4195,"करुणा":4196,"जर्मन":4197,"शर्मिंदा":4198,"विभाजित":4199,"ठोस":4200,"उदहारण":4201,"कारोबार":4202,"डाइऑक्साइड":4203,"राजनैतिक":4204,"सांख्य":4205,"मिरैन्डो":4206,"ंसी":4207,"आनु":4208,"एरिक":4209,"चक्कर":4210,"नार":4211,"फस":4212,"यदे":4213,"रसो":4214,"नेत्र":4215,"नायक":4216,"कांग":4217,"स्वर्ग":4218,"मेन":4219,"मेलन":4220,"गाना":4221,"सकूँ":4222,"पायल":4223,"संचालित":4224,"दाँ":4225,"जीता":4226,"भागो":4227,"बेस":4228,"द्द":4229,"दीर्":4230,"प्प":4231,"प्रतिस्पर्":4232,"बोझ":4233,"जनसंख्या":4234,"बनती":4235,"मारो":4236,"डिथ":4237,"निकला":4238,"कृत्रिम":4239,"टिम":4240,"चलाना":4241,"ग्रहों":4242,"जूझ":4243,"बंधित":4244,"बैठो":4245,"बिल्ली":4246,"दिखते":4247,"बचत":4248,"अर्थशास्त्र":4249,"घात":4250,"ग्रीन":4251,"दवाओं":4252,"निकालने":4253,"टाइप":4254,"मुद्दों":4255,"कहानियां":4256,"पहुंचे":4257,"गेंद":4258,"वयस्क":4259,"मच्छर":4260,"कनाडा":4261,"गिरफ्तार":4262,"आजा":4263,"आक्रमण":4264,"ऑपरे":4265,"ओँ":4266,"कवि":4267,"धूल":4268,"नज":4269,"पने":4270,"पद्ध":4271,"बौ":4272,"मधु":4273,"सवार":4274,"हन्ना":4275,"ुत":4276,"ॉप":4277,"१४":4278,"काला":4279,"होगे":4280,"वान्":4281,"लाता":4282,"मुक":4283,"प्रथम":4284,"चाकू":4285,"पाइ":4286,"ज़ों":4287,"वेक्षण":4288,"सिवा":4289,"खाता":4290,"मानो":4291,"अंश":4292,"अंकल":4293,"स्टि":4294,"बैंड":4295,"ंत्रिक":4296,"प्राण":4297,"मौके":4298,"ूँगी":4299,"जूडिथ":4300,"सम्मेलन":4301,"फिट":4302,"खिलौ":4303,"न्यूरॉ":4304,"उदास":4305,"इन्सान":4306,"गिरने":4307,"घंटी":4308,"वृत्त":4309,"रॉक":4310,"सड़कों":4311,"मूर्ति":4312,"हिरण":4313,"फ़िल्म":4314,"उपकरणों":4315,"कैमरे":4316,"कर्मचारी":4317,"प्राथमिक":4318,"प्रोत्साहित":4319,"प्रस्तुत":4320,"स्क्रीन":4321,"एसडीजी":4322,"सांख्यिकी":4323,"ंसि":4324,"आर्":4325,"आहार":4326,"आयोजन":4327,"एमी":4328,"एलन":4329,"कब्":4330,"फिक":4331,"भोग":4332,"वू":4333,"१६":4334,"केक":4335,"याम":4336,"यानि":4337,"किसान":4338,"हीरो":4339,"काली":4340,"होत":4341,"साबुन":4342,"आपूर्ति":4343,"र्ती":4344,"माश":4345,"देवियों":4346,"रहित":4347,"विस":4348,"विन्स":4349,"प्रदर्श":4350,"थाः":4351,"नियो":4352,"चालन":4353,"न्ति":4354,"हूंगी":4355,"ज़त":4356,"संग्रह":4357,"लीजिए":4358,"शाप":4359,"सबक":4360,"सुख":4361,"स्तन":4362,"सिंग":4363,"द्वार":4364,"बिग":4365,"मिलेंगे":4366,"डाकू":4367,"म्म":4368,"चिह्":4369,"बदतर":4370,"बदबू":4371,"अनुवाद":4372,"बोलना":4373,"लगाव":4374,"पेन":4375,"पैट्रिक":4376,"निर्माता":4377,"बैक्":4378,"दिखाते":4379,"भेड़":4380,"भेजे":4381,"डरते":4382,"पकड़े":4383,"वर्षीय":4384,"ट्ज़":4385,"घटिया":4386,"ऊँगी":4387,"लिखने":4388,"लिखना":4389,"किताबें":4390,"लेखक":4391,"अपराधी":4392,"सीमाओं":4393,"ग़लत":4394,"प्रतीत":4395,"डैनी":4396,"ढूँढ़":4397,"सुपरमैन":4398,"नमस्कार":4399,"शीर्षक":4400,"पेंटिंग":4401,"क्लास":4402,"संतुलन":4403,"मुकाबला":4404,"चिन्ह":4405,"बिक्री":4406,"आज़ादी":4407,"इंग्":4408,"राक्षस":4409,"पाकिस्तान":4410,"प्रतिनिधित्व":4411,"लाइसेंस":4412,"डिज़ाइन":4413,"इन्टरनेट":4414,"अख":4415,"अथ":4416,"कष्ट":4417,"घे":4418,"चॉक":4419,"टकारा":4420,"डबल":4421,"डूब":4422,"तमाम":4423,"पब्":4424,"मज़":4425,"रन":4426,"सत्ता":4427,"हन":4428,"नांतर":4429,"लिय":4430,"लात":4431,"लाये":4432,"मांड":4433,"प्रवाह":4434,"चाँद":4435,"गां":4436,"मिक्स":4437,"समन्":4438,"दाम":4439,"लीजिये":4440,"क्षी":4441,"पूछो":4442,"पहचा":4443,"मान्यता":4444,"अनो":4445,"टीका":4446,"टाने":4447,"पीड़ा":4448,"परिवहन":4449,"चुं":4450,"्राज्य":4451,"डियों":4452,"हूंगा":4453,"बढ़ो":4454,"टिव":4455,"असफलता":4456,"साम्राज्य":4457,"नोट":4458,"जुट":4459,"महाद्वीप":4460,"व्यायाम":4461,"पड़ती":4462,"डालने":4463,"लंघन":4464,"विकासशील":4465,"फ्लै":4466,"आँक":4467,"आंतर":4468,"आंदोलन":4469,"ग्राह":4470,"पागलपन":4471,"उल्लंघन":4472,"पहुँचे":4473,"मार्गदर्शन":4474,"वार्ताला":4475,"कागज़":4476,"ईमानदारी":4477,"यात्री":4478,"गार्ड":4479,"राजकुमारी":4480,"सचेत":4481,"ंका":4482,"अट":4483,"एम्":4484,"ऑक्सीजन":4485,"ओवर":4486,"चकित":4487,"नर्":4488,"पारी":4489,"पपी":4490,"भव्य":4491,"लघु":4492,"वक्ता":4493,"षक":4494,"हड़":4495,"हसी":4496,"९०":4497,"ारों":4498,"किसे":4499,"एकल":4500,"होश":4501,"बालों":4502,"चाला":4503,"रेड":4504,"रीब":4505,"पाउंड":4506,"कुश":4507,"मिथ":4508,"दादा":4509,"वेदन":4510,"सबुक":4511,"फ़ु":4512,"मानक":4513,"बनायी":4514,"चारियों":4515,"प्रतिदिन":4516,"बदमाश":4517,"अनुदान":4518,"लियां":4519,"पूर्वज":4520,"लगाते":4521,"पैटर्न":4522,"खोजना":4523,"उत्साह":4524,"कार्यवाही":4525,"जुनून":4526,"पारं":4527,"स्कू":4528,"फायदा":4529,"फैल":4530,"म्रपान":4531,"श्रो":4532,"अन्याय":4533,"न्यास":4534,"संबंधी":4535,"चुनौतियों":4536,"क्रामक":4537,"शैतान":4538,"जादूगर":4539,"लोकप्रिय":4540,"श्रेणी":4541,"निष्कर्ष":4542,"कर्मचारियों":4543,"प्रशंसा":4544,"विविधता":4545,"सॉफ्टवेयर":4546,"हस्तक्षेप":4547,"पूँजी":4548,"अम्":4549,"अदृश्य":4550,"आइस":4551,"आलो":4552,"एह":4553,"खयाल":4554,"गली":4555,"झटका":4556,"धार्":4557,"धक्का":4558,"पते":4559,"वस्त":4560,"सभा":4561,"हटो":4562,"हफ़्त":4563,"केस":4564,"किशोर":4565,"क्लो":4566,"क्लब":4567,"स्यों":4568,"जादु":4569,"वाक्य":4570,"वाशिंग":4571,"प्रदू":4572,"प्रकट":4573,"इसमे":4574,"निभा":4575,"चाप":4576,"गायन":4577,"न्ड":4578,"पांडा":4579,"कुर्":4580,"मिंग":4581,"समू":4582,"संगत":4583,"त्वा":4584,"जीनो":4585,"पहना":4586,"खान":4587,"सोना":4588,"सोशल":4589,"शिवा":4590,"डाई":4591,"रियों":4592,"खुल":4593,"पेरिस":4594,"ब्लू":4595,"बनो":4596,"डिट":4597,"बैं":4598,"ंधे":4599,"छोड़ो":4600,"पोशा":4601,"जून":4602,"अवरोध":4603,"ट्रॉ":4604,"सर्वो":4605,"घटित":4606,"निश्चय":4607,"प्रोफे":4608,"खिलाडी":4609,"पत्रिका":4610,"हालत":4611,"ट्रेन":4612,"संगठनों":4613,"छिपा":4614,"आंकड़ों":4615,"मुद्दे":4616,"बहादुर":4617,"लाइड":4618,"क्योँ":4619,"सेंसर":4620,"स्टीव":4621,"दोषी":4622,"ब्रेक":4623,"विज्ञानी":4624,"प्रिंट":4625,"स्रोत":4626,"सभ्यता":4627,"आपातकालीन":4628,"भ्रष्टाचार":4629,"विरोधी":4630,"साक्षात्कार":4631,"दशकों":4632,"नकारात्मक":4633,"पद्धति":4634,"आंतरिक":4635,"आरोप":4636,"इंड":4637,"कड़":4638,"छी":4639,"ण्":4640,"थै":4641,"नः":4642,"पिक":4643,"फों":4644,"बयान":4645,"बहोत":4646,"वचन":4647,"११":4648,"१७":4649,"९९":4650,"्रयू":4651,"क्के":4652,"मैक्स":4653,"हास्य":4654,"स्पै":4655,"स्कै":4656,"स्वाद":4657,"लियत":4658,"आपदा":4659,"मेडिक":4660,"मेक्सिको":4661,"मुंह":4662,"बां":4663,"रेख":4664,"सीरिया":4665,"दिर":4666,"शाही":4667,"भास":4668,"खाया":4669,"खाद्य":4670,"रोटी":4671,"चीजे":4672,"क्रूर":4673,"इनका":4674,"पिंग":4675,"पीटर":4676,"हिला":4677,"धातु":4678,"टिश":4679,"भगवान्":4680,"पारित":4681,"ट्वि":4682,"बंधन":4683,"व्याव":4684,"अग्":4685,"चोर":4686,"घाना":4687,"कराया":4688,"श्रम":4689,"तारों":4690,"उत्पादों":4691,"छुटकारा":4692,"फ़ोटो":4693,"हालाँकि":4694,"पक्षी":4695,"चरित":4696,"टॉप":4697,"डैड":4698,"गंभीरता":4699,"पढ़ाई":4700,"छूट":4701,"मित्रों":4702,"क्योकि":4703,"किस्मत":4704,"महत्त्व":4705,"समझौता":4706,"रसोई":4707,"ग्राहकों":4708,"वार्तालाप":4709,"हफ़्तों":4710,"जादुई":4711,"मेडिकल":4712,"अविष्कार":4713,"अनिवार":4714,"ईन":4715,"ऋण":4716,"गृह":4717,"टें":4718,"शित":4719,"सवी":4720,"हता":4721,"हैरान":4722,"किशो":4723,"ताली":4724,"कालिक":4725,"क्ताओं":4726,"मैदान":4727,"विनाश":4728,"बामा":4729,"सीए":4730,"जोड़ने":4731,"पात्र":4732,"मिका":4733,"त्तर":4734,"सिए":4735,"शिक्षण":4736,"इनकी":4737,"टीन":4738,"पुर्":4739,"डालो":4740,"म्ब":4741,"रखेंगे":4742,"चिपका":4743,"बोन":4744,"ब्स":4745,"पैदल":4746,"निकलो":4747,"खोलने":4748,"इंट":4749,"छोड़ना":4750,"दारों":4751,"जिनको":4752,"धीमा":4753,"नियरिंग":4754,"अन्यथा":4755,"सर्वेक्षण":4756,"मूल्या":4757,"व्यवस्थित":4758,"साइमन":4759,"परिवर्तित":4760,"वेश्या":4761,"क्रिकेट":4762,"बढ़ाने":4763,"सायिक":4764,"समझाने":4765,"चौथा":4766,"बढिया":4767,"हार्मोन":4768,"मर्द":4769,"मंजिल":4770,"ब्रिटिश":4771,"दर्शाता":4772,"ट्रोल":4773,"जॉनी":4774,"मनोवैज्ञानिक":4775,"प्राथमिकता":4776,"समर्पण":4777,"कचरे":4778,"प्रारंभिक":4779,"अड्डे":4780,"रेगिस्तान":4781,"प्रतिस्पर्धा":4782,"बैक्टी":4783,"पब्लिक":4784,"पारंपरिक":4785,"धार्मिक":4786,"चरित्र":4787,"ंचा":4788,"अद":4789,"अत्या":4790,"अनेक":4791,"इजा":4792,"इबोला":4793,"उम":4794,"उधर":4795,"एड":4796,"ओगे":4797,"कव":4798,"चलिये":4799,"टस":4800,"ठंडा":4801,"डार":4802,"धै":4803,"पट्टी":4804,"भर्ती":4805,"मश":4806,"य्":4807,"्न":4808,"६०":4809,"८०":4810,"स्लाइड":4811,"र्जी":4812,"लेक्स":4813,"मादी":4814,"जोड़ी":4815,"मिस":4816,"दांत":4817,"वेटर":4818,"साथियों":4819,"पहलू":4820,"सोर":4821,"बिलियन":4822,"जिसको":4823,"सूखे":4824,"स्थानांतर":4825,"भावुक":4826,"कृषि":4827,"इंजे":4828,"बैंग":4829,"प्रेस":4830,"गईं":4831,"ब्रों":4832,"ग्ध":4833,"प्रणालियों":4834,"तिहासिक":4835,"छुपा":4836,"लेंस":4837,"अधिकारियों":4838,"पत्रकार":4839,"अस्पतालों":4840,"नाइल्स":4841,"प्रतीक":4842,"वॉकर":4843,"बाँध":4844,"परंपरा":4845,"संवेदना":4846,"स्पेस":4847,"सन्देश":4848,"ट्रैक":4849,"इंजीनियरिंग":4850,"वुड":4851,"पहेली":4852,"नस्ल":4853,"शिक्षकों":4854,"दाँत":4855,"विन्सेंट":4856,"चॉकलेट":4857,"चुंबन":4858,"व्यावसायिक":4859,"बैक्टीरिया":4860,"ँगी":4861,"ंछ":4862,"अक्ष":4863,"उधार":4864,"खार":4865,"जर्म":4866,"तरा":4867,"द्रा":4868,"पडा":4869,"फार":4870,"फंस":4871,"लयों":4872,"सस्ता":4873,"सफ़े":4874,"हनी":4875,"तालि":4876,"्रवाई":4877,"कोय":4878,"काय":4879,"क्ली":4880,"होम":4881,"र्थी":4882,"देन":4883,"मुर्":4884,"विर":4885,"विल":4886,"थाम":4887,"बाजी":4888,"चाहूंगी":4889,"मिया":4890,"कार्रवाई":4891,"वेगा":4892,"वेतन":4893,"शास्त्री":4894,"सबका":4895,"ल्फ":4896,"सुई":4897,"फ़ू":4898,"बेथ":4899,"शियल":4900,"कामना":4901,"चेक":4902,"इनको":4903,"टेस्ट":4904,"प्पो":4905,"प्लेट":4906,"परिचय":4907,"सूपर":4908,"प्रतिष्ठा":4909,"उपन्यास":4910,"ब्ले":4911,"हिल":4912,"पैके":4913,"पैंट":4914,"कैद":4915,"विकलांग":4916,"बढ़ता":4917,"मोटर":4918,"मरम्मत":4919,"भागने":4920,"कार्यकर्ता":4921,"भेजी":4922,"सम्भावना":4923,"किसके":4924,"मार्क":4925,"सौभाग्य":4926,"गिरफ़्त":4927,"त्याशित":4928,"ग्स":4929,"खरीदा":4930,"गर्मी":4931,"चूहे":4932,"सेवानि":4933,"एंड्रयू":4934,"दरवाज़े":4935,"परिणामों":4936,"लकड़ी":4937,"जहाजों":4938,"अरबों":4939,"बेवकूफ़":4940,"पॉल":4941,"पहनने":4942,"पहाड़":4943,"इराक":4944,"ब्रह्मांड":4945,"पढाई":4946,"कम्प्यूटर":4947,"आतंकवादी":4948,"सभ्य":4949,"स्ट्रीट":4950,"क्युंकि":4951,"जिज्ञासा":4952,"अजनबी":4953,"न्यूरॉन्स":4954,"प्रदूषण":4955,"अनिवार्य":4956,"धैर्य":4957,"अग्र":4958,"उथ":4959,"कः":4960,"कस्":4961,"गों":4962,"गलियों":4963,"जगा":4964,"टार":4965,"नवा":4966,"नकल":4967,"फ्री":4968,"बराब":4969,"भैर":4970,"मंगल":4971,"वहा":4972,"शनिवार":4973,"सले":4974,"सार्थ":4975,"सदियों":4976,"ेंड":4977,"केन":4978,"करूं":4979,"किसानों":4980,"कोइ":4981,"हास्या":4982,"लिखी":4983,"साला":4984,"हमा":4985,"र्न":4986,"जाया":4987,"भीख":4988,"मामू":4989,"मुफ़्त":4990,"विजे":4991,"विद्र":4992,"विवाह":4993,"रासत":4994,"बाऊ":4995,"निम्":4996,"निपट":4997,"मिसाइ":4998,"संग्र":4999,"दाश्त":5000,"लोगे":5001,"कियां":5002,"सुनि":5003,"दीक":5004,"बियर":5005,"टेलर":5006,"पीते":5007,"सरण":5008,"डालता":5009,"अनुरोध":5010,"हिष्":5011,"स्टै":5012,"उत्पीड़":5013,"जेने":5014,"न्यु":5015,"दर्ज":5016,"वासन":5017,"यद्य":5018,"खेत":5019,"यूरो":5020,"मर्रा":5021,"स्वरूप":5022,"समस्याएं":5023,"ख़राब":5024,"अवधारणा":5025,"बर्ताव":5026,"खेलना":5027,"दृढ़":5028,"पढ़ना":5029,"चित्रण":5030,"फेसबुक":5031,"सरकारों":5032,"लॉक":5033,"रॉकेट":5034,"कटौती":5035,"लोगोँ":5036,"टाइम":5037,"भौति":5038,"बाँट":5039,"शॉट":5040,"प्टर":5041,"विस्तृत":5042,"मुस्कान":5043,"पहाड़ों":5044,"अप्रत्याशित":5045,"समर्पित":5046,"जीवाश्":5047,"संरक्षण":5048,"कराहना":5049,"उत्तेजित":5050,"क्लार्क":5051,"डब्ल्यू":5052,"घरेलू":5053,"शताब्दी":5054,"प्रदर्शित":5055,"ट्ज़पैट्रिक":5056,"समन्वय":5057,"पोशाक":5058,"मूल्यांकन":5059,"इंजेक्शन":5060,"जर्मनी":5061,"बराबरी":5062,"भैरवा":5063,"हास्यास्पद":5064,"अवैध":5065,"आध्या":5066,"आैर":5067,"आखरी":5068,"उबाऊ":5069,"कहूँगा":5070,"गला":5071,"घ्र":5072,"चतुर":5073,"दोग":5074,"धड़":5075,"नार्":5076,"पचा":5077,"यर्स":5078,"सफा":5079,"ूनों":5080,"ॉस":5081,"किक":5082,"किट":5083,"कोष":5084,"स्क्":5085,"सालो":5086,"वाण":5087,"वाइस":5088,"वापसी":5089,"लास":5090,"भीत":5091,"विंग":5092,"वित्त":5093,"निशा":5094,"चालय":5095,"दिलाने":5096,"ज़रिये":5097,"त्ती":5098,"दायी":5099,"क्षति":5100,"रहेगी":5101,"ल्क":5102,"दोस्ती":5103,"वोट":5104,"वोह":5105,"च्छे":5106,"रोका":5107,"चींटी":5108,"टेक":5109,"प्ति":5110,"प्सी":5111,"परिस्थिति":5112,"परिदृश्य":5113,"चुड़":5114,"प्रतिबद्ध":5115,"अनुसरण":5116,"जीवों":5117,"बोध":5118,"युक्ति":5119,"पैक":5120,"कैम्प":5121,"हेन":5122,"बदलता":5123,"यूट्यूब":5124,"जुड़ी":5125,"स्वीडन":5126,"प्रेमिका":5127,"फिलिप":5128,"अनुभवों":5129,"ग्लो":5130,"गर्दन":5131,"भूलना":5132,"सेवाओं":5133,"लौटने":5134,"सायनिक":5135,"समझाया":5136,"मूल्यों":5137,"प्रश्नों":5138,"पहुंचने":5139,"फ्रेंच":5140,"छवियों":5141,"मंदिर":5142,"हथियारों":5143,"खरब":5144,"प्लीज":5145,"क्रांतिकारी":5146,"ख़ुद":5147,"जागरू":5148,"जेंडर":5149,"मांसपे":5150,"भयभीत":5151,"शौचालय":5152,"कार्टून":5153,"ईमानदार":5154,"वेबसाइट":5155,"गुरुत्वा":5156,"एलिजा":5157,"वास्तुकला":5158,"कठिनाई":5159,"पाठ्यक्रम":5160,"एल्गोरिदम":5161,"दुःख":5162,"टेलोमेरेस":5163,"सांख्यिकीय":5164,"ंसिस्को":5165,"अखबार":5166,"मामूली":5167,"गुरुत्वाकर्षण":5168,"ंघ":5169,"एलेन":5170,"ऑर्":5171,"टु":5172,"पंख":5173,"बगी":5174,"रंस":5175,"वस":5176,"सचि":5177,"२५":5178,"काबू":5179,"लिश":5180,"लिफ्ट":5181,"साइं":5182,"हममें":5183,"आपमें":5184,"माफ़ी":5185,"मेज़":5186,"विवाद":5187,"विचित्र":5188,"बाथ":5189,"बाह":5190,"बांध":5191,"रेस":5192,"न्ट्स":5193,"पाएँगे":5194,"संयंत्र":5195,"त्तम":5196,"लीकरण":5197,"शान्ति":5198,"खामो":5199,"बेला":5200,"उन्नत":5201,"शिकारी":5202,"शिक्षित":5203,"रोम":5204,"चीजो":5205,"बीवी":5206,"प्पी":5207,"खुली":5208,"बुक":5209,"जनन":5210,"जनजाति":5211,"निकले":5212,"शीघ्र":5213,"जेन":5214,"प्राणी":5215,"मरते":5216,"असमानता":5217,"पोर्":5218,"आयामी":5219,"पारदर्":5220,"बहार":5221,"व्यावहार":5222,"व्यापारी":5223,"सीखी":5224,"स्तिथि":5225,"सनः":5226,"रोकना":5227,"क्यूँकि":5228,"अकेली":5229,"लुप्त":5230,"लक्ष्यों":5231,"लिखित":5232,"किताबों":5233,"टॉरंस":5234,"जंगली":5235,"संस्करण":5236,"वॉल्":5237,"राहत":5238,"ब्रिटेन":5239,"ट्यूमर":5240,"ड्रैग":5241,"इरादा":5242,"अंदाज़ा":5243,"उलझ":5244,"पड़ोसी":5245,"गिरावट":5246,"फ्रांस":5247,"कनेक्शन":5248,"विद्यार्थी":5249,"अंधेरे":5250,"इशारा":5251,"भेदभाव":5252,"समृद्ध":5253,"स्ट्रेलिया":5254,"तत्काल":5255,"केन्द्रित":5256,"दफन":5257,"विद्युत":5258,"इस्ला":5259,"मिश्रण":5260,"पायलट":5261,"वेगास":5262,"सार्थक":5263,"निम्न":5264,"यद्यपि":5265,"जीवाश्म":5266,"व्यावहारिक":5267,"ंतु":5268,"ंचे":5269,"ंजन":5270,"आर्ट":5271,"आयोजित":5272,"ऊतक":5273,"एमिली":5274,"ऐं":5275,"ऐतिहासिक":5276,"कटो":5277,"घू":5278,"छ्य":5279,"फते":5280,"बधा":5281,"मम":5282,"मरा":5283,"रद्द":5284,"लछ्य":5285,"वगै":5286,"हिक":5287,"१३":5288,"याता":5289,"ताजा":5290,"कोर्":5291,"काे":5292,"एकजुट":5293,"सामु":5294,"लाती":5295,"विरुद्ध":5296,"चाची":5297,"जोड़े":5298,"मिटा":5299,"संयोग":5300,"त्वर":5301,"दाहि":5302,"वेल":5303,"गेम":5304,"ल्ले":5305,"पूजा":5306,"बेड":5307,"सोचे":5308,"क्रू":5309,"बीन":5310,"छोड़ा":5311,"पीय":5312,"प्ले":5313,"देशो":5314,"चुने":5315,"अनुपात":5316,"उपयुक्त":5317,"बोले":5318,"लगाओ":5319,"्राष्ट":5320,"निकट":5321,"खोने":5322,"शीर्":5323,"कृष्ट":5324,"बैठी":5325,"पर्वत":5326,"स्वच्छ":5327,"दरार":5328,"वानर":5329,"ख़री":5330,"अवसाद":5331,"सैंड":5332,"शोषण":5333,"डालें":5334,"बूत":5335,"सवालों":5336,"मार्शल":5337,"बोलती":5338,"ज़ीउस":5339,"ग्न":5340,"खिलाफ़":5341,"फ्लो":5342,"भेजते":5343,"सिखाने":5344,"ार्थियों":5345,"अन्तर":5346,"चूहा":5347,"बुलाओ":5348,"आंटी":5349,"दर्दनाक":5350,"ब्रांड":5351,"हार्ड":5352,"हार्ले":5353,"संगठित":5354,"प्टो":5355,"ताकतवर":5356,"बिताया":5357,"स्टील":5358,"पेंसिल":5359,"दयालु":5360,"सज्जन":5361,"सावधानी":5362,"पड़ोस":5363,"सुलझाने":5364,"प्रतिभाशाली":5365,"बूढ़ा":5366,"कपडे":5367,"धूम्रपान":5368,"टेक्नो":5369,"अँधे":5370,"धमकी":5371,"यहूदी":5372,"तारीख":5373,"ऑपरेशन":5374,"समूहों":5375,"जीनोम":5376,"प्रोफेसर":5377,"ट्विटर":5378,"सफ़ेद":5379,"उत्पीड़न":5380,"ग्लोबल":5381,"यातायात":5382,"ँगा":5383,"अज्ञात":5384,"आउ":5385,"आघात":5386,"आशीर्":5387,"ऊंगी":5388,"औष":5389,"गधा":5390,"दमा":5391,"दार्":5392,"पन्":5393,"वकों":5394,"ॊं":5395,"७०":5396,"नेस":5397,"सेज":5398,"नाट":5399,"नाथन":5400,"हाथी":5401,"लिंक":5402,"साले":5403,"जापानी":5404,"जापान":5405,"राव":5406,"बाते":5407,"निस्ट":5408,"दिष्ट":5409,"ज़बर":5410,"संक्रामक":5411,"दाई":5412,"जीडी":5413,"ल्टी":5414,"सिग":5415,"सिन":5416,"टेप":5417,"प्शन":5418,"डालर":5419,"डालना":5420,"वर्गी":5421,"अनुबंध":5422,"पैरा":5423,"खोलो":5424,"हेल्":5425,"गुफा":5426,"आदर":5427,"जैकेट":5428,"टिका":5429,"गोश":5430,"गोला":5431,"यादों":5432,"जुड़ने":5433,"कर्त":5434,"कर्नल":5435,"महिलाएँ":5436,"ख़तम":5437,"सम्बंधित":5438,"ट्ठी":5439,"जनाब":5440,"बहनों":5441,"वाहक":5442,"सर्च":5443,"सर्वर":5444,"फिस":5445,"अगस्त":5446,"गतिविध":5447,"हिस्सों":5448,"श्रीमती":5449,"फेस":5450,"अफ्र":5451,"अफसोस":5452,"उठाते":5453,"विशेषता":5454,"घंटा":5455,"खिलाहट":5456,"भेजें":5457,"यकीनन":5458,"रॉबी":5459,"आश्वस्त":5460,"रचनात्मकता":5461,"अभिन":5462,"चूक":5463,"दवाई":5464,"संबंधों":5465,"फ़ायदा":5466,"दरवाज़ा":5467,"शर्करा":5468,"स्वयंसे":5469,"राज्यों":5470,"धोने":5471,"घोड़े":5472,"निकालना":5473,"प्रत्यक्ष":5474,"करूंगी":5475,"बहाना":5476,"क्रेडिट":5477,"खरगोश":5478,"अंग्रेज़ी":5479,"बाईं":5480,"जरूर":5481,"अनाथा":5482,"मलेशिया":5483,"स्पर्श":5484,"महत्वा":5485,"आज़ाद":5486,"मक्ख":5487,"समझौते":5488,"व्याख्यान":5489,"पृष्ठभूमि":5490,"नतीजा":5491,"किलोमीटर":5492,"सशक्त":5493,"पेशाब":5494,"एकत्रित":5495,"महत्त्वपूर्ण":5496,"स्थानांतरित":5497,"विजेता":5498,"आध्यात्":5499,"दोगु":5500,"सचिव":5501,"आशीर्वाद":5502,"जीडीपी":5503,"अलेक्":5504,"आज्ञा":5505,"इकाई":5506,"उद्ध":5507,"एलिया":5508,"एजें":5509,"ओबामा":5510,"खनि":5511,"छीन":5512,"तसवी":5513,"दरा":5514,"दोगे":5515,"नफ़":5516,"नगर":5517,"पंच":5518,"बजा":5519,"बस्ती":5520,"भटक":5521,"लची":5522,"वक्र":5523,"सकी":5524,"ेंगी":5525,"यार्क":5526,"करार":5527,"काटने":5528,"लिखे":5529,"आप्र":5530,"मुक्ति":5531,"विफल":5532,"बाघ":5533,"बाधित":5534,"हूर":5535,"पायेंगे":5536,"मिट":5537,"मिनि":5538,"समार":5539,"संत":5540,"संबो":5541,"दास":5542,"वेशी":5543,"शास्त":5544,"लगेंगे":5545,"सब्":5546,"हरों":5547,"गरम":5548,"ंदर्य":5549,"दीख":5550,"शिविर":5551,"दुरी":5552,"पुत्र":5553,"रुका":5554,"पीढ़ियों":5555,"चारिक":5556,"व्यतीत":5557,"हांत":5558,"चिप":5559,"अनुरूप":5560,"बुजु":5561,"ब्बे":5562,"डिप्रे":5563,"स्ट्रा":5564,"वरना":5565,"खोख":5566,"खोजा":5567,"उत्कृष्ट":5568,"यूँ":5569,"दिखाओ":5570,"व्यक्तित्व":5571,"जुडी":5572,"कॉमिक्स":5573,"कर्मी":5574,"कलन":5575,"विषम":5576,"ख़बर":5577,"सम्पूर्ण":5578,"अवश्य":5579,"सुनकर":5580,"अमेरिक":5581,"लूट":5582,"आईवी":5583,"बूझ":5584,"सौंदर्य":5585,"त्याग":5586,"पलट":5587,"मरीज़":5588,"खिलाड़ी":5589,"फ्लि":5590,"ड्रोन":5591,"गर्भ":5592,"सुंदरता":5593,"बुलाते":5594,"शर्मिला":5595,"कमाई":5596,"टैंक":5597,"टैक्सी":5598,"खींचने":5599,"आत्मविश्वास":5600,"भूतपूर्व":5601,"घूमने":5602,"रस्सी":5603,"बजट":5604,"अंदाज़":5605,"पड़ोसियों":5606,"रुपये":5607,"ठहाके":5608,"संवेदनशीलता":5609,"धूप":5610,"किराए":5611,"खिलखिलाहट":5612,"परोप":5613,"वंशिक":5614,"उंगलियों":5615,"सिवाय":5616,"चिह्न":5617,"आलोचना":5618,"कवच":5619,"मशहूर":5620,"भौतिकी":5621,"बधाई":5622,"त्वरित":5623,"कर्तव्य":5624,"महत्वाकां":5625,"एलियास":5626,"नफ़रत":5627,"शास्त्रीय":5628,"अल्प":5629,"असामान्य":5630,"अक्षर":5631,"आश्र":5632,"आभारी":5633,"ऎसे":5634,"एफ":5635,"एक्":5636,"ऑफ":5637,"कमान":5638,"गूं":5639,"घूर":5640,"चिक":5641,"झट":5642,"डार्":5643,"ढो":5644,"धकार":5645,"बक्":5646,"भला":5647,"रौ":5648,"लभ":5649,"सज़ा":5650,"सेस":5651,"ताना":5652,"कोप":5653,"कीड़े":5654,"क्ती":5655,"स्मार":5656,"स्विच":5657,"लियम":5658,"जाे":5659,"माई":5660,"देनी":5661,"मेने":5662,"मुताब":5663,"मुद्रा":5664,"विनि":5665,"विवे":5666,"वियत":5667,"राइ":5668,"राई":5669,"रासायनिक":5670,"बाइ":5671,"बाड़":5672,"तीनों":5673,"तिकता":5674,"रेन":5675,"रेटर":5676,"न्दु":5677,"सीन":5678,"जोश":5679,"पायी":5680,"संदि":5681,"संस्थान":5682,"संक्षि":5683,"संचालन":5684,"लीये":5685,"िक्र":5686,"सिपा":5687,"सिंध":5688,"पहलु":5689,"सोम":5690,"सोवियत":5691,"शिप":5692,"चेतना":5693,"टेबल":5694,"पिघ":5695,"पुरे":5696,"पुष्":5697,"सूत्र":5698,"समझदार":5699,"अनुचित":5700,"स्टार्क":5701,"हेली":5702,"इंसानों":5703,"बैक":5704,"बैटरी":5705,"्रेस":5706,"मोड":5707,"मोल":5708,"एंः":5709,"मरना":5710,"पर्दा":5711,"कर्मियों":5712,"भेजना":5713,"तैना":5714,"सर्दी":5715,"फिट्ज़पैट्रिक":5716,"क़ु":5717,"मूलतः":5718,"व्यवसा":5719,"पढ़ते":5720,"जिन्हे":5721,"फेय्":5722,"फैशन":5723,"साहसिक":5724,"प्रोटीन":5725,"लंब":5726,"घास":5727,"घाटी":5728,"घुट":5729,"घुटने":5730,"अंतरराष्ट्रीय":5731,"बॉबी":5732,"लॉजी":5733,"दुर्लभ":5734,"बढ़ाना":5735,"रोगियों":5736,"झूठी":5737,"नुक्":5738,"नीतियों":5739,"गठन":5740,"चरम":5741,"आरंभ":5742,"लेखन":5743,"आयडिया":5744,"सप्ताहांत":5745,"सार्व":5746,"ड्रागो":5747,"मर्श":5748,"मर्दों":5749,"संस्थाओं":5750,"बहाव":5751,"मुस्लि":5752,"दुखद":5753,"एचआईवी":5754,"पहाड़ी":5755,"फ़ैसला":5756,"नज़रिये":5757,"करूँगी":5758,"प्रसारण":5759,"दस्तक":5760,"शर्मिंदगी":5761,"प्रधानमंत्री":5762,"यात्रियों":5763,"पार्किंग":5764,"पूछताछ":5765,"ज़िम्मेदार":5766,"ज़िम्मेदारी":5767,"पडेगा":5768,"कंपनियां":5769,"नक़ल":5770,"प्राणियों":5771,"चालाक":5772,"फ़ुट":5773,"श्रोता":5774,"ड्रैगन्स":5775,"दार्श":5776,"तसवीरें":5777,"बुजुर्ग":5778,"अमेरिकन":5779,"मुताबिक":5780,"फेय्न्":5781,"आवास":5782,"आवेदन":5783,"इजरा":5784,"उजा":5785,"ऎसा":5786,"एला":5787,"ऑस्ट्रेलिया":5788,"कब्र":5789,"जड़":5790,"जरी":5791,"ड्यू":5792,"दक":5793,"दगी":5794,"सको":5795,"केन्या":5796,"यादा":5797,"करों":5798,"तात्":5799,"नाच":5800,"नात्मक":5801,"कोर्स":5802,"र्द":5803,"विस्थापित":5804,"प्रच":5805,"प्री":5806,"प्रका":5807,"प्रजनन":5808,"बांट":5809,"निरी":5810,"निचले":5811,"गाने":5812,"गाड़":5813,"गाडी":5814,"तिज":5815,"तिर":5816,"रेस्त":5817,"रेणु":5818,"न्दा":5819,"सीढ़ियों":5820,"जोड़ा":5821,"मिथक":5822,"ज़्":5823,"लीस":5824,"रूपा":5825,"सुने":5826,"पूल":5827,"सिने":5828,"बेरी":5829,"बेल्ट":5830,"तकली":5831,"बनाओ":5832,"शिता":5833,"रोने":5834,"क्रॉस":5835,"बीत":5836,"महिमा":5837,"हांफते":5838,"योँ":5839,"योनी":5840,"चियन":5841,"प्रतिरोध":5842,"ंडो":5843,"पेशक":5844,"हिंसक":5845,"स्टू":5846,"कैलि":5847,"निर्यात":5848,"वारिक":5849,"गहन":5850,"शुरूआत":5851,"गोलियों":5852,"असह":5853,"फीस":5854,"मिलाकर":5855,"जुटा":5856,"विषयों":5857,"बर्ग":5858,"बर्फ़":5859,"अंतरा":5860,"पड़ते":5861,"फिलि":5862,"बैठते":5863,"सुनाने":5864,"डालेंगे":5865,"सनकी":5866,"चर्च":5867,"भाषाओं":5868,"दिमागी":5869,"प्रोटो":5870,"प्रभावों":5871,"मरीज":5872,"अंतर्राष्ट":5873,"ड्रि":5874,"जायेगी":5875,"रॉय":5876,"रॉनी":5877,"रॉबर्ट":5878,"चूहों":5879,"छुआ":5880,"इलाकों":5881,"रोगों":5882,"फ़ाइल":5883,"मॉर्":5884,"धुंध":5885,"टॉवर":5886,"संभावनाओं":5887,"लम्बा":5888,"वॉल":5889,"चुपचाप":5890,"खींचो":5891,"फ्रैंक":5892,"चिल्लाती":5893,"भयावह":5894,"अपराधियों":5895,"सहमति":5896,"स्कोर":5897,"चुनने":5898,"घोषित":5899,"विनम्र":5900,"पतली":5901,"अंतर्गत":5902,"टेलीवि":5903,"धिकारिक":5904,"फ़्रैंक":5905,"नवीनतम":5906,"माहौल":5907,"पारिवारिक":5908,"अंगूठी":5909,"कैरियर":5910,"आनुवंशिक":5911,"कविता":5912,"अदभुत":5913,"इजाज़त":5914,"पैकेज":5915,"एलिजाबेथ":5916,"बगीचे":5917,"बाथरूम":5918,"संबोधित":5919,"मुस्लिम":5920,"ंटर":5921,"अख़":5922,"आधिकारिक":5923,"इंदर":5924,"इकल":5925,"उपर":5926,"एकी":5927,"एग्":5928,"औस":5929,"कच्":5930,"गॉ":5931,"घों":5932,"झलक":5933,"ढू":5934,"तरे":5935,"नू":5936,"पनी":5937,"शय":5938,"शर्ट":5939,"सन्न":5940,"हफ्त":5941,"िज":5942,"३००":5943,"याकू":5944,"सेन":5945,"सेल्स":5946,"करि":5947,"नाश्":5948,"कोर":5949,"काल्प":5950,"मैच":5951,"स्म":5952,"लिका":5953,"साझे":5954,"र्ण":5955,"जानी":5956,"जासूस":5957,"वाने":5958,"वाल्":5959,"लेके":5960,"लेनी":5961,"माउस":5962,"मेहमा":5963,"वितीय":5964,"विफलता":5965,"प्रजा":5966,"हुयी":5967,"निकी":5968,"निधन":5969,"चाहूंगा":5970,"गाँ":5971,"रेशन":5972,"पाउ":5973,"मिता":5974,"मिति":5975,"मिनो":5976,"क्षता":5977,"भालू":5978,"सिख":5979,"सिग्":5980,"श्न":5981,"श्वास":5982,"बेचना":5983,"बनाकर":5984,"बनावट":5985,"दूध":5986,"शिखर":5987,"रोजग":5988,"टेम्":5989,"परिवेश":5990,"वर्सिटी":5991,"बारक":5992,"समझती":5993,"उपस्थिति":5994,"स्टोर":5995,"पैड":5996,"कैम्":5997,"कैरल":5998,"दुनियाँ":5999,"लड़ते":6000,"करोड़ों":6001,"इंच":6002,"पूर्णतः":6003,"बढ़ना":6004,"टिप्प":6005,"प्रासंग":6006,"वैन":6007,"चलाता":6008,"फोर्":6009,"पर्व":6010,"स्वभाव":6011,"जुलाई":6012,"जूरी":6013,"स्वादिष्ट":6014,"सम्मानित":6015,"बचाना":6016,"ब्रै":6017,"किससे":6018,"बूंद":6019,"बिल्डिंग":6020,"ंटिक":6021,"उठाओ":6022,"तकनीकों":6023,"गिटार":6024,"बॉब":6025,"सिखाना":6026,"ड्रॉप":6027,"अन्वे":6028,"प्रभात":6029,"चूंकि":6030,"बुलाना":6031,"निकलते":6032,"क्ट्री":6033,"ब्राईस":6034,"निकालो":6035,"बंदूकें":6036,"गरीबों":6037,"नैतिकता":6038,"शूटिंग":6039,"चुनते":6040,"शरणार्थियों":6041,"प्रबंधक":6042,"ढूँढने":6043,"संतुष्ट":6044,"ड्राइवर":6045,"फुटबॉल":6046,"ब्लॉग":6047,"प्रजातियों":6048,"अप्रैल":6049,"नौकरियों":6050,"पशुओं":6051,"गुलाम":6052,"नवजात":6053,"मक्खी":6054,"कचरा":6055,"सफ़र":6056,"समीकरण":6057,"वाइरस":6058,"रविवार":6059,"एंटोन":6060,"डरावना":6061,"दीर्घ":6062,"मुकदमा":6063,"गांठ":6064,"पचास":6065,"जागरूकता":6066,"मांसपेशियों":6067,"वगैरह":6068,"अभिनय":6069,"आध्यात्मिक":6070,"सिपाही":6071,"सिंधु":6072,"फेय्न्मन":6073,"पेशकश":6074,"अख़बार":6075,"हफ्तों":6076,"याकूब":6077,"काल्पनिक":6078,"टिप्पणी":6079,"प्रासंगिक":6080,"अा":6081,"अस्वीकार":6082,"इनाम":6083,"ऑफ़ि":6084,"औप":6085,"गवे":6086,"गद्":6087,"गंदा":6088,"चश्":6089,"चंद्र":6090,"जगत":6091,"जश्न":6092,"झि":6093,"ठहरा":6094,"तारे":6095,"भै":6096,"भंग":6097,"मः":6098,"मनी":6099,"मसी":6100,"म्यू":6101,"मंदी":6102,"यक़":6103,"वरि":6104,"हौ":6105,"ॉल":6106,"हैकि":6107,"नानी":6108,"कोक":6109,"हान":6110,"हाे":6111,"स्पि":6112,"स्चियन":6113,"लाभा":6114,"माहिर":6115,"मेरि":6116,"तुर्":6117,"मुबारक":6118,"विश":6119,"विरासत":6120,"प्रकोप":6121,"प्रसन्न":6122,"निस":6123,"चावल":6124,"येँ":6125,"सीता":6126,"सीडी":6127,"पाएँ":6128,"मिस्र":6129,"कार्या":6130,"कारखाने":6131,"त्न":6132,"दानी":6133,"वेल्स":6134,"रूचि":6135,"्याण":6136,"सबने":6137,"ल्कन":6138,"जबतक":6139,"सिरे":6140,"खाई":6141,"फ़ल":6142,"बेन":6143,"क्रिय":6144,"बिली":6145,"पुण":6146,"टांग":6147,"वर्ल्ड":6148,"बदसूरत":6149,"उपग्रह":6150,"ंडों":6151,"बोलता":6152,"पेज":6153,"युगा":6154,"जनवरी":6155,"हिप्पो":6156,"निकली":6157,"खोया":6158,"खोला":6159,"कैदी":6160,"निर्णा":6161,"जैव":6162,"डेट":6163,"यादें":6164,"ग्रु":6165,"फीट":6166,"कॉम":6167,"डॉन":6168,"महिलाः":6169,"कल्याण":6170,"अवरुद्ध":6171,"ट्ठ":6172,"ट्वी":6173,"बंधक":6174,"फायर":6175,"फायदे":6176,"सर्दियों":6177,"सहन":6178,"आईटी":6179,"किसका":6180,"इन्हे":6181,"साहन":6182,"चोटी":6183,"दायिक":6184,"वहीँ":6185,"स्पष्टता":6186,"आएगी":6187,"डोआ":6188,"सफर":6189,"गर्मियों":6190,"अभिव्यक्ति":6191,"दवाइ":6192,"क्रिस्चियन":6193,"स्टेट":6194,"स्टेम":6195,"व्हेल":6196,"आरम्भ":6197,"संस्कार":6198,"प्रयासों":6199,"आयेंगे":6200,"बढती":6201,"सच्चा":6202,"ग्रेड":6203,"दूँगी":6204,"फ्रॉ":6205,"आत्मसमर्पण":6206,"वंचित":6207,"चुनौतीपूर्ण":6208,"पॉप":6209,"तथ्यों":6210,"मानसिकता":6211,"घूमते":6212,"योग्यता":6213,"इमारतों":6214,"हॉल":6215,"स्ट्रो":6216,"पदार्थों":6217,"खिड़कियाँ":6218,"स्नान":6219,"फ्रेन":6220,"सँख्या":6221,"आकाशगंगाओं":6222,"आतंकवाद":6223,"विद्यार्थ":6224,"डुफ्रेन":6225,"क्रीम":6226,"नाराज":6227,"ग्रिड":6228,"झील":6229,"पूर्वजों":6230,"सर्वोत्तम":6231,"किशोरों":6232,"जेनेसिस":6233,"चुड़ैल":6234,"हेनरी":6235,"साइंस":6236,"दाहिने":6237,"सैंडविच":6238,"सिगरेट":6239,"अलेक्जेंडर":6240,"डिप्रेशन":6241,"खोखले":6242,"संक्षिप्त":6243,"सोमवार":6244,"पुष्प":6245,"रेस्तरा":6246,"अश्":6247,"अभाव":6248,"ईरान":6249,"ऊगवे":6250,"ऑल":6251,"ऑफिस":6252,"कगार":6253,"गंदी":6254,"चारा":6255,"जक":6256,"नमक":6257,"नम्बर":6258,"पनीय":6259,"पटॉप":6260,"फें":6261,"बों":6262,"बलि":6263,"भती":6264,"मकान":6265,"५००":6266,"नेशनल":6267,"कोच":6268,"कोला":6269,"कानों":6270,"स्कर":6271,"स्का":6272,"स्वे":6273,"हम्":6274,"र्ज़":6275,"जाइ":6276,"वाँ":6277,"वालो":6278,"वांडा":6279,"देरी":6280,"देगी":6281,"विजय":6282,"प्रशासन":6283,"रात्रि":6284,"बालक":6285,"चाबी":6286,"चादर":6287,"चालीस":6288,"गाली":6289,"सींग":6290,"सीटी":6291,"तोड":6292,"पाप":6293,"संक्षेप":6294,"क्षिक":6295,"वेस्ट":6296,"शाह":6297,"भाइयों":6298,"जबर":6299,"सिड":6300,"खाड़ी":6301,"बेचा":6302,"बेड़े":6303,"अब्रा":6304,"मानती":6305,"मानचित्र":6306,"तरल":6307,"रोड":6308,"लोहे":6309,"बिन्दु":6310,"इनसे":6311,"वीकरण":6312,"पुरू":6313,"शुल्क":6314,"रुकिए":6315,"पीना":6316,"चार्ट":6317,"व्यर्थ":6318,"रियन":6319,"सूच":6320,"सूचित":6321,"नियाँ":6322,"प्रतिद्व":6323,"समझी":6324,"अंकीय":6325,"पूर्वा":6326,"पेय":6327,"मारता":6328,"डिश":6329,"बढ़ी":6330,"मोबाई":6331,"गोपनीय":6332,"मौजू":6333,"डॉल":6334,"क्षणों":6335,"लैम":6336,"नियत":6337,"वाहवाही":6338,"सुनें":6339,"दानव":6340,"ब्रश":6341,"अमेरिकियों":6342,"बैठने":6343,"बैठना":6344,"त्रासदी":6345,"साहसी":6346,"घुटना":6347,"आशावादी":6348,"अभिशाप":6349,"अंगु":6350,"क्रिप्शन":6351,"आंखें":6352,"हालात":6353,"चुनौति":6354,"बेचै":6355,"धोखे":6356,"अद्वितीय":6357,"टैग":6358,"संस्थानों":6359,"सदस्यों":6360,"बीमारियों":6361,"१९९":6362,"भ्रमित":6363,"हटाने":6364,"अल्फों":6365,"मायनों":6366,"वार्ता":6367,"दर्शाते":6368,"डिजाईन":6369,"उद्यम":6370,"पहनते":6371,"क्रेट":6372,"वकीलों":6373,"झुका":6374,"सांथ":6375,"ढूंढ़":6376,"खिड़कियों":6377,"लडकी":6378,"सम्बन्धी":6379,"दुर्भाग्यवश":6380,"कुत्तों":6381,"देवता":6382,"प्रसारित":6383,"स्टार्ट":6384,"प्रोत्साहन":6385,"ंबई":6386,"राजकुमार":6387,"नाराज़":6388,"उत्तेजना":6389,"भागीदारी":6390,"बायोटिक":6391,"महारानी":6392,"पारिस्थिति":6393,"मजदूरी":6394,"सृजन":6395,"दस्तावेज़":6396,"दिखेगा":6397,"बलात्कार":6398,"सुखद":6399,"इंग्लैंड":6400,"मज़बूत":6401,"कुशलता":6402,"कुर्सी":6403,"स्पैरो":6404,"स्कैन":6405,"ब्लेड":6406,"वाणि":6407,"वॉल्शी":6408,"अनाथालय":6409,"स्मारक":6410,"क़ुरान":6411,"औसतन":6412,"पनीर":6413,"चंद्रमा":6414,"विद्यार्थियों":6415,"अब्राहम":6416,"मोबाईल":6417,"मौजूदा":6418,"अलगाव":6419,"आंत":6420,"आख़":6421,"उड़ने":6422,"एस्":6423,"ऑटो":6424,"कतार":6425,"कंधे":6426,"खर्":6427,"गम":6428,"टख":6429,"नशा":6430,"नशी":6431,"पला":6432,"पतन":6433,"पवन":6434,"बार्":6435,"भड़":6436,"भद्":6437,"भयं":6438,"र्र":6439,"रक्षक":6440,"लव":6441,"लती":6442,"लंग":6443,"सदा":6444,"सस्ते":6445,"हकी":6446,"केसाथ":6447,"केलिये":6448,"सेब":6449,"ताज़ा":6450,"तालियों":6451,"्रु":6452,"नामुमकिन":6453,"काँ":6454,"क्टो":6455,"स्काउ":6456,"साँ":6457,"साही":6458,"हमी":6459,"र्डिंग":6460,"जाऊं":6461,"लेशन":6462,"लेकीन":6463,"लाए":6464,"विराम":6465,"प्रथा":6466,"प्रक्षे":6467,"हुं":6468,"बाज":6469,"बास्":6470,"बाएं":6471,"नीली":6472,"निवास":6473,"अपवाद":6474,"सीय":6475,"दिक":6476,"मिसाल":6477,"मिठा":6478,"मिस्टर":6479,"उसपर":6480,"समस":6481,"संख":6482,"हूँः":6483,"हूँगी":6484,"जिमी":6485,"जिप्सी":6486,"लीवुड":6487,"जीवियों":6488,"पूंछ":6489,"फ़्ट":6490,"बेघर":6491,"बेटियों":6492,"बेहोश":6493,"थीः":6494,"दूत":6495,"दुविधा":6496,"लोन":6497,"लोइस":6498,"बिट":6499,"बियन":6500,"इनमे":6501,"इनकार":6502,"टेल":6503,"पिंज":6504,"पीले":6505,"डाली":6506,"रियल":6507,"बताएँ":6508,"रखिये":6509,"प्रतिबि":6510,"अंधा":6511,"उपदेश":6512,"ंडे":6513,"सोचेंगे":6514,"बोस्टन":6515,"बुलेंस":6516,"बनें":6517,"स्टल":6518,"पैसों":6519,"गुज़":6520,"निर्धारण":6521,"दर्जन":6522,"खेती":6523,"गोथम":6524,"चलाया":6525,"यरन":6526,"कार्यकर्ताओं":6527,"मिलाया":6528,"हुईं":6529,"जुडा":6530,"भूकंप":6531,"लैपटॉप":6532,"उपयोगकर्ता":6533,"व्यापी":6534,"फाल्कन":6535,"शोक":6536,"क्षमताओं":6537,"क़े":6538,"बैठता":6539,"कलाकारों":6540,"पढ़ी":6541,"घटक":6542,"पहुँचना":6543,"माध्यमिक":6544,"ऊँची":6545,"आँख":6546,"लुइस":6547,"इटली":6548,"क्रिसमस":6549,"लिखते":6550,"भूमिगत":6551,"मॉड":6552,"गंदे":6553,"स्त्रोत":6554,"घोड़ा":6555,"शोधकर्ता":6556,"ग्रेट":6557,"तलाक":6558,"जटिलता":6559,"छिपाने":6560,"१९८":6561,"छूने":6562,"गुणों":6563,"सेंटर":6564,"निष्क्रिय":6565,"सलाहकार":6566,"उद्यमियों":6567,"करवाया":6568,"स्कोप":6569,"उद्योगों":6570,"प्रारम्भ":6571,"सूक्ष्मजीवी":6572,"फ्रांसिस्को":6573,"परिकल्प":6574,"ूर्ण":6575,"नौकरियां":6576,"न्यूरोजेनेसिस":6577,"बाधाओं":6578,"हानिकारक":6579,"यूनिवर्सिटी":6580,"अदालत":6581,"अध्यापक":6582,"चट्टानों":6583,"पडता":6584,"खिलौना":6585,"एहसान":6586,"चौथाई":6587,"सोरबोन":6588,"बैंगनी":6589,"ब्रोंक्स":6590,"क्लीटस":6591,"गिरफ़्तार":6592,"मिसाइल":6593,"च्छेद":6594,"उलझन":6595,"सामुदायिक":6596,"हेल्थ":6597,"गतिविधियों":6598,"मिनिट":6599,"समारोह":6600,"रुकावट":6601,"गूंज":6602,"विनिमय":6603,"संदिग्ध":6604,"नुक्सान":6605,"अंतराल":6606,"रोजगार":6607,"तुर्की":6608,"निर्णायक":6609,"पुरूष":6610,"अल्फोंस":6611,"वाणिज्य":6612,"भयंकर":6613,"ंकी":6614,"ंजा":6615,"अनिश्चित":6616,"अटक":6617,"आसन":6618,"इका":6619,"उड":6620,"उच्":6621,"एपि":6622,"खडे":6623,"गड":6624,"छलांग":6625,"ठहर":6626,"डरे":6627,"ढक":6628,"तन्त्र":6629,"नग":6630,"नस":6631,"बँ":6632,"बड":6633,"बत्ति":6634,"मरु":6635,"यड":6636,"लते":6637,"वफा":6638,"वक्ताओं":6639,"शस्त्र":6640,"सने":6641,"सरी":6642,"सत्र":6643,"हर्ष":6644,"ूनिस्ट":6645,"केप":6646,"याह":6647,"याने":6648,"नासा":6649,"नाइट":6650,"कोको":6651,"कोमा":6652,"कोबा":6653,"कोर्ट":6654,"स्की":6655,"स्तो":6656,"स्कों":6657,"वाक़":6658,"लेजर":6659,"माला":6660,"मुख्या":6661,"मुंबई":6662,"राग":6663,"राना":6664,"निन":6665,"निवे":6666,"निमंत्र":6667,"सकल":6668,"रेत":6669,"अपहरण":6670,"सीज़र":6671,"दिक्":6672,"मिड":6673,"संज्ञा":6674,"दाद":6675,"वेत":6676,"जींस":6677,"स्तंभ":6678,"बेल":6679,"दीदी":6680,"रोते":6681,"कामों":6682,"चीं":6683,"अनंत":6684,"बिन":6685,"छोर":6686,"फिरसे":6687,"मतदान":6688,"पीआर":6689,"परिपूर्ण":6690,"परिक्षण":6691,"परिधि":6692,"रिन":6693,"रिचर्":6694,"सूख":6695,"चिड़":6696,"प्रतिबंध":6697,"अनुग्रह":6698,"ब्बी":6699,"स्थापन":6700,"डिवाइस":6701,"खोना":6702,"कैसल":6703,"गुम":6704,"लड़ना":6705,"गलतियों":6706,"बढ़े":6707,"डेक":6708,"डेस्क":6709,"दिखाती":6710,"प्राय":6711,"वैद्य":6712,"असहम":6713,"पर्स":6714,"भवती":6715,"सामजिक":6716,"कंकाल":6717,"कॉमिक":6718,"कर्स":6719,"नौका":6720,"सुरंग":6721,"जिनमे":6722,"ख़याल":6723,"सम्भव":6724,"बर्तन":6725,"स्पति":6726,"वाहनों":6727,"लूथर":6728,"क़ी":6729,"कलाकृति":6730,"न्यूटन":6731,"दौड":6732,"ज़ील":6733,"ढांचे":6734,"र्ष्या":6735,"वृद्ध":6736,"गर्भवती":6737,"चूका":6738,"दुर्गा":6739,"झूठा":6740,"पक्षियों":6741,"पक्षपात":6742,"सड़कें":6743,"व्ही":6744,"ब्राज़ील":6745,"पौधा":6746,"खबरों":6747,"कमाते":6748,"टाइम्स":6749,"चौंका":6750,"आयेगा":6751,"प्लान":6752,"डैडी":6753,"उल्टा":6754,"आइये":6755,"प्टि":6756,"सेंटी":6757,"बिताए":6758,"रिश्तों":6759,"करवाने":6760,"फ्यूचुरा":6761,"क्लासिक":6762,"सूक्ष्मजीवियों":6763,"चार्ली":6764,"कम्पनी":6765,"अनाथ":6766,"चैनल":6767,"जॉर्":6768,"पुनर्निर्माण":6769,"कार्टूनिस्ट":6770,"ट्रिगर":6771,"मच्छरों":6772,"विभाजन":6773,"ब्रूस":6774,"फोटोग्राफ":6775,"इलेक्ट्रॉ":6776,"उदारता":6777,"समृद्धि":6778,"कठिनाइ":6779,"ड्रेफस":6780,"चट्टान":6781,"नेत्रहीन":6782,"कांग्रेस":6783,"कब्जा":6784,"फ्लैट":6785,"तालिबान":6786,"सेवानिवृत्ति":6787,"अग्रणी":6788,"हिष्णु":6789,"नाटकीय":6790,"ज़बरदस्त":6791,"फ्लिंट":6792,"विवेक":6793,"यक़ीन":6794,"हकीकत":6795,"परिकल्पना":6796,"ंए":6797,"ंसिस":6798,"अच":6799,"अमर":6800,"अराज":6801,"असमर्थ":6802,"आश":6803,"आएँ":6804,"ईरानी":6805,"एडी":6806,"एड्स":6807,"औटि":6808,"कथ":6809,"खूनी":6810,"गौ":6811,"गड़ा":6812,"घटा":6813,"छता":6814,"झप":6815,"ट्री":6816,"ण्ट":6817,"तटी":6818,"पले":6819,"फार्म":6820,"बिया":6821,"बजाए":6822,"ब्यू":6823,"बत्ती":6824,"भंड":6825,"यस":6826,"यनों":6827,"रवै":6828,"रघु":6829,"वण":6830,"षा":6831,"सैर":6832,"ीकरण":6833,"ूंगी":6834,"ॆै":6835,"ोही":6836,"सेक":6837,"नाग":6838,"कोबरा":6839,"कांच":6840,"हालय":6841,"होली":6842,"लिकॉ":6843,"वां":6844,"वाद्":6845,"वादियों":6846,"परत":6847,"लाद":6848,"मेले":6849,"प्रवर्":6850,"प्रवाल":6851,"रास":6852,"राइट":6853,"बानी":6854,"बाढ़":6855,"नील":6856,"नियन":6857,"चाही":6858,"चाहो":6859,"चांद":6860,"मुझमें":6861,"जोन":6862,"संयोजन":6863,"दानिक":6864,"दाताओं":6865,"दांव":6866,"लीग":6867,"वेरी":6868,"शाखा":6869,"गेट्स":6870,"ल्सन":6871,"सुश्री":6872,"सुप्रभात":6873,"सिक्के":6874,"पहल":6875,"श्क":6876,"खाल":6877,"मान्य":6878,"च्छिक":6879,"तरक्की":6880,"बारेमें":6881,"शियन":6882,"दुष्":6883,"दुबारा":6884,"अनजान":6885,"टीके":6886,"पिल्ला":6887,"कमर":6888,"पीट":6889,"प्न":6890,"परिप्रे":6891,"िएटर":6892,"बताई":6893,"बताये":6894,"सूचक":6895,"समझो":6896,"अनुभ":6897,"अनुसन्":6898,"ंडी":6899,"लगाएं":6900,"पेची":6901,"हिलना":6902,"जीवनकाल":6903,"चलन":6904,"कैशे":6905,"उत्सव":6906,"जेट":6907,"हेइ":6908,"गुब्":6909,"गुच्छा":6910,"निर्देशों":6911,"बैप्टि":6912,"जैगर":6913,"गलति":6914,"बंदी":6915,"मोम":6916,"गोवा":6917,"गोले":6918,"शेरि":6919,"जानेमन":6920,"वैसी":6921,"मिलाने":6922,"स्तानी":6923,"लैब":6924,"उपयोगिता":6925,"अवगत":6926,"धीमे":6927,"धन्यवाद्":6928,"सैंक":6929,"वाहिक":6930,"गयीं":6931,"स्थिती":6932,"प्रयोगों":6933,"क़रीब":6934,"कानूनों":6935,"न्यून":6936,"चित्रित":6937,"चित्रकारी":6938,"ंटन":6939,"फैलाने":6940,"फैलने":6941,"सौंप":6942,"विशेषा":6943,"पलटन":6944,"सिखाते":6945,"बुराई":6946,"ड्रो":6947,"रॉब":6948,"ग्रीक":6949,"टूटी":6950,"आंसू":6951,"ग्राफ":6952,"आश्चर्यचकित":6953,"लौटा":6954,"रंगों":6955,"डॉक्टरों":6956,"विकल्पों":6957,"नैदानिक":6958,"बाँटने":6959,"गाँवों":6960,"हटाना":6961,"मंजूरी":6962,"मूर्खता":6963,"बुद्धिम":6964,"खतरों":6965,"महोदया":6966,"स्पेनिश":6967,"विस्मय":6968,"दबाने":6969,"नज़दीक":6970,"करुँगी":6971,"घनत्व":6972,"कनेक्ट":6973,"तालाब":6974,"गुस्से":6975,"शुक्रवार":6976,"वितरित":6977,"जीवाणु":6978,"पूंजीवाद":6979,"राक्षसों":6980,"सफ़लता":6981,"बंदरगाह":6982,"एन्क्रिप्शन":6983,"पियानो":6984,"सशस्त्र":6985,"मनोरंजन":6986,"एंटीबायोटिक":6987,"अथवा":6988,"आँकडे":6989,"हड़ताल":6990,"सीएः":6991,"एडवर्ड":6992,"एंड्रयूः":6993,"संग्रहालय":6994,"सफाई":6995,"हिकप":6996,"अफ्रिका":6997,"रूपांतर":6998,"संख्य":6999,"तटीय":7000,"अनुसन्धान":7001,"बैप्टिस्ट":7002,"ंची":7003,"अयू":7004,"अस्थिर":7005,"आदान":7006,"इस्त":7007,"इत्या":7008,"उग":7009,"उज्":7010,"उंगी":7011,"उदय":7012,"खरा":7013,"खरों":7014,"गवाह":7015,"चों":7016,"चिर":7017,"छल्ले":7018,"जहर":7019,"झो":7020,"डंप":7021,"णित":7022,"तम्":7023,"दक्षता":7024,"ध्रु":7025,"नन":7026,"नमी":7027,"नग्न":7028,"फर्म":7029,"बग":7030,"यहा":7031,"यंग":7032,"यन्त्र":7033,"रडार":7034,"रवांडा":7035,"लस":7036,"लुक":7037,"लहरा":7038,"वस्त्र":7039,"वज़न":7040,"शं":7041,"शत्रु":7042,"सद्":7043,"सत्या":7044,"सख्त":7045,"सहिष्णु":7046,"िम":7047,"ेय":7048,"्ते":7049,"हैदरा":7050,"सेम":7051,"करोगी":7052,"किम":7053,"्रो":7054,"नाजु":7055,"कोट":7056,"काने":7057,"काबिल":7058,"होल":7059,"लिअथ":7060,"परमे":7061,"लान":7062,"लांच":7063,"मात":7064,"माताओं":7065,"ड़ो":7066,"विनिर्माण":7067,"विक्टर":7068,"विक्रे":7069,"विक्टो":7070,"प्रण":7071,"प्रय":7072,"प्रत्या":7073,"राक":7074,"बाएँ":7075,"निस्":7076,"गाल":7077,"तीर":7078,"अपार":7079,"सीने":7080,"पाएं":7081,"पादन":7082,"मिकों":7083,"ज़ु":7084,"ज़ू":7085,"संसद":7086,"लीय":7087,"लग्न":7088,"ल्फ़":7089,"सुअर":7090,"पूछे":7091,"सिक्का":7092,"बेक":7093,"बेरिया":7094,"मानने":7095,"च्छुक":7096,"दीं":7097,"बनानी":7098,"तरकी":7099,"रोँ":7100,"चीख":7101,"बियों":7102,"अधू":7103,"महंगा":7104,"मिलन":7105,"वीर":7106,"ढ़ा":7107,"पुजारी":7108,"व्यू":7109,"रियो":7110,"चिंत":7111,"बारह":7112,"अंडे":7113,"अनुक्रम":7114,"उपेक्षा":7115,"मारते":7116,"स्टो":7117,"निकलता":7118,"शीशे":7119,"जेड":7120,"हेलर":7121,"लड़कियां":7122,"कृप्या":7123,"खेला":7124,"खेतों":7125,"मोह":7126,"मोटी":7127,"गोता":7128,"गोलिअथ":7129,"यूं":7130,"प्राइ":7131,"अपनाया":7132,"ंधी":7133,"फोर्ड":7134,"ग्रसित":7135,"ग्रन्ट्स":7136,"स्वार्थी":7137,"स्वतन्त्र":7138,"स्वप्न":7139,"छात्रा":7140,"जुड":7141,"भूखे":7142,"भेड़ियों":7143,"थोडी":7144,"लैवें":7145,"कलम":7146,"कलंक":7147,"विषा":7148,"अवशेष":7149,"वर्षा":7150,"सैली":7151,"भारती":7152,"ध्येय":7153,"दृष्ट":7154,"सर्जरी":7155,"फिल्":7156,"लूसी":7157,"पूछें":7158,"कलाई":7159,"शुरुआती":7160,"जिन्दगी":7161,"योजनाओं":7162,"साइबर":7163,"पहुँचते":7164,"उठाना":7165,"सौं":7166,"घायल":7167,"कराने":7168,"ढाँ":7169,"आधारभूत":7170,"श्रमिकों":7171,"सरकारें":7172,"लॉस":7173,"लॉन्":7174,"सफु":7175,"लुई":7176,"टूथ":7177,"टीमों":7178,"वैश्वीकरण":7179,"मॉल":7180,"चाहेगा":7181,"बेचते":7182,"तनावपूर्ण":7183,"युवाओं":7184,"टाइगर":7185,"शैक्षिक":7186,"हलचल":7187,"अवसरों":7188,"भरोसे":7189,"शूट":7190,"झूठे":7191,"छूना":7192,"सलमान":7193,"वार्मिंग":7194,"निष्पक्ष":7195,"पहुंची":7196,"फिल्मों":7197,"ट्रांस":7198,"संभालने":7199,"उत्पादक":7200,"लेक्चर":7201,"रुकना":7202,"रोज़गार":7203,"सन्दर्भ":7204,"ट्रैफिक":7205,"नज़रिया":7206,"अंदाज":7207,"ऊंचाई":7208,"बढाने":7209,"मलबे":7210,"शौक":7211,"दिलाता":7212,"जयकार":7213,"नौकरियाँ":7214,"डूडल":7215,"महासागरों":7216,"घृणित":7217,"किराया":7218,"हिटलर":7219,"डाउनलोड":7220,"फोटोग्राफी":7221,"हल्का":7222,"फ़ॉन्ट":7223,"त्रुटि":7224,"आजाद":7225,"आजादी":7226,"बौद्ध":7227,"पाइप":7228,"भेड़िया":7229,"स्कूली":7230,"वाशिंगटन":7231,"विद्रोह":7232,"खामोशी":7233,"सज्जनो":7234,"टेक्नोलॉजी":7235,"मलेशियाई":7236,"दोगुना":7237,"खनिज":7238,"बूझकर":7239,"आश्रय":7240,"व्यवसायी":7241,"टेलीविजन":7242,"करियर":7243,"टेम्पलटन":7244,"भैया":7245,"वरिष्ठ":7246,"लाभांश":7247,"रेस्तरां":7248,"डॉलर्स":7249,"मिठाई":7250,"प्रतिबिंब":7251,"उच्चार":7252,"वाक़ई":7253,"निवेशक":7254,"निमंत्रण":7255,"संज्ञानात्मक":7256,"रिचर्ड":7257,"झपकी":7258,"भंडार":7259,"परिप्रेक्ष्य":7260,"विशेषाधिकार":7261,"अयूब":7262,"इत्यादि":7263,"हैदराबाद":7264,"अरों":7265,"अग्रि":7266,"आमद":7267,"आकर्षण":7268,"आभास":7269,"ईओ":7270,"उगा":7271,"एफ़":7272,"कसा":7273,"कश्":7274,"केंट":7275,"कपड़ा":7276,"खडा":7277,"खजाना":7278,"चचे":7279,"जम":7280,"ज्या":7281,"जलाने":7282,"झुक":7283,"टर्स":7284,"टक्कर":7285,"तड़":7286,"तबाह":7287,"थों":7288,"थरों":7289,"थिएटर":7290,"दराज":7291,"दंगा":7292,"दलाल":7293,"दसियों":7294,"नकार":7295,"पडो":7296,"फं":7297,"ब्या":7298,"भन":7299,"लडाई":7300,"श्या":7301,"शिर":7302,"शहद":7303,"हत":7304,"िस":7305,"्ले":7306,"३५":7307,"किता":7308,"किलों":7309,"तावास":7310,"औरमैं":7311,"नाना":7312,"कीट":7313,"क्लिस":7314,"मैथ":7315,"मैरा":7316,"तेरा":7317,"हासन":7318,"स्पर":7319,"एकता":7320,"लिटी":7321,"हमलों":7322,"जाइये":7323,"जाइए":7324,"वाट":7325,"वाक्या":7326,"लेबल":7327,"देशा":7328,"मुफ्त":7329,"विला":7330,"विकृत":7331,"प्रवृत्ति":7332,"हुँ":7333,"हुह":7334,"बाजू":7335,"बाइक":7336,"निः":7337,"गाइड":7338,"सकतें":7339,"सील":7340,"सीआई":7341,"रीबी":7342,"जोकर":7343,"जोरी":7344,"पाद":7345,"कारिता":7346,"समग्र":7347,"संहार":7348,"संलग्न":7349,"जिया":7350,"लीटर":7351,"क्षु":7352,"वेर":7353,"करनेकेलिए":7354,"ल्हे":7355,"सिसि":7356,"फ़्री":7357,"बेर":7358,"बेचे":7359,"उन्न":7360,"उन्हीं":7361,"द्दी":7362,"बनान":7363,"दूतावास":7364,"रोगा":7365,"लोस":7366,"लोनी":7367,"लोकता":7368,"अनदेखा":7369,"बिठा":7370,"इनहेलर":7371,"टीना":7372,"ठीकहै":7373,"टेलि":7374,"टेक्स":7375,"पिन":7376,"ढ़ियाँ":7377,"टाइन":7378,"रुके":7379,"डाले":7380,"रिपब्लिक":7381,"बताइए":7382,"सूल":7383,"चुप्पी":7384,"प्रतिरूप":7385,"बारबरा":7386,"समझें":7387,"अंकों":7388,"लियाः":7389,"लगाए":7390,"लगाये":7391,"पेक्ष":7392,"ज्जा":7393,"ब्लड":7394,"जनसांख्यिकीय":7395,"पैठ":7396,"कैट":7397,"कैरोल":7398,"उत्पत्ति":7399,"करोड":7400,"इंजि":7401,"बैंकि":7402,"आदमीः":7403,"टिप्":7404,"मोनिया":7405,"गोद":7406,"डेल":7407,"तरीक़ा":7408,"तरीक़े":7409,"यूनाइ":7410,"विचारधारा":7411,"कंबो":7412,"पोलि":7413,"स्वरुप":7414,"मिलाना":7415,"आयाम":7416,"मालकिन":7417,"जूर":7418,"सम्मि":7419,"बर्दाश्त":7420,"ऊपरी":7421,"भाषी":7422,"ख्यात":7423,"ट्रंक":7424,"पड़ों":7425,"ब्रो":7426,"बैठकर":7427,"मूलभूत":7428,"पूछती":7429,"आईसी":7430,"आईडी":7431,"कार्ली":7432,"न्यूयार्क":7433,"न्यूक्लिस":7434,"फैसले":7435,"प्रोजे":7436,"मार्केट":7437,"आओगे":7438,"ियल":7439,"लगेगी":7440,"सौदे":7441,"ट्टर":7442,"बल्ले":7443,"फ्लाई":7444,"फ्लाइट":7445,"सामान्यतः":7446,"कमीना":7447,"छुट्ट":7448,"इलाके":7449,"कटु":7450,"प्रक्रियाओं":7451,"फ़ायदे":7452,"सतर्क":7453,"ह्वा":7454,"हरेक":7455,"उच्चतम":7456,"अफ़सोस":7457,"मकसद":7458,"शोधकर्ताओं":7459,"वस्तुतः":7460,"मूल्यवान":7461,"चौड़ा":7462,"ध्वज":7463,"सच्चे":7464,"ग़ैर":7465,"फुसफु":7466,"आरामदायक":7467,"ग्रेस":7468,"बाँटना":7469,"प्रौद्योगि":7470,"प्टन":7471,"लोकन":7472,"ब्रिज":7473,"क्योँकि":7474,"वार्डन":7475,"दर्शाती":7476,"अर्ल":7477,"उत्पादकता":7478,"माइकल":7479,"डराने":7480,"क्रिसः":7481,"झेल":7482,"स्ट्रि":7483,"सिद्धांतों":7484,"संतुलित":7485,"थियो":7486,"उंडे":7487,"रेंग":7488,"फ्रेम":7489,"आकाशगंगाएँ":7490,"हड्डियों":7491,"शिकागो":7492,"वुमा":7493,"प्रशंसक":7494,"रोजमर्रा":7495,"संरक्षित":7496,"अंधेरा":7497,"सिंहासन":7498,"क्रीप्टो":7499,"ब्रूनो":7500,"विरोधा":7501,"कहूँगी":7502,"कॉर्पो":7503,"लियोनार्":7504,"एयरपोर्ट":7505,"मुनाफे":7506,"पूरक":7507,"नजरिया":7508,"अग्नि":7509,"कोयला":7510,"सुनिए":7511,"निशाना":7512,"पारदर्शिता":7513,"बेडरूम":7514,"आउट":7515,"महत्वाकांक्षी":7516,"चिकन":7517,"पहलुओं":7518,"दार्शनिक":7519,"प्रचलित":7520,"निरीक्षण":7521,"मॉर्निंग":7522,"कच्चे":7523,"अन्वेषण":7524,"ऑफ़िस":7525,"औपचारिक":7526,"ग्रुप":7527,"पारिस्थितिकी":7528,"पिंजरे":7529,"अराजकता":7530,"कथित":7531,"न्यूनतम":7532,"बुद्धिमत्ता":7533,"इस्तमाल":7534,"खरोंच":7535,"नाजुक":7536,"परमेश्वर":7537,"विक्टोरिया":7538,"लैवेंडर":7539,"अग्रिम":7540,"आमदनी":7541,"यूनाइटेड":7542,"क्रीप्टोण":7543,"अम":7544,"अस्थायी":7545,"अस्थिरता":7546,"अभूतपूर्व":7547,"आग्रह":7548,"इकठ":7549,"ईर्ष्या":7550,"उछ":7551,"उर्":7552,"एट":7553,"कत्":7554,"कसर":7555,"कहूं":7556,"कथन":7557,"कपड़ों":7558,"गलिया":7559,"गबन":7560,"चने":7561,"जता":7562,"णू":7563,"थार्थ":7564,"दड़":7565,"दारा":7566,"धमा":7567,"धारी":7568,"धड़ी":7569,"नारी":7570,"फार्":7571,"फर्जी":7572,"बहाल":7573,"बकाया":7574,"मस्त":7575,"मसला":7576,"यथार्थ":7577,"रवाना":7578,"ल्य":7579,"लसी":7580,"वों":7581,"वनों":7582,"वसंत":7583,"शों":7584,"शिक":7585,"समिति":7586,"हॆै":7587,"़यादा":7588,"ॅन":7589,"ेग":7590,"्ने":7591,"्ता":7592,"हैती":7593,"केटिंग":7594,"करिये":7595,"नान":7596,"कावेरी":7597,"कीमती":7598,"क्लाइ":7599,"स्वि":7600,"साकार":7601,"साइन":7602,"साउथ":7603,"आपरा":7604,"आपत्ति":7605,"जामी":7606,"वाइन":7607,"लेखा":7608,"लेबनान":7609,"लापता":7610,"मासू":7611,"देवी":7612,"मुट्ठी":7613,"विया":7614,"प्रद":7615,"प्रदेश":7616,"इसपर":7617,"राइड":7618,"नीकरण":7619,"निवासी":7620,"निपुण":7621,"चाब":7622,"चाहूँगी":7623,"सकने":7624,"अपमानित":7625,"सीक्रेट":7626,"सीईओ":7627,"दिलाना":7628,"रीजेंट":7629,"पाला":7630,"कुकी":7631,"कुचल":7632,"मिलो":7633,"मित्रा":7634,"कारियों":7635,"ज़माने":7636,"समक्ष":7637,"समकालीन":7638,"संश्":7639,"संशोध":7640,"संभोग":7641,"जियों":7642,"लीक":7643,"रून":7644,"रूसियों":7645,"शाबा":7646,"लगना":7647,"भांति":7648,"सबकी":7649,"सुर्":7650,"सिकु":7651,"दोस्तो":7652,"खाती":7653,"बेब":7654,"बेस्ट":7655,"बेटों":7656,"तकनिकी":7657,"रोजी":7658,"चेहरों":7659,"अनजाने":7660,"बिज":7661,"बिमारी":7662,"कहकर":7663,"कहिये":7664,"महंगे":7665,"मिलें":7666,"रूपक":7667,"पियन":7668,"टाउन":7669,"टाइट":7670,"पीस":7671,"पीला":7672,"प्लै":7673,"सरस्व":7674,"सूसी":7675,"रखकर":7676,"चिपक":7677,"समझेंगे":7678,"अंधकार":7679,"अनुभूति":7680,"लगाई":7681,"पेह":7682,"युवक":7683,"ज़्यादा":7684,"डियन":7685,"पैकेट":7686,"पैरिस":7687,"चलेंगे":7688,"खोपड़ी":7689,"शीत":7690,"उत्साही":7691,"हेड":7692,"गुन":7693,"निर्वास":7694,"निर्दोष":7695,"बढ़त":7696,"खेलों":7697,"गोरे":7698,"डेन":7699,"प्राप्ति":7700,"र्थ्य":7701,"अपनाने":7702,"मरण":7703,"असलियत":7704,"सामर्थ्य":7705,"कार्यकारी":7706,"पोस्टर":7707,"जरूरतों":7708,"कॉफ़ी":7709,"डॉक्":7710,"समस्याएँ":7711,"लैरी":7712,"ूँकि":7713,"स्वीकृति":7714,"राजनेता":7715,"बर्क":7716,"बंधे":7717,"फाइ":7718,"फांसी":7719,"भुला":7720,"ब्रें":7721,"फिसल":7722,"लून":7723,"सुनाना":7724,"पत्थरों":7725,"मानवों":7726,"डालती":7727,"मुखी":7728,"मुखपत्र":7729,"चित्रपट":7730,"ंकित":7731,"फेफ":7732,"फेर":7733,"धनुष":7734,"रोकथाम":7735,"अर्थपूर्ण":7736,"घुरघु":7737,"श्रवण":7738,"ज़रिए":7739,"महानगर":7740,"भेजता":7741,"आश्वासन":7742,"टूर":7743,"अभिभाव":7744,"क्षितिज":7745,"न्याया":7746,"रहोगे":7747,"निर्णयों":7748,"पहचानने":7749,"ब्राउन":7750,"टुकड़ों":7751,"बढे":7752,"सच्ची":7753,"ग़रीब":7754,"उल्टी":7755,"ड्राई":7756,"ग्रेडी":7757,"रोबोट्स":7758,"पुस्तकों":7759,"संकेतों":7760,"पढ़ाने":7761,"मध्यम":7762,"जोड़ना":7763,"अल्जाइ":7764,"वार्ष":7765,"संस्कृतियों":7766,"ट्रां":7767,"झुंड":7768,"गेंदों":7769,"प्रारू":7770,"उलझा":7771,"चार्ज":7772,"फ्रेड":7773,"विचलित":7774,"स्पीकर":7775,"नन्हा":7776,"नन्दन":7777,"निगम":7778,"शिशुओं":7779,"पढने":7780,"पढना":7781,"्युटर":7782,"एंडरसनः":7783,"सफ़ल":7784,"अँग्रे":7785,"प्रमाणित":7786,"चमकदार":7787,"पसीना":7788,"घुसपैठ":7789,"बंकर":7790,"महाराजा":7791,"क्लिंटन":7792,"तत्वों":7793,"फॉर्":7794,"द्वितीय":7795,"नारंगी":7796,"दीर्घा":7797,"इंग्लिश":7798,"सिएरा":7799,"पुर्त":7800,"नवाचार":7801,"धड़कन":7802,"तैनात":7803,"उजागर":7804,"सिनेमा":7805,"नाश्ता":7806,"साझेदारी":7807,"गाँठ":7808,"हिप्पोकैम्":7809,"ट्वीट":7810,"बलिदान":7811,"जबरदस्त":7812,"मुख्यालय":7813,"प्रवर्तन":7814,"अनुभवी":7815,"पेचीदा":7816,"प्रयत्न":7817,"निस्संदेह":7818,"वाक्यांश":7819,"रोगाणु":7820,"सम्मिलित":7821,"क्लाइमेट":7822,"आपराधिक":7823,"सरस्वती":7824,"घुरघुराना":7825,"ँसी":7826,"अनि":7827,"असुरक्षित":7828,"आइं":7829,"आकस्":7830,"आकलन":7831,"इक्":7832,"इजि":7833,"इस्ती":7834,"उं":7835,"उडा":7836,"उँग":7837,"ऐलिस":7838,"कड़ा":7839,"कहूंगा":7840,"कट्टर":7841,"खिक":7842,"खगोल":7843,"गवा":7844,"गढ़":7845,"गिला":7846,"गड्":7847,"चरों":7848,"चूँकि":7849,"छप":7850,"जयी":7851,"जर्स":7852,"टम":7853,"टियाँ":7854,"ठिका":7855,"णिक":7856,"तौ":7857,"तारा":7858,"दख":7859,"पछता":7860,"फहमी":7861,"बली":7862,"बजाना":7863,"भई":7864,"मला":7865,"मचा":7866,"मन्यु":7867,"यता":7868,"य्या":7869,"यत्त":7870,"लकी":7871,"लपेट":7872,"शपथ":7873,"ष्य":7874,"सरा":7875,"सकों":7876,"हारे":7877,"ित्व":7878,"ृच्छिक":7879,"ैनिक":7880,"ोलो":7881,"२१":7882,"हैरी":7883,"केविन":7884,"यानी":7885,"यातना":7886,"औरों":7887,"नाकि":7888,"कोँ":7889,"कोरोना":7890,"कायम":7891,"क्ट्र":7892,"मैक":7893,"जाऊ":7894,"लेसे":7895,"परलैंगिक":7896,"परस्पर":7897,"लाकर":7898,"मानि":7899,"मेसे":7900,"मेकर":7901,"तुझे":7902,"रहस्यों":7903,"विकार":7904,"विनिय":7905,"विलक्षण":7906,"विकिरण":7907,"विलिय":7908,"विलुप्त":7909,"प्रसव":7910,"राज़":7911,"बासेम":7912,"निंदा":7913,"निवासियों":7914,"सकू":7915,"रेव":7916,"अपोलो":7917,"न्वित":7918,"रीन":7919,"पाओगे":7920,"ज़रिया":7921,"संकल्पना":7922,"जिक्र":7923,"जियो":7924,"दाँव":7925,"देखोगे":7926,"जीः":7927,"जीभ":7928,"सुचना":7929,"सियो":7930,"श्ती":7931,"खाओ":7932,"खानों":7933,"खातिर":7934,"अब्":7935,"कहावत":7936,"दीन":7937,"बनाएं":7938,"बनाएँ":7939,"जानें":7940,"शिल्प":7941,"रोकता":7942,"क्रै":7943,"क्रमिक":7944,"दुष्ट":7945,"महंगी":7946,"टीचर":7947,"वीसी":7948,"टेट":7949,"पुर":7950,"पीढी":7951,"पीडीए":7952,"रिसे":7953,"रिज़":7954,"बताए":7955,"बताऊँ":7956,"सूप":7957,"चिंग":7958,"चुट":7959,"प्रतिष्ठ":7960,"अनुप":7961,"उपग्रहों":7962,"सोचिए":7963,"बोर":7964,"अच्छाई":7965,"बुले":7966,"बुद्ध":7967,"बुझा":7968,"पेक्षित":7969,"ज्वल":7970,"होनेसे":7971,"जनसँख्या":7972,"बनकर":7973,"बनेंगे":7974,"मारिया":7975,"डिओ":7976,"डिब्बे":7977,"स्टॉ":7978,"कैप्":7979,"कैदियों":7980,"गुर":7981,"कृत्य":7982,"टिस्ट":7983,"टिक्स":7984,"मदर":7985,"गोस":7986,"ंत्रिकी":7987,"दिखाए":7988,"चलाओ":7989,"यादृच्छिक":7990,"समावेशी":7991,"ग्रो":7992,"नोटिस":7993,"टोक्यो":7994,"छान":7995,"डॉना":7996,"डॉमिनो":7997,"छेड़":7998,"स्वामी":7999,"ख़र्च":8000,"बर्ड":8001,"पकड":8002,"सुनता":8003,"सुनती":8004,"सुनेंगे":8005,"ट्रॉन":8006,"शोधन":8007,"सर्विस":8008,"कूलित":8009,"क़ि":8010,"पूछेंगे":8011,"कार्ब":8012,"स्तिक":8013,"चर्या":8014,"जिन्होने":8015,"क्रमरहित":8016,"दौरे":8017,"फेयर":8018,"इन्त":8019,"घाती":8020,"परेखा":8021,"विशेषकर":8022,"मिनटों":8023,"सलाम":8024,"नेटरी":8025,"परामर्श":8026,"सितम्बर":8027,"तारो":8028,"फ्लू":8029,"बॉन्ड":8030,"अध्ययनों":8031,"नरम":8032,"ड्रम":8033,"समाजों":8034,"डोम":8035,"अभिमन्यु":8036,"अंगों":8037,"मस्तिस्क":8038,"ह्म":8039,"व्यापारिक":8040,"नकद":8041,"समझाना":8042,"लगीं":8043,"पुनरा":8044,"डेटाबेस":8045,"कबूल":8046,"कैंप":8047,"सहयोगियों":8048,"ग़रीबी":8049,"फ़िल्":8050,"उद्घोष":8051,"पश्चा":8052,"आइडिया":8053,"छिपे":8054,"उठता":8055,"हटाओ":8056,"अल्फा":8057,"ध्वनी":8058,"स्तीनी":8059,"निष्ठा":8060,"सिद्धान्त":8061,"पंप":8062,"साहित्य":8063,"दर्शाने":8064,"उद्यमिता":8065,"करवाना":8066,"स्टीन":8067,"गारंटी":8068,"विमानों":8069,"फ़ैक्ट्री":8070,"पहुँचाने":8071,"इरादे":8072,"अंदाजा":8073,"लक्षणों":8074,"पीड़ितों":8075,"पोस्टकार्ड":8076,"नन्ही":8077,"ढूंढने":8078,"रिश्तेदार":8079,"रिश्तेदारों":8080,"धोखाधड़ी":8081,"एशियाई":8082,"ढीला":8083,"मापने":8084,"अंतर्दृष्टि":8085,"टेलीफोन":8086,"निराशाजनक":8087,"पायेगा":8088,"नर्सों":8089,"उल्लेखनीय":8090,"पाकिस्तानी":8091,"तैरना":8092,"मेजबान":8093,"शुभकामना":8094,"कणों":8095,"चढ़ाई":8096,"घरेलु":8097,"मजदूर":8098,"नक़्":8099,"पहुचने":8100,"पहचाना":8101,"अनोखी":8102,"बनायीं":8103,"अम्लीकरण":8104,"बैंकों":8105,"सीरियाई":8106,"खारिज":8107,"विकलांगता":8108,"धैर्यवान":8109,"ऑर्डर":8110,"अन्तरिक्ष":8111,"उद्धार":8112,"दीखता":8113,"बक्से":8114,"इजराइल":8115,"प्रकाशन":8116,"तकलीफ":8117,"अंतर्राष्ट्रीय":8118,"इकलौ":8119,"सिग्नल":8120,"दीर्घकालिक":8121,"मसीह":8122,"टांगें":8123,"स्वेच्छा":8124,"प्रक्षेपण":8125,"वाणिज्यिक":8126,"विक्रेता":8127,"उच्चारण":8128,"मैराथन":8129,"उन्नति":8130,"लोकतांत्रिक":8131,"फुसफुसा":8132,"थियोपिया":8133,"उंडेशन":8134,"विरोधाभास":8135,"इकठ्":8136,"बिजनेस":8137,"वार्षिक":8138,"हिप्पोकैम्पस":8139,"विनियमन":8140,"पीडीएफ":8141,"अका":8142,"अहा":8143,"अस्थ":8144,"आदी":8145,"आभार":8146,"आएंगे":8147,"इताल":8148,"ईसाई":8149,"उमर":8150,"उग्र":8151,"उछा":8152,"उकसा":8153,"ऋतु":8154,"एसा":8155,"एनि":8156,"एक्शन":8157,"एलेक्स":8158,"ऑक्स":8159,"खपत":8160,"खटख":8161,"गजब":8162,"छड़ी":8163,"डच":8164,"तया":8165,"तली":8166,"दबी":8167,"द्रीय":8168,"दोगी":8169,"धनी":8170,"पक्":8171,"पट्ट":8172,"पतला":8173,"फली":8174,"फर्श":8175,"फफू":8176,"बची":8177,"बस्ति":8178,"मल्टी":8179,"रंगी":8180,"रँग":8181,"लड़ी":8182,"लक्षित":8183,"वसा":8184,"सड":8185,"सहे":8186,"सस्ती":8187,"हए":8188,"हंग":8189,"िहए":8190,"ेशी":8191,"२३":8192,"४००":8193,"हैक":8194,"हैड":8195,"नेह":8196,"ताई":8197,"तात":8198,"नाय":8199,"कोरो":8200,"कोडे":8201,"काटा":8202,"कांक":8203,"कामुक":8204,"कीं":8205,"मैरी":8206,"हाब्स":8207,"स्नो":8208,"स्पाइ":8209,"एकसाथ":8210,"होँ":8211,"होगया":8212,"होशि":8213,"लिकों":8214,"नहींहै":8215,"जाऊँ":8216,"परम्":8217,"लांटिक":8218,"माया":8219,"मापद":8220,"देही":8221,"मुसु":8222,"रहूँगा":8223,"विटी":8224,"विधान":8225,"प्रिये":8226,"प्रबल":8227,"प्रशांत":8228,"राख":8229,"राणिक":8230,"हुक":8231,"बाय":8232,"बाध्य":8233,"बाज़ी":8234,"निक्स":8235,"निष्ठ":8236,"निकोल":8237,"चाहा":8238,"चािहए":8239,"सकूं":8240,"रेगी":8241,"अप्":8242,"न्डे":8243,"सीढ़ी":8244,"कुर":8245,"मिलि":8246,"कारकों":8247,"ज़ब":8248,"त्मा":8249,"दाना":8250,"दाएँ":8251,"वेन्":8252,"शाट":8253,"शासित":8254,"लगें":8255,"जीजा":8256,"जीनिया":8257,"जीविका":8258,"उनपर":8259,"बहुतों":8260,"सुन्न":8261,"सुराग":8262,"सिल्":8263,"बेतु":8264,"बेसब":8265,"बेकरी":8266,"त्री":8267,"सोख":8268,"सोते":8269,"दूषित":8270,"रोनी":8271,"रोधी":8272,"गीला":8273,"चेन":8274,"दुग":8275,"अनपेक्षित":8276,"बिखर":8277,"टेम":8278,"छोड़ी":8279,"पिटाई":8280,"ढ़े":8281,"कमज़ो":8282,"डायन":8283,"परिष":8284,"परिसर":8285,"परिष्":8286,"परिमाण":8287,"रिवा":8288,"रिटी":8289,"रिसर्च":8290,"बताऊंगा":8291,"वर्दी":8292,"देशी":8293,"प्रतिमा":8294,"अंजाम":8295,"अनुष्ठा":8296,"अनुकूलित":8297,"उपस्थित":8298,"बोनो":8299,"बुद":8300,"बुलाने":8301,"बुलेट":8302,"बुखार":8303,"ब्लै":8304,"्राम":8305,"्राता":8306,"डिनर":8307,"पैं":8308,"पैसो":8309,"पैनल":8310,"खोलें":8311,"कैल":8312,"दिनचर्या":8313,"उत्परिवर्तन":8314,"धानों":8315,"दर्शी":8316,"जैवकी":8317,"पूर्णता":8318,"करेंगी":8319,"मदत":8320,"मोर":8321,"मोड़ने":8322,"गोर":8323,"गोल्ड":8324,"गोलियां":8325,"वैकल्प":8326,"फोकस":8327,"छोड़ता":8328,"पोल":8329,"बरबाद":8330,"भूखा":8331,"नौजवान":8332,"करीबी":8333,"स्वीकार्य":8334,"ख़िला":8335,"भित्ति":8336,"ज़ाम":8337,"सैनेटरी":8338,"पिछ्ले":8339,"क़त":8340,"सुनामी":8341,"गलतफहमी":8342,"र्मल":8343,"बूढे":8344,"सकेगा":8345,"मार्कर":8346,"मार्केटिंग":8347,"उठाई":8348,"विशेषताओं":8349,"गिरोह":8350,"दायरे":8351,"दायित्व":8352,"कराना":8353,"क्यूबा":8354,"ढाई":8355,"ढाल":8356,"ढांचा":8357,"बल्ब":8358,"वृक्ष":8359,"उत्पादित":8360,"लॉग":8361,"ड्रिल":8362,"टूटे":8363,"हारने":8364,"कमीनों":8365,"छुओ":8366,"लेंटाइन":8367,"फ़ोर्ड":8368,"लाइनों":8369,"ग्राम":8370,"फ़ान":8371,"दृश्यों":8372,"नुस्":8373,"स्टेज":8374,"एमआर":8375,"पदों":8376,"बेचता":8377,"दयनीय":8378,"पौराणिक":8379,"इंटरव्यू":8380,"आगमन":8381,"बंदूकों":8382,"पहुंचना":8383,"अतिसंवेदनशीलता":8384,"टैक्स":8385,"पुस्तकें":8386,"वॉशिंग":8387,"भौमिक":8388,"चुपके":8389,"सिलसि":8390,"आनन्द":8391,"निर्भरता":8392,"प्टिक":8393,"श्रेय":8394,"आंकड़ा":8395,"मनाने":8396,"सॉरी":8397,"हमलावर":8398,"तेजक":8399,"घूमता":8400,"रिश्ता":8401,"अर्था":8402,"अर्जें":8403,"वायरल":8404,"सफलतापूर्वक":8405,"तथाकथित":8406,"एचओ":8407,"मछलियां":8408,"नमूनों":8409,"हकदार":8410,"ख़ुश":8411,"इकट्ठे":8412,"दबाया":8413,"बढावा":8414,"दुर्भाग्यपूर्ण":8415,"सक्रियता":8416,"विद्यालयों":8417,"गुलाबी":8418,"स्कॉटः":8419,"मुलायम":8420,"जीवाणू":8421,"अणुओं":8422,"निर्देशित":8423,"ब्रूक्स":8424,"इलेक्ट्रो":8425,"कॉर्प":8426,"कोरियाई":8427,"चार्ल्सटन":8428,"डायना":8429,"ब्लाेशी":8430,"उंगली":8431,"द्विलैंगिक":8432,"कंपनियाँ":8433,"एंटोनियो":8434,"पर्यटन":8435,"खिलौने":8436,"बदबूदार":8437,"आइसक्रीम":8438,"क्रूरता":8439,"कोयले":8440,"दृढ़ता":8441,"लॉकडाउन":8442,"चीजोँ":8443,"इस्लाम":8444,"कटोरे":8445,"औषधि":8446,"टिकाऊ":8447,"स्वयंसेवक":8448,"एजेंसी":8449,"आप्रवासी":8450,"परोपकारी":8451,"लंबित":8452,"घुटनों":8453,"सार्वभौमिक":8454,"विनम्रता":8455,"एकीकृत":8456,"प्रजातंत्र":8457,"ऑलसेन":8458,"हम्मद":8459,"सूचकांक":8460,"पूर्वाग्रह":8461,"अंगुठे":8462,"बेचैन":8463,"आख़िर":8464,"स्काउट":8465,"इकाइयों":8466,"एपिने":8467,"चींटियों":8468,"सेंटीमीटर":8469,"जॉर्ज":8470,"आशंका":8471,"सैंकड़ों":8472,"तरकीब":8473,"चिंतन":8474,"स्वतन्त्रता":8475,"दृष्टी":8476,"शिरच्छेद":8477,"बैंकिंग":8478,"कंबोडिया":8479,"संशोधित":8480,"निर्वासित":8481,"ब्रेंडन":8482,"अल्जाइमर":8483,"इजिप्त":8484,"विलियम्स":8485,"प्रतिष्ठित":8486,"कार्बनिक":8487,"इतालवी":8488,"खटखटा":8489,"होशियार":8490,"परम्परा":8491,"जैवकीय":8492,"वैकल्पिक":8493,",,":8494,"अचल":8495,"अहं":8496,"अौर":8497,"अचर":8498,"अहिंसा":8499,"आण":8500,"आभा":8501,"आलू":8502,"आवरण":8503,"आयरन":8504,"इच्छुक":8505,"ईमार":8506,"ईंट":8507,"ईमानी":8508,"उबर":8509,"एनी":8510,"एडि":8511,"एलोन":8512,"ऑफीस":8513,"ओलि":8514,"ओपन":8515,"कमेंट":8516,"खच्च":8517,"खण्ड":8518,"गती":8519,"चरा":8520,"चकम":8521,"जमी":8522,"जस्ट":8523,"जलन":8524,"जंतु":8525,"झंडा":8526,"डें":8527,"ढँग":8528,"तस्":8529,"तले":8530,"थिय":8531,"धत":8532,"धकेल":8533,"पटा":8534,"पलों":8535,"पम्प":8536,"फट":8537,"फन":8538,"फंसा":8539,"बसे":8540,"बिर":8541,"बड़ों":8542,"बटु":8543,"मनों":8544,"यथा":8545,"यरिंग":8546,"लस्":8547,"लूँ":8548,"लटक":8549,"वारे":8550,"सघन":8551,"ेक्षित":8552,"ोतों":8553,"्ह":8554,"१०००":8555,"२२":8556,"केले":8557,"सेर":8558,"किः":8559,"ताकी":8560,"नाया":8561,"कोस्ट":8562,"कील":8563,"कीड़ों":8564,"क्कन":8565,"क्लिप":8566,"मैग":8567,"मैल":8568,"हावी":8569,"मैंतुम्हें":8570,"स्मिथ":8571,"स्फेयर":8572,"लिहा":8573,"लिस्ट":8574,"साऊ":8575,"सालाना":8576,"जागो":8577,"जासूसी":8578,"वाब":8579,"वाया":8580,"वालिया":8581,"लेवा":8582,"लेगी":8583,"परम":8584,"परदे":8585,"लाखो":8586,"मापा":8587,"मालिकों":8588,"मेर":8589,"मेला":8590,"तुच्छ":8591,"मुहै":8592,"विना":8593,"विकृति":8594,"विपत्ति":8595,"विजयी":8596,"प्रदर्":8597,"प्रभारी":8598,"प्रवासी":8599,"राबी":8600,"तुममुझे":8601,"बाकि":8602,"नीच":8603,"नींव":8604,"निदेश":8605,"चाइ":8606,"चाहोगे":8607,"गाड़ियों":8608,"तिमा":8609,"सकार":8610,"सीब":8611,"दिलाया":8612,"दिवस":8613,"दिवालिया":8614,"तोँ":8615,"तोष":8616,"जोनाथन":8617,"पांड":8618,"पांजी":8619,"कुरान":8620,"कारें":8621,"ज़िक्र":8622,"संवर्":8623,"जिं":8624,"जिले":8625,"दावे":8626,"लीडर":8627,"वेट":8628,"वेलेंटाइन":8629,"रूपता":8630,"्यान":8631,"करनेके":8632,"सुस":8633,"सुहा":8634,"सुदूर":8635,"स्त्रा":8636,"सिया":8637,"पहिया":8638,"श्वेत":8639,"फ़र्":8640,"फ़िक्र":8641,"बेईमानी":8642,"गरिमा":8643,"सोल":8644,"सोपा":8645,"सोलो":8646,"जानकार":8647,"दूक":8648,"शिक्षि":8649,"रोज़ा":8650,"चीफ":8651,"चीर":8652,"दुकानों":8653,"अनगिन":8654,"बिज़न":8655,"बीप":8656,"टेशन":8657,"टेक्ट":8658,"पिज्जा":8659,"शुदा":8660,"रुस्त":8661,"प्लेन":8662,"रिवर्":8663,"वर्ट":8664,"वर्ती":8665,"रखनी":8666,"योर्क":8667,"अंकित":8668,"सोचकर":8669,"खुराक":8670,"बादलों":8671,"लगाकर":8672,"लगाती":8673,"बुनाई":8674,"ब्बा":8675,"स्टॉक":8676,"पैग":8677,"खोजी":8678,"खोजे":8679,"खोलना":8680,"कैमर":8681,"शीफ़ू":8682,"जेलों":8683,"हेगन":8684,"हेलिकॉ":8685,"गुट":8686,"गुज़ार":8687,"गहने":8688,"इंसानी":8689,"डील":8690,"डीवी":8691,"दर्पण":8692,"दर्जनों":8693,"हमेँ":8694,"मोर्":8695,"मोटे":8696,"मोहित":8697,"गोल्फ़":8698,"बदलती":8699,"पहुचा":8700,"शेल":8701,"नामों":8702,"प्रायोजित":8703,"ष्ण":8704,"वैली":8705,"छोड़ते":8706,"भवन":8707,"ग्रं":8708,"विचारक":8709,"टोटेम":8710,"सकतीं":8711,"जुआ":8712,"जुटाने":8713,"कॉन्":8714,"भरपूर":8715,"क्षणिक":8716,"करीबन":8717,"बीचों":8718,"राजधानी":8719,"स्वायत्त":8720,"ख़ूब":8721,"श्यक":8722,"द्रव":8723,"ट्ज":8724,"बचाई":8725,"बचाओ":8726,"सहारे":8727,"सहभागी":8728,"सहकर्मी":8729,"जातीय":8730,"लूंगी":8731,"पत्नियों":8732,"कलात्मक":8733,"पढ़े":8734,"धिक्":8735,"कल्पनीय":8736,"घटन":8737,"चित्रकला":8738,"जिन्दा":8739,"खींचा":8740,"तकनीकें":8741,"आवृ":8742,"जवानी":8743,"ज़िप":8744,"श्रद्धा":8745,"खिलाड़ियों":8746,"सितारा":8747,"पृष्ट":8748,"ज़रूरतों":8749,"जवाबदेही":8750,"आँसू":8751,"आशावाद":8752,"लॉन":8753,"संगीतकार":8754,"टूबर":8755,"छुपी":8756,"मशीनें":8757,"फ़ोट":8758,"आमने":8759,"रखाव":8760,"२०३०":8761,"चुकानी":8762,"गणि":8763,"कदमों":8764,"स्टेन":8765,"अक्टूबर":8766,"ब्राउ":8767,"गठबंधन":8768,"आवश्यकताओं":8769,"निकालते":8770,"चरवा":8771,"राज्यपाल":8772,"टॉमस":8773,"अफ़्री":8774,"संभावनाएं":8775,"खबरें":8776,"लेखकों":8777,"लालच":8778,"आयें":8779,"टाइलर":8780,"शैल":8781,"तुरन्त":8782,"लैंडिंग":8783,"परीक्षणों":8784,"ग़ा":8785,"हटकर":8786,"डैरेन":8787,"विशालकाय":8788,"टैटू":8789,"संस्थापक":8790,"तूफ़ान":8791,"मध्यपूर्व":8792,"उपलब्धि":8793,"हत्यारे":8794,"पॉइंट":8795,"पंथी":8796,"सुलभ":8797,"त्रिकोण":8798,"दर्शाया":8799,"अर्द्ध":8800,"२००८":8801,"रुकने":8802,"उपास्थि":8803,"हॉलीवुड":8804,"रोज़मर्रा":8805,"दुखती":8806,"चुराया":8807,"चुनना":8808,"फ़ैल":8809,"१५०":8810,"बजती":8811,"डिजाइनर":8812,"प्रिंटर":8813,"हांकः":8814,"पेटेंट":8815,"कम्प्यू":8816,"किस्म":8817,"मनोविज्ञान":8818,"माँगता":8819,"माँगती":8820,"अपेक्षाकृत":8821,"ट्रिक्स":8822,"प्रशंस":8823,"संरक्षक":8824,"घिरे":8825,"पहेलियाँ":8826,"निर्देशक":8827,"लहरों":8828,"फूट":8829,"भागीदार":8830,"हंसता":8831,"ल्यूक":8832,"पूँछ":8833,"यूनिट":8834,"हाइपर":8835,"फैलाव":8836,"फ़ॉर्म":8837,"अध्याय":8838,"मनोरोगी":8839,"दस्तावेज":8840,"जिज्ञासु":8841,"मुस्कुराते":8842,"मधुमेह":8843,"मूर्तिकला":8844,"नर्वस":8845,"मिथकों":8846,"हताश":8847,"अत्याचार":8848,"अक्षरों":8849,"फ्रीन":8850,"यूरोपीय":8851,"डब्ल्यूएचओ":8852,"पारदर्शी":8853,"बाइबल":8854,"मेहमान":8855,"युगांडा":8856,"स्ट्रोक":8857,"प्रतिद्वं":8858,"बास्केट":8859,"दिक्कत":8860,"चिड़िया":8861,"शेरिफ":8862,"अपार्ट":8863,"विषाक्त":8864,"लॉन्च":8865,"सीआईए":8866,"छुट्टियों":8867,"न्यायाधी":8868,"ड्राईवर":8869,"दीर्घायु":8870,"गिलास":8871,"कैप्सूल":8872,"नक़्शे":8873,"अकाद":8874,"रंगीन":8875,"तातसु":8876,"परिषद":8877,"ख़िलाफ़":8878,"वॉशिंगटन":8879,"एपिनेफ्रीन":8880,"अनगिनत":8881,"बिज़नस":8882,"ंबना":8883,"ंधा":8884,"अमा":8885,"अनी":8886,"अंद":8887,"अपरि":8888,"अनियमित":8889,"आऊँगा":8890,"आरेख":8891,"आलसी":8892,"इकर":8893,"इमे":8894,"इज्":8895,"इआम":8896,"इयाँ":8897,"इश्वर":8898,"ऊह":8899,"एसी":8900,"एरि":8901,"एडम":8902,"ऑटि":8903,"ऑप्टिक":8904,"कते":8905,"कबा":8906,"कन्":8907,"कटाई":8908,"खमरी":8909,"खनन":8910,"गज":8911,"घी":8912,"चक्की":8913,"झग":8914,"झों":8915,"ढक्कन":8916,"तनों":8917,"तपे":8918,"तन्य":8919,"तकरीबन":8920,"थू":8921,"थर्मल":8922,"दशा":8923,"धियों":8924,"धंधा":8925,"नट":8926,"नश्वर":8927,"पेंट":8928,"पंजी":8929,"फिया":8930,"फंड":8931,"फँस":8932,"ब्य":8933,"बजाने":8934,"बजाते":8935,"भलाई":8936,"मयी":8937,"मण्":8938,"यंस":8939,"रस्ते":8940,"रफ़्त":8941,"लट":8942,"लूँगी":8943,"वः":8944,"वसन":8945,"शनि":8946,"शूल":8947,"शार्क":8948,"शराबी":8949,"सना":8950,"सत्तर":8951,"ुम":8952,"ूबी":8953,"ौन":8954,"्ना":8955,"६००":8956,"केमि":8957,"सेल्":8958,"करवाता":8959,"ताक़त":8960,"नाज़":8961,"नाविक":8962,"कोन":8963,"कोलो":8964,"कान्":8965,"कायर":8966,"कीर्ण":8967,"स्तीन":8968,"स्प्रि":8969,"स्वर्ण":8970,"स्मरण":8971,"लिसा":8972,"साठ":8973,"सानियत":8974,"र्या":8975,"र्टी":8976,"वाक":8977,"वाय":8978,"लेटर":8979,"परख":8980,"लाव":8981,"लायी":8982,"माथे":8983,"मासिक":8984,"देहा":8985,"मेक":8986,"मेशन":8987,"मेयर":8988,"रहूंगा":8989,"विं":8990,"विद्":8991,"विपण":8992,"राजी":8993,"रास्त":8994,"हुडी":8995,"बाबुल":8996,"बाेग":8997,"निचे":8998,"निटी":8999,"नियुक्ति":9000,"निलंबित":9001,"रेटो":9002,"न्दन":9003,"सीढ़ियाँ":9004,"रीय":9005,"रीढ़":9006,"तोप":9007,"पाय":9008,"मिशेल":9009,"समस्त":9010,"समतल":9011,"संकु":9012,"संकल्प":9013,"संकीर्ण":9014,"त्कारी":9015,"दाएं":9016,"दाढ़ी":9017,"लील":9018,"लीगल":9019,"क्ष्":9020,"वेग":9021,"वेह":9022,"रूनी":9023,"चाहिय":9024,"जील":9025,"जीती":9026,"ल्टन":9027,"स्तरीय":9028,"सिफार":9029,"पहियों":9030,"पहिये":9031,"फ़ेंक":9032,"बेबे":9033,"बेड़ा":9034,"बेयर":9035,"मीर":9036,"मीजा":9037,"ंगों":9038,"उन्ही":9039,"थेः":9040,"बारेमे":9041,"दूंगी":9042,"कामगार":9043,"दुगु":9044,"होंठ":9045,"अनपढ़":9046,"अनमोल":9047,"बिगड़":9048,"अधीन":9049,"महल":9050,"महार":9051,"महँगा":9052,"महिम":9053,"टीबी":9054,"पिड":9055,"पुरात":9056,"रिम":9057,"सूखा":9058,"नियाई":9059,"योगी":9060,"रखरखाव":9061,"चिप्स":9062,"चुनें":9063,"चुंब":9064,"प्रतिकृति":9065,"प्रतिसाद":9066,"बदली":9067,"बारू":9068,"अंडर":9069,"अनुकरण":9070,"जाएंगी":9071,"जीवंत":9072,"उपनाम":9073,"उपभोग":9074,"ंडन":9075,"खुलता":9076,"पूर्वान":9077,"पेपर":9078,"पेट्रा":9079,"युव":9080,"स्थानिक":9081,"मारियों":9082,"स्टोन":9083,"स्टॉप":9084,"पैन":9085,"पैमः":9086,"चलचित्र":9087,"जेसे":9088,"हेले":9089,"हेमी":9090,"गुं":9091,"आदतों":9092,"लड़कियाँ":9093,"धावक":9094,"डीओ":9095,"डीके":9096,"बढ़ें":9097,"बढ़कर":9098,"टिप":9099,"मोरो":9100,"मोटाई":9101,"गोभी":9102,"डेविस":9103,"प्रांत":9104,"सचमे":9105,"एंजे":9106,"पर्ची":9107,"भागना":9108,"ग्रता":9109,"कंट्रोल":9110,"कार्यशाला":9111,"पोषित":9112,"टोप":9113,"टोरेटो":9114,"छाड़":9115,"बरस":9116,"भरें":9117,"भरना":9118,"ठाक":9119,"कर्ज":9120,"कर्ज़":9121,"डरती":9122,"कौनसा":9123,"कौनसी":9124,"लैटिन":9125,"क्रियाशील":9126,"माणिक":9127,"सम्पर्क":9128,"अवलोकन":9129,"भावनाएँ":9130,"रातों":9131,"महामहिम":9132,"बहनें":9133,"सुनवाई":9134,"अंतहीन":9135,"पड़ने":9136,"फाउंडेशन":9137,"भुज":9138,"भुखमरी":9139,"ब्रुक":9140,"अमेरिकेन":9141,"लूं":9142,"सुनाते":9143,"शक्तियों":9144,"मूड":9145,"अधिनियम":9146,"खोजों":9147,"सीखें":9148,"आईडिया":9149,"न्नर":9150,"डालकर":9151,"बूट":9152,"बूढ़ी":9153,"खींची":9154,"पहुँचती":9155,"प्रोड":9156,"प्रोक्लो":9157,"ियत":9158,"केंद्रीय":9159,"अर्थशास्त्री":9160,"सलाखों":9161,"मरीज़ों":9162,"पराबैंगनी":9163,"सितारे":9164,"तारिक":9165,"अंतरंग":9166,"देंगी":9167,"गियर":9168,"ऊँचे":9169,"इसीलिये":9170,"डोर":9171,"डोनिया":9172,"लुका":9173,"मशीने":9174,"णीय":9175,"व्यवस्थाओं":9176,"ग्राफिक":9177,"मिकस्":9178,"बढ़ाया":9179,"इलाइट":9180,"खुशबू":9181,"२०१५":9182,"विदों":9183,"पहचानना":9184,"स्टेनर":9185,"सतत":9186,"अमरीकियों":9187,"केंद्रों":9188,"सेनाओं":9189,"उत्तरदायी":9190,"व्हि":9191,"ब्राजील":9192,"उड़ाने":9193,"जंगलों":9194,"मकश":9195,"कमाने":9196,"कमांड":9197,"लालची":9198,"सीमाएं":9199,"शैता":9200,"प्रतिक्रियाओं":9201,"लाभदायक":9202,"ग़लती":9203,"खरीदते":9204,"हार्वर्ड":9205,"मार्गदर्शक":9206,"चिल्लाता":9207,"चिल्लाते":9208,"आत्मघाती":9209,"कीमतों":9210,"१९६":9211,"जोड़ते":9212,"उठने":9213,"अल्फ्रेड":9214,"बहादुरी":9215,"हत्यारा":9216,"काटना":9217,"लाइबेरिया":9218,"प्रगतिशील":9219,"ब्रिस्तान":9220,"ब्रिस्टल":9221,"निष्पादन":9222,"कैमरून":9223,"खूबसूर":9224,"त्रिशूल":9225,"रैले":9226,"बिताने":9227,"बिताना":9228,"रिश्वत":9229,"गड़बड़ी":9230,"पहनना":9231,"मुस्करा":9232,"२०००":9233,"विधवा":9234,"ब्रेड":9235,"ब्रेन":9236,"स्पेशल":9237,"पाएगा":9238,"पटरी":9239,"यंत्रों":9240,"आत्माओं":9241,"सुविधाओं":9242,"स्ट्रिंग":9243,"वयस्कों":9244,"ट्रोजन":9245,"रहस्यमयी":9246,"संतुष्टि":9247,"कांक्षा":9248,"ज्यो":9249,"पढाने":9250,"तर्कसंगत":9251,"रुपए":9252,"सुलझाना":9253,"रेंज":9254,"क्षरता":9255,"विडंबना":9256,"जॉब":9257,"कूदने":9258,"कूदना":9259,"उतरना":9260,"तहखाने":9261,"नन्हें":9262,"हड्डिया":9263,"दिलाती":9264,"रखेगा":9265,"गुलामों":9266,"नवउदार":9267,"दोहराया":9268,"काउं":9269,"राजनीतिज्ञ":9270,"ठंडी":9271,"समीटर":9272,"इलेक्ट्रॉन":9273,"नतीजे":9274,"माइक्रोस्कोप":9275,"आकृतियों":9276,"उभरती":9277,"घावों":9278,"अंगूठे":9279,"बुलबुले":9280,"तीव्रता":9281,"हिमलर":9282,"रोकोकस":9283,"घबराहट":9284,"कैरिना":9285,"पर्यटक":9286,"डरावनी":9287,"पायलटों":9288,"नजदीक":9289,"आर्कि":9290,"कब्ज़ा":9291,"अनोखा":9292,"एम्बुलेंस":9293,"हड़पने":9294,"दादाजी":9295,"निभाने":9296,"ब्रोंकस":9297,"गिरफ़्तारी":9298,"सेवानिवृत्त":9299,"सुनिये":9300,"अँधेरे":9301,"स्ट्राइकर":9302,"झटके":9303,"रौशनी":9304,"तानाशाह":9305,"हेलीका":9306,"प्रोटोकॉल":9307,"एग्बाेग":9308,"फोर्निया":9309,"गद्दार":9310,"गोपनीयता":9311,"नगद":9312,"मरुस्थ":9313,"कठिनाइयों":9314,"औटिस्म":9315,"चाहीये":9316,"भारतीयों":9317,"थोंगो":9318,"पडोसी":9319,"ब्याज":9320,"सिसिली":9321,"टिप्पण":9322,"कॉर्पोरेट":9323,"गलियारे":9324,"मासूम":9325,"चाबियाँ":9326,"सुर्ख":9327,"ट्रांसमीटर":9328,"फॉर्मिकस्":9329,"गुर्राता":9330,"पुनरावृत्ति":9331,"पक्व":9332,"फफूंदी":9333,"जीजाजी":9334,"बेसबॉल":9335,"परिष्कृत":9336,"सिलसिले":9337,"अर्थात":9338,"साऊथ":9339,"मुहैया":9340,"निदेशक":9341,"पांडु":9342,"शिक्षिका":9343,"कैमरों":9344,"डीवीडी":9345,"धिक्कार":9346,"गणितीय":9347,"अमांडा":9348,"अंदरूनी":9349,"तपेदिक":9350,"रफ़्तार":9351,"विपणन":9352,"रास्तों":9353,"सिफारिश":9354,"पूर्वानु":9355,"प्रोक्लोरोकोकस":9356,"खूबसूरती":9357,"एग्बाेगब्लाेशी":9358,"ंती":9359,"ंबर":9360,"अयोग्य":9361,"अकल्पनीय":9362,"आचार":9363,"आजीवन":9364,"आर्क":9365,"इवान":9366,"इर्द":9367,"इथियोपिया":9368,"ईस्ट":9369,"उठी":9370,"उड़े":9371,"ऊब":9372,"एथ":9373,"एरेट":9374,"एम्बर":9375,"ऑर":9376,"ऑडियो":9377,"ऑस्ट्र":9378,"कश":9379,"कल्":9380,"कब्रिस्तान":9381,"गढ":9382,"ग्या":9383,"गिक":9384,"गियों":9385,"गडर":9386,"गवाही":9387,"घटाने":9388,"घूर्ण":9389,"चख":9390,"चराई":9391,"छल":9392,"जज":9393,"तकों":9394,"थके":9395,"दह":9396,"दफ्":9397,"दंगे":9398,"धक":9399,"धरा":9400,"धंधे":9401,"नहा":9402,"नर्क":9403,"पडी":9404,"पचय":9405,"फौ":9406,"बसा":9407,"ब्री":9408,"बजाये":9409,"बहिष्":9410,"भ्य":9411,"भली":9412,"भण्ड":9413,"म्य":9414,"मंग":9415,"मस्ती":9416,"मम्म":9417,"यिक":9418,"रच":9419,"रब्बी":9420,"लड़े":9421,"लंच":9422,"वपूर्ण":9423,"शतर":9424,"सशक्ति":9425,"हतो":9426,"हत्":9427,"हारी":9428,"हक़":9429,"िफर":9430,"ैक्":9431,"२४":9432,"२५०":9433,"हैरत":9434,"केदार":9435,"यापन":9436,"यांत्रिक":9437,"नेशन":9438,"नेपाल":9439,"सेफ":9440,"सेटिंग":9441,"सेवन":9442,"सेक्सी":9443,"करसकते":9444,"करतें":9445,"कियो":9446,"ताबाई":9447,"मेंः":9448,"हीत":9449,"्रमा":9450,"नापसंद":9451,"नानियों":9452,"कोपेन":9453,"काॅ":9454,"कीसी":9455,"कीफे":9456,"मैसे":9457,"मैग्":9458,"मैंअपने":9459,"स्कि":9460,"लिंड":9461,"लिंगी":9462,"आपसी":9463,"र्डर":9464,"जावे":9465,"जाऊँगी":9466,"वाड़े":9467,"वालर":9468,"वाइलाइट":9469,"परदा":9470,"लाय":9471,"लाश":9472,"मादक":9473,"मेसेज":9474,"मुठ":9475,"मुद्र":9476,"मुग्ध":9477,"मुलेशन":9478,"ड़ियाँ":9479,"विः":9480,"विवादा":9481,"विमर्श":9482,"प्रलो":9483,"राज़ी":9484,"राकेट":9485,"तुममें":9486,"हुड":9487,"बांग":9488,"बाहों":9489,"बाइन":9490,"बांड":9491,"निष":9492,"निगल":9493,"चांदी":9494,"गाते":9495,"गामी":9496,"गानों":9497,"येगा":9498,"रेज":9499,"रेवेन":9500,"मुझपर":9501,"सीबी":9502,"पादित":9503,"कुओं":9504,"मिमी":9505,"संस":9506,"संसाध":9507,"संशोधन":9508,"संतोष":9509,"जिश":9510,"जिकल":9511,"रहेहैं":9512,"शापित":9513,"चाहने":9514,"जीस":9515,"करनेवाले":9516,"करनेवाला":9517,"भाला":9518,"ल्टा":9519,"ल्डर":9520,"जब्त":9521,"सुअरों":9522,"स्तौल":9523,"सियत":9524,"खाद":9525,"फ़र":9526,"फ़िक":9527,"मीठा":9528,"ंगन":9529,"सोता":9530,"सोमा":9531,"सोफी":9532,"दीकी":9533,"बनाम":9534,"जानकर":9535,"जानबूझकर":9536,"जानलेवा":9537,"कामका":9538,"चीयर्स":9539,"क्रमा":9540,"दुब":9541,"बीते":9542,"टीयर":9543,"टीचरों":9544,"दियाँ":9545,"पिपा":9546,"पिटल":9547,"पिस्तौल":9548,"पुकार":9549,"पुछा":9550,"कम्यु":9551,"टान":9552,"लगताहै":9553,"सरलता":9554,"डालेगा":9555,"व्यंग":9556,"रिहा":9557,"रिली":9558,"रियर":9559,"रिसाव":9560,"वर्जीनिया":9561,"म्बे":9562,"प्रतिबंधित":9563,"समझदारी":9564,"अनुवा":9565,"अनुस्मारक":9566,"उपनिवेश":9567,"तनाम":9568,"पेड़ों":9569,"ज्वाला":9570,"ब्बत":9571,"डिटे":9572,"डियम":9573,"हूंः":9574,"खोद":9575,"अभीभी":9576,"कैन":9577,"उत्तेजक":9578,"जेनी":9579,"गुड़":9580,"यीं":9581,"निर्धन":9582,"वार्ट":9583,"कृपा":9584,"वास्तवमें":9585,"मनहू":9586,"दर्जे":9587,"खेलो":9588,"मोरी":9589,"मोहल्":9590,"गोरा":9591,"गोदाम":9592,"गोल्फ":9593,"डेमो":9594,"यूनानियों":9595,"मददगार":9596,"वैक्सी":9597,"वैवाहिक":9598,"अपनाना":9599,"असहाय":9600,"असभ्य":9601,"फोटक":9602,"समापन":9603,"समाचारों":9604,"समाधानों":9605,"भागते":9606,"पोक":9607,"पोते":9608,"स्वतः":9609,"टोर":9610,"छाती":9611,"जुदा":9612,"कर्ण":9613,"भूरे":9614,"भेजो":9615,"दूरसंचार":9616,"मालुम":9617,"डरने":9618,"स्वीडिश":9619,"जूस":9620,"जूतों":9621,"कंप्युटर":9622,"राजमार्ग":9623,"अवज्ञा":9624,"बर्गर":9625,"द्रोह":9626,"ट्वाइलाइट":9627,"ट्रम्प":9628,"व्याकुल":9629,"फाल":9630,"फाइल":9631,"सर्वा":9632,"सहकर्मियों":9633,"कूड़े":9634,"क़ब्":9635,"गतिशील":9636,"पत्ते":9637,"मूत्र":9638,"सीखता":9639,"न्यूज़":9640,"उदासी":9641,"बूम":9642,"दिखना":9643,"महीना":9644,"फैलता":9645,"चोरों":9646,"बचता":9647,"केंड":9648,"घाटन":9649,"जलने":9650,"ग्लू":9651,"मरीजों":9652,"पराग":9653,"सितारों":9654,"पृथक":9655,"गिर्द":9656,"बॉय":9657,"आँखे":9658,"सुरक्षात्मक":9659,"ग्रीस":9660,"वायुमंडल":9661,"अन्ना":9662,"गर्ल":9663,"ड्डी":9664,"दवाएं":9665,"क्रिप्टो":9666,"फ़ोर्":9667,"घटनाएं":9668,"आंख":9669,"ग्राउंड":9670,"२०१०":9671,"२०१३":9672,"नुमा":9673,"पहचानते":9674,"एमः":9675,"क्टर्स":9676,"व्यापारियों":9677,"टॉमी":9678,"लड़काः":9679,"मूर्त":9680,"समर्थक":9681,"पौंड":9682,"इंटरपोल":9683,"ट्रेनिंग":9684,"निवेशकों":9685,"टाइल":9686,"चौक":9687,"सार्जेंट":9688,"आवाज़ें":9689,"निकाली":9690,"फ़िलि":9691,"आवाजों":9692,"डैनिश":9693,"हार्मो":9694,"जाएँगी":9695,"नज़रअंदाज़":9696,"मंत्रा":9697,"पहुँची":9698,"ग्रेजु":9699,"सारांश":9700,"प्टे":9701,"सुधारने":9702,"हटाया":9703,"बहाने":9704,"काटते":9705,"लाइब्रे":9706,"ट्यूट":9707,"पाठक":9708,"निष्का":9709,"क्रेन":9710,"पार्टनर":9711,"उपायों":9712,"रहेंगी":9713,"विस्फोटक":9714,"झुग्":9715,"पहुँचाया":9716,"बारीकी":9717,"सुविधाएँ":9718,"सुविधाजनक":9719,"बतख":9720,"बेवकूफों":9721,"दबाओ":9722,"रिकॉर्डिंग":9723,"संरचनाओं":9724,"संरचनात्मक":9725,"गैरकानूनी":9726,"फेंकने":9727,"नज़रों":9728,"कांताबाई":9729,"ऊंचे":9730,"विरोधियों":9731,"अनाज":9732,"फ्रांसिस":9733,"नजरअंदाज":9734,"विनती":9735,"ंजक":9736,"ंजलि":9737,"पतवार":9738,"पतलून":9739,"प्रजातियाँ":9740,"शौकिया":9741,"सँसार":9742,"पकाने":9743,"स्पीड":9744,"तटस्थ":9745,"शर्मनाक":9746,"पुरस्कृत":9747,"नवीनीकरण":9748,"अर्थव्यवस्थाओं":9749,"कार्टूनों":9750,"जुड़ाव":9751,"फूलों":9752,"गुलाब":9753,"संवाददाता":9754,"आदिवासी":9755,"पालतू":9756,"दुर्घटनाग्रस्त":9757,"दस्ताने":9758,"स्टाफ":9759,"घिरा":9760,"घिनौ":9761,"फरवरी":9762,"सिंह":9763,"किराये":9764,"ख्त्म":9765,"अफगान":9766,"एंडरसन":9767,"ठंडे":9768,"समीक्षा":9769,"प्रस्तुति":9770,"हल्की":9771,"गुजरते":9772,"नाइजीरियाई":9773,"टकराव":9774,"क्लिनिक":9775,"हाइड्रो":9776,"यहूदियों":9777,"इंजीनियरों":9778,"सृष्टि":9779,"अहमियत":9780,"शरद":9781,"मुनाफ़े":9782,"दंडित":9783,"फसलों":9784,"ग्रीनलैंड":9785,"क्लासरूम":9786,"घेर":9787,"सत्तावादी":9788,"अनोखे":9789,"नोटबुक":9790,"अटलांटिक":9791,"हताशा":9792,"विनाशकारी":9793,"सिएटल":9794,"बोनस":9795,"गोंद":9796,"विद्रोही":9797,"संग्रहीत":9798,"सफाया":9799,"स्क्वायर":9800,"प्रतिबद्धता":9801,"खामोश":9802,"अँधेरा":9803,"पन्ने":9804,"रावस्था":9805,"दीखते":9806,"सूत्रों":9807,"बैकअप":9808,"स्टूडियो":9809,"कैलिफोर्निया":9810,"असहज":9811,"फिलिस्तीनी":9812,"मेहमानों":9813,"प्रसन्नता":9814,"भतीजे":9815,"झुकाव":9816,"खर्चा":9817,"नशीली":9818,"भद्दा":9819,"असहमत":9820,"चौंकाने":9821,"इलेक्ट्रॉनिक":9822,"रवैया":9823,"सौंपा":9824,"टूथलेस":9825,"प्रतिबिंबित":9826,"फंसे":9827,"रिपब्लिकन":9828,"लियोनार्दो":9829,"पेहले":9830,"अभिभावक":9831,"प्रारूप":9832,"आइंस्टीन":9833,"आकस्मिक":9834,"दखल":9835,"क्ट्रम":9836,"पश्चात":9837,"इकलौता":9838,"अस्थमा":9839,"बस्तियों":9840,"हंगरी":9841,"स्पाइडर":9842,"बेतुका":9843,"एमआरआई":9844,"आणविक":9845,"आभासी":9846,"चकमक":9847,"हेलिकॉप्टर":9848,"अपार्टमेंट":9849,"अकादमी":9850,"स्प्रिंग":9851,"चाहियें":9852,"हेमीस्फेयर":9853,"नवउदारवादी":9854,"सुर्खियों":9855,"दफ्तर":9856,"भण्डार":9857,"शतरंज":9858,"सशक्तिकरण":9859,"हतोत्":9860,"कोपेनहेगन":9861,"विवादास्पद":9862,"ज्वालामुखी":9863,"ँगे":9864,"अतु":9865,"अबे":9866,"असीमित":9867,"अमोनिया":9868,"अमूर्त":9869,"आक":9870,"आला":9871,"आएं":9872,"आदेशों":9873,"आमीन":9874,"आऊंगा":9875,"आएँगे":9876,"आक्रामक":9877,"इश्":9878,"उंगा":9879,"एली":9880,"एगी":9881,"ओन":9882,"ओरे":9883,"ओवन":9884,"औज़ार":9885,"कबी":9886,"कभार":9887,"ख्स":9888,"गल्":9889,"गंत":9890,"गट्ठ":9891,"चंगा":9892,"जत":9893,"जरिये":9894,"झक":9895,"टॉन":9896,"ठग":9897,"ठन्डे":9898,"डकै":9899,"डर्स":9900,"ढियाँ":9901,"तमा":9902,"तबा":9903,"थल":9904,"थ्रो":9905,"दगु":9906,"दलों":9907,"धूम":9908,"नता":9909,"पारे":9910,"फर्":9911,"फटा":9912,"फिला":9913,"फराइ":9914,"बरी":9915,"बकरी":9916,"बचना":9917,"बगैर":9918,"बख्":9919,"बृह":9920,"भेंट":9921,"मख":9922,"मरो":9923,"मवेशी":9924,"रसी":9925,"रिए":9926,"लबा":9927,"लपे":9928,"लन्दन":9929,"वली":9930,"वटी":9931,"वस्था":9932,"शप":9933,"शमि":9934,"शनों":9935,"शक्ती":9936,"शख्स":9937,"समे":9938,"सपे":9939,"हह":9940,"हटने":9941,"ुर":9942,"्ला":9943,"४५":9944,"हैम":9945,"हैरानी":9946,"केरा":9947,"यांग":9948,"यार्ड":9949,"नेसी":9950,"सेला":9951,"सेहत":9952,"करिए":9953,"किं":9954,"किर":9955,"किंस":9956,"किचन":9957,"ताने":9958,"हीरे":9959,"नाप":9960,"नाल":9961,"नामित":9962,"नाकारा":9963,"नास्तिक":9964,"कोश":9965,"कोका":9966,"कोले":9967,"काना":9968,"काँग":9969,"कीमो":9970,"कीगन":9971,"क्ले":9972,"क्सो":9973,"क्चर":9974,"स्स":9975,"स्से":9976,"स्वेटर":9977,"स्नेह":9978,"एकः":9979,"होमो":9980,"सामर":9981,"साउंड":9982,"साक्षरता":9983,"हमको":9984,"जाँ":9985,"लाजवाब":9986,"लागोस":9987,"लिएः":9988,"माउ":9989,"माओ":9990,"मेजर":9991,"मेडम":9992,"मुज":9993,"मुआव":9994,"मुहिम":9995,"रहकर":9996,"रहूँ":9997,"वियो":9998,"विडो":9999,"प्रशा":10000,"थान":10001,"राकी":10002,"रामिड":10003,"हुनर":10004,"बालिया":10005,"निवेदन":10006,"गांधी":10007,"रेज़":10008,"रेमी":10009,"अपलोड":10010,"अपूर्ण":10011,"न्क":10012,"न्डा":10013,"न्लाइन":10014,"सीम":10015,"रीति":10016,"रीबन":10017,"जोशी":10018,"पाँ":10019,"पां":10020,"पायें":10021,"पाऊँगी":10022,"कुट":10023,"कुपोषण":10024,"कुख्यात":10025,"मिने":10026,"मिर्च":10027,"मियाँ":10028,"कारन":10029,"कारगर":10030,"सम्रा":10031,"संदेशों":10032,"त्ल":10033,"त्सिन":10034,"दाल":10035,"दाने":10036,"दावत":10037,"दाखिल":10038,"लीगी":10039,"वेन्यू":10040,"रूट":10041,"रूपरेखा":10042,"रहाहै":10043,"भावी":10044,"गेराज":10045,"सबलोग":10046,"हरित":10047,"हरमन":10048,"सुचार":10049,"सुखी":10050,"सुधर":10051,"स्तरों":10052,"सिम":10053,"सिमुलेशन":10054,"किनारों":10055,"पहनी":10056,"दोहरे":10057,"दोहरी":10058,"खाँसी":10059,"फ़्यू":10060,"मीरा":10061,"थेरे":10062,"तक़":10063,"वोँ":10064,"सोया":10065,"बनायें":10066,"बनायेंगे":10067,"तरण":10068,"तरफा":10069,"जानेंगे":10070,"शिष्य":10071,"क्रु":10072,"बीयर":10073,"बीन्स":10074,"बीट्रा":10075,"महे":10076,"टेनेसी":10077,"रूपों":10078,"पिट":10079,"पिक्स":10080,"पिरामिड":10081,"मतभे":10082,"किसीने":10083,"कमल":10084,"रुकें":10085,"पीटा":10086,"प्लस":10087,"परिपक्व":10088,"ार्ड":10089,"रिकार्ड":10090,"रिटायर":10091,"बताऊँगा":10092,"बताइये":10093,"सालमन":10094,"सूंघ":10095,"हांला":10096,"म्बा":10097,"योटा":10098,"चिट्ठी":10099,"प्रतिस्थापन":10100,"बारटें":10101,"समझिये":10102,"बोस्":10103,"बोरिंग":10104,"पूर्ति":10105,"पेड":10106,"ज्म":10107,"जनरेटर":10108,"हिन्":10109,"हिंद":10110,"जीवनशैली":10111,"निकलें":10112,"चलकर":10113,"कैपिटल":10114,"विश्ले":10115,"उत्सर्":10116,"हेरो":10117,"हेलेन":10118,"गुदगु":10119,"पसन्द":10120,"निर्माताओं":10121,"कृ्":10122,"जाओगी":10123,"इंधन":10124,"इंसानियत":10125,"बैल":10126,"डीसी":10127,"दर्ज़":10128,"जैसन":10129,"पूर्णतया":10130,"मोरेल":10131,"मोसेस":10132,"डेढ़":10133,"डेल्टा":10134,"प्रामाणिक":10135,"चलाती":10136,"फोड़":10137,"याददाश्त":10138,"मौखिक":10139,"समायोजित":10140,"पर्ल":10141,"ग्रेंड":10142,"कार्यो":10143,"कार्यरत":10144,"स्वार्थ":10145,"मिलान":10146,"टोन":10147,"टोयोटा":10148,"छापा":10149,"बरकरार":10150,"बच्चें":10151,"जुडे":10152,"भूमध्य":10153,"भूगोल":10154,"भेदी":10155,"वानरों":10156,"दूरस्थ":10157,"करतीं":10158,"लैस":10159,"उपयोगकर्ताओं":10160,"कंपन":10161,"तनीय":10162,"ख़त":10163,"ख़तर":10164,"ख़ून":10165,"नियल":10166,"द्रव्य":10167,"ट्ल":10168,"पिछवाड़े":10169,"शोरूम":10170,"बचाते":10171,"फिंग":10172,"लूस":10173,"क़त्ल":10174,"बैठकों":10175,"खिड":10176,"पत्तों":10177,"झाँ":10178,"झाड़":10179,"मूवी":10180,"खोजें":10181,"किसलिए":10182,"मुखौ":10183,"मैनेजर":10184,"ंटल":10185,"योजनाएं":10186,"इन्हीं":10187,"फैले":10188,"अफ्री":10189,"प्रोसे":10190,"लंका":10191,"उठाता":10192,"परिवर्तनीय":10193,"बचते":10194,"घाई":10195,"उदाहरणार्थ":10196,"गिरता":10197,"क्यूं":10198,"जलते":10199,"ग्ले":10200,"ग्लास":10201,"पलक":10202,"स्पष्टीकरण":10203,"र्टन":10204,"श्रमिक":10205,"हराने":10206,"गिनी":10207,"ऊँट":10208,"ऊँचा":10209,"आँगन":10210,"सिखाई":10211,"सिखाता":10212,"लॉयड":10213,"संख्याओं":10214,"ड्रन":10215,"डोन":10216,"डोमेन":10217,"रॉस":10218,"पकड़ना":10219,"खरीदी":10220,"टूटा":10221,"अभिनेता":10222,"कमीज":10223,"अंगूर":10224,"उम्मीदवार":10225,"भोज":10226,"घटनाएँ":10227,"बढ़ाते":10228,"२०१२":10229,"२०१६":10230,"पत्रों":10231,"लौकिक":10232,"धुन":10233,"स्टेट्स":10234,"स्टेडियम":10235,"मुख्यतः":10236,"स्त्रियों":10237,"इकबालिया":10238,"निकालें":10239,"नकदी":10240,"संघीय":10241,"टॉक":10242,"टॉम":10243,"धोना":10244,"प्रशिक्षु":10245,"घोड़ों":10246,"कमाया":10247,"टाइग्रेस":10248,"चौकी":10249,"चौथी":10250,"चौथे":10251,"सातवें":10252,"आवाज़ों":10253,"बढना":10254,"निकाले":10255,"लाभकारी":10256,"दीवारें":10257,"प्लावकों":10258,"खरीदना":10259,"डैश":10260,"उल्लू":10261,"नैप":10262,"तलाशी":10263,"कीमतें":10264,"शॉपिंग":10265,"बन्द":10266,"वनस्पति":10267,"मध्यस्थ":10268,"अपराधों":10269,"परमाणुओं":10270,"कानूनन":10271,"मनाना":10272,"ंभित":10273,"मजाकिया":10274,"पंखों":10275,"मज़ाकिया":10276,"घूमना":10277,"त्रिभुज":10278,"तोड़ना":10279,"बिताते":10280,"अर्जित":10281,"आहत":10282,"करोड़पति":10283,"उपलब्धियों":10284,"कक्षाओं":10285,"२००६":10286,"उद्देश्यों":10287,"इमारतें":10288,"धारणाओं":10289,"हॉट":10290,"हॉप":10291,"पेंशन":10292,"स्पेक्ट्रम":10293,"एचडी":10294,"झुण्ड":10295,"टूटता":10296,"पटरियों":10297,"ख़ामो":10298,"१५००":10299,"स्ट्रप":10300,"स्ट्रॉ":10301,"ढूँढना":10302,"लडकियाँ":10303,"अभियांत्रिकी":10304,"उलट":10305,"थिंग":10306,"बाज़ारों":10307,"तोहफा":10308,"तोहफ़ा":10309,"परिक्रमा":10310,"चैतन्य":10311,"पुनर्वास":10312,"पुनर्विचार":10313,"ूर्त":10314,"किस्से":10315,"उतरो":10316,"कैसीनो":10317,"आतंकवादियों":10318,"चिन्हों":10319,"ट्रिलियन":10320,"जमात":10321,"ऑफ़लाइन":10322,"गुलामी":10323,"दोहराने":10324,"उतारो":10325,"काउंट":10326,"योद्धाओं":10327,"गार्डन":10328,"टेलीफ़ोन":10329,"सिंथे":10330,"ट्रेवरः":10331,"जरुर":10332,"सॉफ्टवेर":10333,"फूड":10334,"हस्तांतर":10335,"विशेषज्ञों":10336,"नवीनता":10337,"अपमानजनक":10338,"हल्के":10339,"वास्तुकार":10340,"मसले":10341,"सहजता":10342,"स्वरों":10343,"महाराज":10344,"स्ट्रेस":10345,"यहूदा":10346,"मुड़ना":10347,"अनुकूलन":10348,"मनोरंजक":10349,"नॉर्टन":10350,"लटकाने":10351,"मोटापा":10352,"हेलमेट":10353,"हँसती":10354,"जूझते":10355,"ग्रीनहाउस":10356,"टाइपफेस":10357,"चिह्नित":10358,"घेरा":10359,"घेरे":10360,"आँकड़े":10361,"मिथ्या":10362,"पत्रिकाओं":10363,"किशोरावस्था":10364,"परंपरागत":10365,"निपटना":10366,"मिसाइलों":10367,"बाह्य":10368,"निम्नलिखित":10369,"कोर्टि":10370,"क्रूस":10371,"निकटतम":10372,"ख़रीद":10373,"हार्डवेयर":10374,"वर्गीकरण":10375,"पैरालीगल":10376,"स्वयंसेवकों":10377,"लचीला":10378,"महत्वाकांक्षा":10379,"तैनाती":10380,"ड्यूटी":10381,"असहनीय":10382,"पाउडर":10383,"पर्वतों":10384,"चश्मा":10385,"झिल्ली":10386,"नशीले":10387,"पलायन":10388,"ठहरो":10389,"वफादार":10390,"वफादारी":10391,"हर्षा":10392,"अचंभित":10393,"गलतियां":10394,"मूर्खतापूर्ण":10395,"डंपलिंग":10396,"तम्बू":10397,"शंघाई":10398,"सहिष्णुता":10399,"भरोसेमंद":10400,"कश्मकश":10401,"चचेरे":10402,"चौड़ाई":10403,"संश्ले":10404,"पुर्तगाली":10405,"उडान":10406,"मजदूरों":10407,"इकठ्ठा":10408,"मापदंड":10409,"वेन्डी":10410,"कमज़ोरी":10411,"बुदबु":10412,"खच्चर":10413,"प्रदर्शनी":10414,"तिमाही":10415,"सोलोमन":10416,"रोज़ाना":10417,"पैगम्बर":10418,"आवृत्ति":10419,"तातसुहेइ":10420,"नाज़ुक":10421,"संकुचित":10422,"बेयरफ़ुट":10423,"चुंबकीय":10424,"लुकास":10425,"हेलीकाप्टर":10426,"मरुस्थलीकरण":10427,"पूर्वानुमान":10428,"घूर्णक":10429,"मैसेडोनिया":10430,"प्रलोभन":10431,"सोमालिया":10432,"मनहूस":10433,"वैक्सीन":10434,"मंत्रालय":10435,"गंतव्य":10436,"डकैती":10437,"तबाही":10438,"केराबाई":10439,"काँगस्ट्रप":10440,"सामरिक":10441,"बीट्राइस":10442,"बारटेंडर":10443,"ग्रेंडमदर":10444,"ंक्स":10445,"अक्षम":10446,"अकाल":10447,"अक्यू":10448,"अक्षमता":10449,"अल्ला":10450,"अमूल्य":10451,"असीम":10452,"आज़":10453,"आह्":10454,"इको":10455,"इकॉ":10456,"इडेंट":10457,"इसाई":10458,"इंद्र":10459,"ईसा":10460,"ईबोला":10461,"उम्":10462,"उस्ता":10463,"ऊन":10464,"एः":10465,"एप्प":10466,"एवेन्यू":10467,"ऐप":10468,"ओक्सि":10469,"कॅ":10470,"कबाड़":10471,"खं":10472,"खम":10473,"खलना":10474,"खूबी":10475,"गँ":10476,"गट":10477,"गर्क":10478,"घन्":10479,"चढा":10480,"चहक":10481,"छद्":10482,"जरिया":10483,"झं":10484,"टब":10485,"टहल":10486,"डरी":10487,"डार्क":10488,"ढह":10489,"तार्":10490,"तून":10491,"तब्दी":10492,"थर्":10493,"थलग":10494,"थियों":10495,"दंत":10496,"धर्":10497,"नवं":10498,"पंद्र":10499,"फना":10500,"बें":10501,"बसी":10502,"बंग":10503,"बद्":10504,"बतौर":10505,"बेंच":10506,"भटका":10507,"यरो":10508,"रथ":10509,"रम":10510,"लम":10511,"लनों":10512,"वारा":10513,"वफ़ा":10514,"शने":10515,"शक्ल":10516,"सनी":10517,"स्रा":10518,"सप्ला":10519,"ह्र":10520,"हर्":10521,"हवाला":10522,"ह्यू":10523,"हॉन":10524,"ुन":10525,"ुर्":10526,"ूण":10527,"ैं":10528,"ैतिज":10529,"ोहार":10530,"२८":10531,"३१":10532,"७५":10533,"हैन":10534,"केने":10535,"यायी":10536,"नेड":10537,"नेचर":10538,"सेक्रे":10539,"ारह":10540,"किन्":10541,"किंतु":10542,"ताक":10543,"नामी":10544,"नाकाम":10545,"नाकामयाब":10546,"कोनों":10547,"काता":10548,"काव्य":10549,"काँच":10550,"कीला":10551,"कीतरह":10552,"कीटा":10553,"हैंड":10554,"क्वी":10555,"क्लैक":10556,"क्वार्ट":10557,"मैप":10558,"मैक्सिको":10559,"हास":10560,"हाली":10561,"स्कुल":10562,"स्प्रे":10563,"स्केल":10564,"होद":10565,"होल्ड":10566,"सादे":10567,"साड़ी":10568,"साढ़े":10569,"साजिश":10570,"र्व":10571,"जाके":10572,"जाऊंगी":10573,"वाकि":10574,"वाहि":10575,"लेमी":10576,"लेटिन":10577,"परजीवी":10578,"यहएक":10579,"लाजी":10580,"लागु":10581,"लांघ":10582,"मासा":10583,"देशियों":10584,"देवियो":10585,"मेटा":10586,"मुसलमान":10587,"रहिये":10588,"विय":10589,"विकि":10590,"विड़":10591,"विनिया":10592,"विवश":10593,"विंडो":10594,"विदेशियों":10595,"प्रता":10596,"प्रसि":10597,"प्रचु":10598,"बाबा":10599,"बाज़":10600,"बाल्टी":10601,"बाक़ी":10602,"बायीं":10603,"नीया":10604,"नीचा":10605,"निडर":10606,"निचो":10607,"निगाह":10608,"चाक":10609,"चाहु":10610,"चालु":10611,"गान":10612,"गाहों":10613,"गानिस्तान":10614,"गादड़":10615,"येही":10616,"येल्":10617,"तियाँ":10618,"तिथि":10619,"तिजोरी":10620,"अपशिष्ट":10621,"अपडेट":10622,"न्नी":10623,"न्सी":10624,"न्सर":10625,"न्डर":10626,"सीओ":10627,"सीढियाँ":10628,"दिलों":10629,"पाओ":10630,"पाँव":10631,"कुम":10632,"कुचलने":10633,"मिकी":10634,"मिटाने":10635,"ज़री":10636,"ज़ूम":10637,"समज":10638,"संध्या":10639,"संरेख":10640,"त्ते":10641,"जिनी":10642,"दानों":10643,"दायर":10644,"लींग":10645,"क्षैतिज":10646,"वेव":10647,"वेल्ट":10648,"वेदना":10649,"जी०":10650,"जींदगी":10651,"रहाल":10652,"रहाहूँ":10653,"भाप":10654,"भागा":10655,"भागे":10656,"बहुतसे":10657,"सबवे":10658,"सिआ":10659,"सिय":10660,"सिस्टर":10661,"दोलनों":10662,"फ़ौ":10663,"फ़ौर":10664,"मानकी":10665,"मानवी":10666,"सोडा":10667,"सोफे":10668,"दीया":10669,"दूनियाई":10670,"शिफ्ट":10671,"गीली":10672,"दुल्":10673,"लोर":10674,"लोजी":10675,"लोकल":10676,"अनू":10677,"अनदेखी":10678,"बिस्":10679,"अध्":10680,"बीस्ट":10681,"बीएम":10682,"महज":10683,"मिलर":10684,"वीटो":10685,"टेज":10686,"टेरे":10687,"टेरी":10688,"छोड़े":10689,"मतभेद":10690,"किसीको":10691,"पुथल":10692,"कमरों":10693,"टाव":10694,"टागन":10695,"रुकी":10696,"रुगर":10697,"पीढ":10698,"पीली":10699,"प्लेस":10700,"चारो":10701,"रिले":10702,"रिडा":10703,"बताएगा":10704,"वर्जिन":10705,"सूफी":10706,"सूखी":10707,"म्परिक":10708,"चिडिया":10709,"प्रतिवर्ष":10710,"प्रतिस्थापित":10711,"ष्टिक":10712,"अंधी":10713,"अनुयायी":10714,"बोर्डिंग":10715,"खुशन":10716,"लगाता":10717,"बुध":10718,"पेस्ट":10719,"पेट्रोल":10720,"स्थलों":10721,"हिप":10722,"हिरासत":10723,"बसने":10724,"मारकर":10725,"डिस्":10726,"डिली":10727,"डिब्बा":10728,"पैरो":10729,"पैरोल":10730,"कैप्टन":10731,"दुनियाभर":10732,"जेस":10733,"हेवुड":10734,"गुर्":10735,"निर्देशा":10736,"लड़ो":10737,"इंकार":10738,"इंजिन":10739,"इंस्टि":10740,"मनपसंद":10741,"दर्दी":10742,"धारियों":10743,"णात्मक":10744,"करेंगें":10745,"मोसा":10746,"मोइरा":10747,"मोचन":10748,"गोरो":10749,"बदलें":10750,"डेव":10751,"डेशन":10752,"दिखाये":10753,"दिखाएगा":10754,"वैत":10755,"मरती":10756,"मौन":10757,"मौतों":10758,"मौरीन":10759,"पर्दे":10760,"छोड़ेंगे":10761,"नोवा":10762,"नोमा":10763,"कंबल":10764,"होतीं":10765,"पोकर":10766,"पोषक":10767,"पोटें":10768,"टोप्ला":10769,"छाप":10770,"ठान":10771,"आयात":10772,"दूरदर्शन":10773,"दूरदराज":10774,"पारस्":10775,"महिलायेँ":10776,"त्योहार":10777,"नौसिख":10778,"स्वीटी":10779,"ख़तरे":10780,"सम्मो":10781,"अवतार":10782,"नियति":10783,"द्रविड़":10784,"भावनाएं":10785,"महाविद्यालय":10786,"बहने":10787,"व्यास":10788,"पड़ेंगे":10789,"फाड़":10790,"फाटक":10791,"पिछला":10792,"सर्कस":10793,"कूल्हे":10794,"क़ू":10795,"क़ात":10796,"क़रीबन":10797,"गतिशीलता":10798,"बैठें":10799,"आईआर":10800,"कार्लोस":10801,"किसको":10802,"किसकी":10803,"भाषाएँ":10804,"धिकारी":10805,"बिल्लियों":10806,"सवादी":10807,"महीनो":10808,"इन्होने":10809,"बोलेंगे":10810,"लंबाई":10811,"परिवर्तनों":10812,"तकनीकि":10813,"घाट":10814,"स्वास्थय":10815,"गिरती":10816,"कराते":10817,"युद्धों":10818,"बकबक":10819,"घुल":10820,"पतियों":10821,"इंतज़ाम":10822,"भेजती":10823,"सिखाती":10824,"चिकित्सकों":10825,"ड्रग्स":10826,"खरीदें":10827,"खरीदारी":10828,"गर्भाव":10829,"टूटने":10830,"अभिप्राय":10831,"कमीज़":10832,"छुपे":10833,"भूलने":10834,"फ़ीट":10835,"शादीशुदा":10836,"भोजना":10837,"लेंडर":10838,"आंका":10839,"आंशिक":10840,"मस्तिश्क":10841,"राष्ट्रों":10842,"लिखें":10843,"लिखता":10844,"थ्म":10845,"सपनो":10846,"२०१४":10847,"चुकाने":10848,"पड़ताल":10849,"फ़ाई":10850,"फ़ायर":10851,"कंप्यूटरों":10852,"झूट":10853,"झूले":10854,"ंशिक":10855,"नुसार":10856,"बताओगे":10857,"लौटे":10858,"धुरी":10859,"धुम्रपान":10860,"शर्तों":10861,"लड़ाकू":10862,"पांचवी":10863,"ब्रावो":10864,"कतरा":10865,"उड़ाते":10866,"क्राफ्ट":10867,"धोबी":10868,"मकदूनियाई":10869,"पौष्टिक":10870,"घोटा":10871,"इंटरफेस":10872,"शैक्षणिक":10873,"नाइट्रोजन":10874,"निकासी":10875,"गूंगा":10876,"हटना":10877,"खरीदता":10878,"नैट":10879,"मंत्रमुग्ध":10880,"क्रोधित":10881,"संकेतक":10882,"संस्थागत":10883,"बेवकूफी":10884,"नावश्यक":10885,"भौंक":10886,"गैंग":10887,"गैलन":10888,"फ्रि":10889,"फ्रै":10890,"चिल्लाना":10891,"पढ़ाकू":10892,"आइलैंड":10893,"१९८०":10894,"जोड़ता":10895,"आंकलन":10896,"उठना":10897,"भ्रूण":10898,"कार्यक्रमों":10899,"वर्गों":10900,"पॉवर":10901,"तेंदु":10902,"ट्राइडेंट":10903,"विश्वसनीयता":10904,"गड़गड़ा":10905,"अकेलापन":10906,"गणितज्ञ":10907,"अत्यन्त":10908,"२००२":10909,"२००५":10910,"२००७":10911,"फ़ेल":10912,"फ़ेस":10913,"उपाधि":10914,"हॉर्न":10915,"व्यवसायिक":10916,"कागजी":10917,"कागजात":10918,"क्लान":10919,"क्लाउड":10920,"दिशाओं":10921,"पहुँचाना":10922,"काबलियत":10923,"द्वीपीय":10924,"बजता":10925,"चढ़ने":10926,"विज्ञानिक":10927,"ढूँढो":10928,"ट्रैक्टर":10929,"ट्रैकिंग":10930,"रहस्यमय":10931,"सम्बन्धित":10932,"अभियानों":10933,"उलटी":10934,"रोमांटिक":10935,"ऊंची":10936,"शिष्टाचार":10937,"चमगादड़":10938,"हंसतेहुए":10939,"किस्मती":10940,"माँगने":10941,"वर्णित":10942,"खुलासा":10943,"सँभाल":10944,"निवारक":10945,"डिजिट्ल":10946,"उतरने":10947,"नन्हे":10948,"दिलाते":10949,"श्रेष्ठता":10950,"न्यूरोन":10951,"न्यूरोसाइंस":10952,"ढूंढना":10953,"ढूंढते":10954,"व्रत":10955,"गुज़रते":10956,"सुनीता":10957,"इशारे":10958,"गोलार्":10959,"दौड़ते":10960,"क्युकि":10961,"टेक्सास":10962,"सटीकता":10963,"विशेषज्ञता":10964,"इलेक्ट्रिक":10965,"हंसना":10966,"घुसने":10967,"रेलवे":10968,"उभरते":10969,"बंधा":10970,"बीजगणित":10971,"टकराते":10972,"तत्पर":10973,"अंगूठा":10974,"पाठ्यपुस्तक":10975,"ड्रेगन":10976,"सचेतन":10977,"लियोन":10978,"फ़ॉर":10979,"मीटिंग्स":10980,"एल्गोरिथ्म":10981,"शहरीकरण":10982,"अन्तर्":10983,"पूरब":10984,"दिखेगी":10985,"तरंगों":10986,"मोटापे":10987,"अजनबियों":10988,"एकांत":10989,"एकाधिक":10990,"घुमाव":10991,"कायाकल्प":10992,"मिश्रित":10993,"हँसना":10994,"आनुवं":10995,"मच्छरदानी":10996,"नियोक्ता":10997,"डिज़ाइनर":10998,"रनवे":10999,"पहचाने":11000,"अटकल":11001,"ओवरलुक":11002,"श्रोताओं":11003,"जादूगरनी":11004,"ब्लूबेरी":11005,"बैंकर":11006,"इंडस्ट्री":11007,"कड़वा":11008,"स्कैनर":11009,"अग्निश":11010,"अविष्कारक":11011,"वेटरन":11012,"होमवर्क":11013,"उथल":11014,"मंगलवार":11015,"स्क्वर्ट":11016,"निशाने":11017,"अखबारों":11018,"इस्लामिक":11019,"औषध":11020,"वर्गीकृत":11021,"मक्खन":11022,"मक्खियों":11023,"लचीले":11024,"श्रोतागण":11025,"दार्शनिकों":11026,"ड्यूक":11027,"तात्कालिक":11028,"प्रकाशक":11029,"अंतर्राष्ट्रिय":11030,"इकलौती":11031,"एकीकरण":11032,"ब्रैंडन":11033,"गद्दे":11034,"कार्यालयों":11035,"फायदेमंद":11036,"दवाइयाँ":11037,"दवाइयां":11038,"भतीजी":11039,"स्कर्ट":11040,"१९९८":11041,"अनिश्चितता":11042,"गुमनाम":11043,"व्हील":11044,"मेलेनिन":11045,"दुष्प्रभाव":11046,"गुब्बारे":11047,"गलतियाँ":11048,"रॉबलिंग":11049,"उज्ज्वल":11050,"सत्यापित":11051,"ज़ूद":11052,"अधूरा":11053,"प्राइज़":11054,"ढाँचा":11055,"ढाँचे":11056,"श्याम":11057,"किताबे":11058,"प्रोजेरिया":11059,"कटुता":11060,"टाइटैनिक":11061,"महानगरों":11062,"बढेगा":11063,"अँग्रेजी":11064,"इस्तीफा":11065,"कट्टरपंथी":11066,"गड्ढे":11067,"पछतावा":11068,"मलाला":11069,"स्टॉइक":11070,"शुभकामनाएँ":11071,"नायकों":11072,"कोडेक्स":11073,"मिलिटरी":11074,"दुगना":11075,"अनुष्ठान":11076,"अर्जेंटीना":11077,"डायनासोर":11078,"अचरज":11079,"ईमारत":11080,"संवर्धन":11081,"ख़ूबसूरत":11082,"प्रशंसकों":11083,"न्यायाधीश":11084,"इमेजिंग":11085,"पंजीकृत":11086,"कान्सास":11087,"महारत":11088,"ब्रुकलिन":11089,"आर्किटेक्ट":11090,"ऑस्ट्रिया":11091,"कल्चर":11092,"ग्यारह":11093,"गडरिया":11094,"निषे":11095,"संसाधित":11096,"ग्रेजुएट":11097,"निष्कासित":11098,"हतोत्साहित":11099,"बृहस्पति":11100,"माउंट":11101,"थेरेपी":11102,"महेसुस":11103,"मतभेदों":11104,"ख़तरनाक":11105,"प्रोसेसर":11106,"खलनायक":11107,"तब्दील":11108,"नवंबर":11109,"पंद्रह":11110,"कीटाणु":11111,"प्रचुर":11112,"फ़ौरन":11113,"इंस्टिट्यूट":11114,"पोटेंशियल":11115,"अने":11116,"असम":11117,"अरु":11118,"अफ़ी":11119,"अस्वस्थ":11120,"आऊ":11121,"आरा":11122,"आनी":11123,"आरो":11124,"आवेश":11125,"आलेख":11126,"आक्सीजन":11127,"आकांक्षा":11128,"इम्":11129,"इश्क":11130,"उभरा":11131,"उम्म":11132,"उतरे":11133,"ऊनी":11134,"ऊतकों":11135,"एसे":11136,"एना":11137,"एक्ट":11138,"एसिड":11139,"ऐल्":11140,"ऑन्लाइन":11141,"ओय":11142,"ओहि":11143,"ओडि":11144,"कंध":11145,"कमाता":11146,"कन्या":11147,"कलोनी":11148,"खडी":11149,"खतम":11150,"गृ":11151,"गज़ब":11152,"घना":11153,"घोर":11154,"घण्ट":11155,"चया":11156,"चतु":11157,"चबा":11158,"छ्":11159,"छार":11160,"जवल":11161,"जलता":11162,"जंजी":11163,"जहरी":11164,"जमाने":11165,"जज़्":11166,"झपक":11167,"टकर":11168,"टते":11169,"टार्क":11170,"डली":11171,"डरो":11172,"तग":11173,"तको":11174,"थॉ":11175,"दमन":11176,"दस्ती":11177,"दफ़्":11178,"दविनिया":11179,"धत्त":11180,"धब्बे":11181,"धूर्त":11182,"नली":11183,"नूर":11184,"नसीब":11185,"पती":11186,"पकों":11187,"पत्य":11188,"फव्":11189,"बकर":11190,"बरत":11191,"बहि":11192,"बलों":11193,"बंदा":11194,"भ्रा":11195,"मने":11196,"मल्":11197,"मलिन":11198,"यब":11199,"रजि":11200,"रबर":11201,"रक्षण":11202,"रईस":11203,"लल":11204,"लॊ":11205,"लंड":11206,"लमेरि":11207,"वारी":11208,"वयन":11209,"वंडर":11210,"शम":11211,"षड":11212,"सता":11213,"सजी":11214,"सलों":11215,"सदन":11216,"सजग":11217,"हस":11218,"हथे":11219,"़ा":11220,"ितु":11221,"ुति":11222,"ैलों":11223,"ोध":11224,"ोहों":11225,"्ती":11226,"५५":11227,"९२":11228,"हैटन":11229,"केश":11230,"केह":11231,"केशन":11232,"नेल्सन":11233,"सेलु":11234,"सेक्शन":11235,"सेवक":11236,"सेकेंड":11237,"ारसी":11238,"ारिन":11239,"किले":11240,"कियी":11241,"किन्नर":11242,"ताे":11243,"हीथ्रो":11244,"औरयह":11245,"नाहट":11246,"कोठ":11247,"कोटा":11248,"कालि":11249,"कांड":11250,"कालेज":11251,"कीटना":11252,"क्को":11253,"क्लॉ":11254,"क्ट्स":11255,"मैट्टी":11256,"मैत्री":11257,"तेरी":11258,"हाहा":11259,"मैंटिस":11260,"स्फ":11261,"स्पा":11262,"स्माइ":11263,"एकबार":11264,"होलो":11265,"लिली":11266,"सादा":11267,"साप्ता":11268,"हमदर्दी":11269,"आपरेशन":11270,"जाई":11271,"जादा":11272,"वाः":11273,"वाड़":11274,"वाती":11275,"वाटर":11276,"वाइट":11277,"वाइंट":11278,"लेज़र":11279,"परतों":11280,"लां":11281,"लाएगा":11282,"भीषण":11283,"मामा":11284,"माइन":11285,"माएल":11286,"्यूल":11287,"मेट्रो":11288,"मुड":11289,"मुक्का":11290,"मुहम्मद":11291,"रहूँगी":11292,"रहूंगी":11293,"विकारों":11294,"प्रॉ":11295,"प्रयो":11296,"प्रवास":11297,"प्रयुक्त":11298,"प्रवासियों":11299,"बाला":11300,"बाये":11301,"बाकियों":11302,"बालिका":11303,"नीचर":11304,"निको":11305,"निंद":11306,"निज़ी":11307,"निसंदेह":11308,"गायों":11309,"गायक":11310,"येल":11311,"रेस्ट":11312,"रेसिंग":11313,"रेडिट":11314,"अपतटीय":11315,"अपितु":11316,"न्ग":11317,"न्जा":11318,"न्वयन":11319,"सीवर":11320,"सीखे":11321,"सीनेट":11322,"रीस":11323,"पाव":11324,"पाऊँ":11325,"पालक":11326,"पालिका":11327,"कारखानों":11328,"हाँफना":11329,"ज़नेस":11330,"संजो":11331,"संजी":11332,"संगी":11333,"संहि":11334,"संधि":11335,"संबद्ध":11336,"संजय":11337,"संकोच":11338,"त्सु":11339,"जिद":11340,"जिस्":11341,"जिला":11342,"जियम":11343,"जिद्दी":11344,"दाग":11345,"देखि":11346,"देखरेख":11347,"लीए":11348,"वेशन":11349,"च्ची":11350,"करनेवाली":11351,"भान":11352,"बहुमत":11353,"बहुराष्ट्रीय":11354,"सबर्ग":11355,"सकतेहैं":11356,"हरकत":11357,"सिक्":11358,"सिंगा":11359,"सिलाई":11360,"श्श":11361,"श्वसन":11362,"दोँ":11363,"दोस्ता":11364,"दोहन":11365,"खाकर":11366,"खाका":11367,"फ़केस":11368,"बेकेट":11369,"ंगफली":11370,"मानत":11371,"मानेंगे":11372,"मानदंड":11373,"द्दा":11374,"सोची":11375,"सोर्स":11376,"सोफु":11377,"सोशियल":11378,"दीक्षा":11379,"तरस":11380,"शिकी":11381,"सकताहै":11382,"चेज़":11383,"चेयर":11384,"चेस्टर":11385,"लोए":11386,"बिछा":11387,"बिनेट":11388,"बिज़नेस":11389,"अधः":11390,"टेनर":11391,"रूपए":11392,"रूपसे":11393,"रूपमें":11394,"दियाहै":11395,"ढ़ि":11396,"फिरते":11397,"कमजोरी":11398,"टाल":11399,"टाना":11400,"पीडिया":11401,"प्लग":11402,"डाक":11403,"डायल":11404,"डालूंगा":11405,"डाकुओं":11406,"परिपथ":11407,"परिश्रम":11408,"व्यय":11409,"व्यंजन":11410,"रिय":11411,"बताऊ":11412,"वर्जित":11413,"नियां":11414,"नियामक":11415,"देशद्रोह":11416,"म्पि":11417,"म्पांजी":11418,"रखूँगा":11419,"चिली":11420,"चिढ़":11421,"चिट्ठ":11422,"चाहिएः":11423,"चुस्त":11424,"चुम्":11425,"चुनो":11426,"चुअल":11427,"चुम्ब":11428,"प्रतिरोधी":11429,"अंटार्क":11430,"उपचारों":11431,"उपनगर":11432,"बोबो":11433,"खुजली":11434,"खुशियों":11435,"खुदाई":11436,"लगानी":11437,"लगायी":11438,"बुश":11439,"पेशी":11440,"अधिकृत":11441,"हिंदु":11442,"हिलाया":11443,"डिझा":11444,"स्टम":11445,"पैकिंग":11446,"पैट्रोल":11447,"खोजो":11448,"कैप":11449,"कैफे":11450,"कैबिनेट":11451,"जाताहै":11452,"शीट":11453,"शीतल":11454,"उत्पी":11455,"हेज":11456,"हेयर":11457,"हेक्टर":11458,"गुल":11459,"गुज़रा":11460,"निर्वा":11461,"निर्वासन":11462,"वारिस":11463,"लड़ता":11464,"लड़ेंगे":11465,"बैट":11466,"बैर":11467,"डीज":11468,"वाद्य":11469,"बंदरों":11470,"टिल":11471,"टिनो":11472,"मोनो":11473,"गोफन":11474,"बदलकर":11475,"डेविना":11476,"त्मक्ता":11477,"शेफ":11478,"ष्म":11479,"चलाई":11480,"असें":11481,"असफ़ल":11482,"मौक़ा":11483,"समायोजन":11484,"भागती":11485,"ग्रै":11486,"सामंज":11487,"नोट्स":11488,"तबसे":11489,"पोत":11490,"टोना":11491,"टोस्ट":11492,"टोसिं":11493,"छाल":11494,"बरसात":11495,"दूरदर्":11496,"तैं":11497,"तैराकी":11498,"पारम्परिक":11499,"महिलाओँ":11500,"डरना":11501,"कौनसे":11502,"लोंग":11503,"राजस्व":11504,"बर्फी":11505,"पकड़ी":11506,"पकडे":11507,"वर्षो":11508,"महाद्वीपीय":11509,"ट्ठा":11510,"ट्ठे":11511,"बहता":11512,"बहती":11513,"बहरहाल":11514,"सैद्धा":11515,"ट्रल":11516,"ट्रस्ट":11517,"ध्यक्ष":11518,"भुना":11519,"दृढ":11520,"बचाकर":11521,"बचाता":11522,"बचाती":11523,"शब्दा":11524,"जातीं":11525,"कूड़ा":11526,"शहरो":11527,"क़्":11528,"सुनाता":11529,"झान":11530,"मूक":11531,"मूंगफली":11532,"खोजकर्ता":11533,"पूछिए":11534,"व्यवधान":11535,"सारंगी":11536,"सीखेंगे":11537,"आईये":11538,"हिस्की":11539,"पढ़ें":11540,"पढ़ती":11541,"कार्लस्":11542,"डालूँगा":11543,"उदासीन":11544,"मुखिया":11545,"घटकों":11546,"बिल्ला":11547,"दिखी":11548,"क्षेत्रीय":11549,"फेल":11550,"पनडु":11551,"इन्होंने":11552,"फैली":11553,"फैक्स":11554,"चिंताओं":11555,"चिंपां":11556,"दिमाग़":11557,"प्रोफ़े":11558,"मिनल":11559,"चोकर":11560,"उठाकर":11561,"विकासवादी":11562,"क्यूकी":11563,"जलती":11564,"जलमार्ग":11565,"सलाद":11566,"ग्ने":11567,"ज़िंग":11568,"घुसा":11569,"गिग":11570,"गिरे":11571,"सिखाओ":11572,"लॉकर":11573,"ड्रग":11574,"डोँ":11575,"डोज़":11576,"यात्राओं":11577,"लुभा":11578,"विज्ञानं":11579,"कोशिकाएँ":11580,"कमीशन":11581,"चूसने":11582,"छुरा":11583,"छुड़ा":11584,"फ़ीड":11585,"क्रिप्टन":11586,"मिलीमीटर":11587,"भिन्नता":11588,"लोगोने":11589,"नीतियां":11590,"शर्मी":11591,"स्टेड":11592,"परिणामस्वरूप":11593,"व्हिस्की":11594,"गंतु":11595,"पदक":11596,"पदचिह्न":11597,"पितृ":11598,"बेचारा":11599,"टॉलेमी":11600,"मूर्खों":11601,"समानु":11602,"मौतें":11603,"मकड़ी":11604,"अकेलेपन":11605,"मैनहैटन":11606,"ट्रेस":11607,"ट्रेसी":11608,"चौकस":11609,"व्यवहारिक":11610,"टुकडे":11611,"शैवाल":11612,"तितली":11613,"मृत्युदंड":11614,"बढी":11615,"बढता":11616,"निकालता":11617,"ग़ौर":11618,"प्रियजनों":11619,"हार्बर":11620,"राजाओं":11621,"मौजूदगी":11622,"ढूँढे":11623,"पहुंचेंगे":11624,"रोबोटिक्स":11625,"हथौ":11626,"गैसों":11627,"जोरदार":11628,"शॉप":11629,"शॉवर":11630,"शॉर्ट":11631,"बीमारियाँ":11632,"अलाई":11633,"छिड़":11634,"१९५०":11635,"जोड़ती":11636,"छवियाँ":11637,"अल्टो":11638,"लाइडर":11639,"मनाते":11640,"पॉड":11641,"पाठशाला":11642,"वार्ड":11643,"सॉयर":11644,"सॉफ़्ट":11645,"मैँने":11646,"भूतकाल":11647,"पंजा":11648,"रैली":11649,"बिताये":11650,"शांतिपूर्ण":11651,"करवाते":11652,"मृत्यू":11653,"लेनदेन":11654,"ज़ोरदार":11655,"दुश्मनों":11656,"स्पेन":11657,"झुको":11658,"निजीकरण":11659,"पाएगी":11660,"साधना":11661,"पहुँचाते":11662,"ख़ानः":11663,"विष्कारों":11664,"बाजारों":11665,"बर्टः":11666,"जागृत":11667,"दबाकर":11668,"स्नातको":11669,"ट्रैप":11670,"प्रयोगशालाओं":11671,"ड्राइंग":11672,"नज़दीकी":11673,"सर्वव्यापी":11674,"गिराने":11675,"सुलझाया":11676,"असरदार":11677,"रेंजर":11678,"चैट":11679,"निरस्त":11680,"संभालो":11681,"संभालना":11682,"राजनीती":11683,"उतरते":11684,"एल्फ़":11685,"ट्रिडेंट":11686,"डुबो":11687,"वुल्फ":11688,"स्कॉटलैंड":11689,"शॉनः":11690,"मुलाक़ात":11691,"मातृभूमि":11692,"इंगित":11693,"पढता":11694,"गुज़रने":11695,"हफ़्ता":11696,"काउंटर":11697,"बाधाएं":11698,"अंतर्निहित":11699,"डूबे":11700,"आपातकाल":11701,"आयुवाद":11702,"ठोकर":11703,"फरक":11704,"१००००":11705,"दर्शकः":11706,"ख्वाह":11707,"गांवों":11708,"पायेगी":11709,"पार्कर":11710,"पार्किं":11711,"गुरुवार":11712,"साईट":11713,"शुद्धता":11714,"नीलामी":11715,"हंसने":11716,"तैरते":11717,"क़ानून":11718,"उपभोक्ताओं":11719,"खिलवाड़":11720,"धारावाहिक":11721,"बंजर":11722,"अस्पष्टता":11723,"एन्डर":11724,"खंडित":11725,"डब्बे":11726,"तत्त्व":11727,"चढ़ाव":11728,"मुड़ें":11729,"फ़्रांसि":11730,"फ़्रांसिस":11731,"डायरी":11732,"शरार":11733,"मुनाफा":11734,"दुःखी":11735,"पोंछ":11736,"फॉर":11737,"बलात्कारी":11738,"जायेंगी":11739,"कोलकाता":11740,"नारियल":11741,"बौछार":11742,"न्यूरॉन":11743,"गांड़":11744,"फ्लैग":11745,"चालाकी":11746,"अम्ल":11747,"आइसलैंड":11748,"खुलकर":11749,"इंडि":11750,"इंडिया":11751,"थैला":11752,"परंपराओं":11753,"नस्लवाद":11754,"फारस":11755,"मुर्दा":11756,"मियामी":11757,"विवाहित":11758,"स्टैंड":11759,"चुड़ैलों":11760,"जनजातियों":11761,"पोर्टर":11762,"घूमा":11763,"रावण":11764,"दाईं":11765,"अफ्रिकी":11766,"खनिजों":11767,"भटकना":11768,"ख़बरों":11769,"अल्पसंख्य":11770,"डार्सी":11771,"डार्लिंग":11772,"डार्विन":11773,"पिघल":11774,"व्यवसायों":11775,"सकोगे":11776,"तात्पर्य":11777,"प्रोटोटाइप":11778,"ड्रिंक":11779,"धुंधले":11780,"धुंधला":11781,"एग्जाम":11782,"घोंसले":11783,"ढूढ":11784,"ढूढ़":11785,"सेल्समैन":11786,"नाश्ते":11787,"फोर्ब्स":11788,"ठहराया":11789,"युगान्डा":11790,"फायरमैन":11791,"सिडनी":11792,"बेचैनी":11793,"धोखेबाज":11794,"एस्बेस्ट":11795,"खर्चे":11796,"लंगर":11797,"मॉडलों":11798,"बत्तियाँ":11799,"बत्तियां":11800,"असहमति":11801,"सेकण्ड":11802,"गुब्बारा":11803,"उज्जवल":11804,"उदयगढ":11805,"चोंच":11806,"ध्रुवीय":11807,"प्रणव":11808,"बौद्धिक":11809,"भंडारण":11810,"मैथुन":11811,"निःसंदेह":11812,"टेलिफोन":11813,"बल्लेबाजी":11814,"प्रौद्योगिकियों":11815,"कसरत":11816,"यथार्थवादी":11817,"हॆैं":11818,"कुकीज़":11819,"सिकुड़":11820,"डेनमार्क":11821,"फाइबर":11822,"फेफड़ों":11823,"उँगलियों":11824,"ठिकाने":11825,"कोरोनावायरस":11826,"बुझाने":11827,"क़िताब":11828,"फुसफुसाते":11829,"सिल्वर":11830,"आख़िरकार":11831,"एडिसन":11832,"जस्टिन":11833,"चाइना":11834,"रिवर्ब":11835,"इज्ज़त":11836,"ऑटिज्म":11837,"मण्डल":11838,"विंस्टन":11839,"प्रोडक्ट":11840,"काउंसिल":11841,"ब्रीफ़केस":11842,"बांग्ला":11843,"डिटेक्टर":11844,"मोहल्ले":11845,"फालतू":11846,"क्रिप्टोनियन":11847,"फ़ोर्निया":11848,"हार्मोन्स":11849,"प्टेरा":11850,"लाइब्रेरी":11851,"इश्माएल":11852,"कबीले":11853,"रिएक्टर":11854,"मुजरिम":11855,"न्कटन":11856,"सम्राट":11857,"सुचारु":11858,"बोस्निया":11859,"हिंदू":11860,"गुदगुदी":11861,"स्ट्रॉबेरी":11862,"सिंथेटिक":11863,"बुदबुदा":11864,"आह्वान":11865,"इकॉनमी":11866,"ओक्सिटोसिं":11867,"घन्टे":11868,"छद्म":11869,"तार्किक":11870,"वियतनाम":11871,"निचोड़":11872,"येल्त्सिन":11873,"डिलीवरी":11874,"निर्देशांक":11875,"टोप्लान्कटन":11876,"पारस्परिक":11877,"गर्भावस्था":11878,"गड़गड़ाहट":11879,"अटकलें":11880,"ऐल्फ़ा":11881,"ओहियो":11882,"लमेरिकेन":11883,"साप्ताहिक":11884,"संहिता":11885,"सोफुस":11886,"अंटार्कटिका":11887,"सामंजस्य":11888,"कार्लस्सन":11889,"पनडुब्बी":11890,"स्नातकोत्तर":11891,"पार्किंसंस":11892,"फ़्रांसिसी":11893,"ओक्सिटोसिंन":11894,"ँए":11895,"ँपाँ":11896,"ंकर":11897,"ंकों":11898,"ंतिक":11899,"अड़":11900,"अस्त":11901,"अतर":11902,"अचे":11903,"अमेरी":11904,"अस्तर":11905,"अस्त्र":11906,"अछू":11907,"अमल":11908,"अपरिचित":11909,"अनावश्यक":11910,"आें":11911,"आति":11912,"आल्":11913,"आयोग":11914,"आस्था":11915,"आर्म":11916,"आर्य":11917,"आसूचना":11918,"आचरण":11919,"आख़री":11920,"आंधी":11921,"इज":11922,"इली":11923,"इल्":11924,"इडे":11925,"ईगल":11926,"उज":11927,"उट":11928,"ऎसी":11929,"एव":11930,"एनए":11931,"एलेक्":11932,"एसेक्स":11933,"एस्टेट":11934,"ओए":11935,"ओपि":11936,"ओमर":11937,"ओलं":11938,"ओल्ड":11939,"ओप्पो":11940,"ओरिन":11941,"औजार":11942,"कहूंगी":11943,"खौ":11944,"खलि":11945,"खजाने":11946,"खम्बे":11947,"गन्":11948,"गम्":11949,"गूँ":11950,"घने":11951,"घिर":11952,"घमंड":11953,"घ्न":11954,"चं":11955,"चह":11956,"चको":11957,"चप्":11958,"चहे":11959,"छठी":11960,"छतरी":11961,"छतों":11962,"जं":11963,"जस":11964,"जम्":11965,"जकड़":11966,"झल":11967,"झड़":11968,"टपक":11969,"ठन":11970,"ठु":11971,"डित":11972,"डटकर":11973,"ढलने":11974,"तं":11975,"तंदु":11976,"तंतु":11977,"थका":11978,"थ्री":11979,"थैंक":11980,"दस्ते":11981,"दण्ड":11982,"दंगों":11983,"धके":11984,"नर्म":11985,"नसों":11986,"नराय":11987,"पली":11988,"पदो":11989,"पंड":11990,"पंगा":11991,"पल्स":11992,"पढे":11993,"पट्टा":11994,"पगला":11995,"फंदा":11996,"फटने":11997,"बट":11998,"बॅ":11999,"बटा":12000,"बलू":12001,"बतला":12002,"भल":12003,"मस्":12004,"मछुआ":12005,"यहो":12006,"रफ्त":12007,"लारा":12008,"लार्":12009,"लक्ष्":12010,"वेंक":12011,"शतक":12012,"षकों":12013,"सई":12014,"समै":12015,"सरह":12016,"सहू":12017,"हदी":12018,"हारा":12019,"हबी":12020,"हवाले":12021,"िओ":12022,"िरी":12023,"ुमा":12024,"ॅर्क":12025,"ैव":12026,"ोपण":12027,"्ज़":12028,"्हार":12029,"२६":12030,"२७":12031,"४८":12032,"९४":12033,"हैश":12034,"हैमिल":12035,"हैवी":12036,"ेंज़":12037,"केसा":12038,"केतु":12039,"केली":12040,"केबल":12041,"यारो":12042,"याचना":12043,"याॅर्क":12044,"नेल":12045,"नेवि":12046,"किड":12047,"किला":12048,"किश्":12049,"किमो":12050,"किलिंग":12051,"किश्ती":12052,"ताले":12053,"ताजी":12054,"तापूर्ण":12055,"मेंढक":12056,"औरवे":12057,"्रि":12058,"नाही":12059,"नामा":12060,"नासमझ":12061,"नाड़ी":12062,"नांक":12063,"कोयल":12064,"कोडिंग":12065,"कामा":12066,"कायदा":12067,"कीः":12068,"कीर":12069,"कीन्या":12070,"क्टि":12071,"मैल्":12072,"मैगी":12073,"तेरह":12074,"हाद":12075,"हांग":12076,"हाटो":12077,"हावर्ड":12078,"मैंएक":12079,"स्ज़":12080,"स्यू":12081,"स्म्र":12082,"एकसंदेश":12083,"एकतरफा":12084,"होके":12085,"होऊँगा":12086,"लिआ":12087,"लिटल":12088,"साली":12089,"साहि":12090,"साक्ष्य":12091,"साक्षी":12092,"हममे":12093,"आपएक":12094,"र्शियल":12095,"र्सनः":12096,"जागर":12097,"जाउंगी":12098,"वांछ":12099,"लेक":12100,"लेवल":12101,"परखा":12102,"परछा":12103,"भीतरी":12104,"माद":12105,"मास":12106,"माबाप":12107,"मालिश":12108,"मात्सु":12109,"मेड":12110,"मेसो":12111,"मेडि":12112,"तुमें":12113,"मुर्ग":12114,"मुम्ब":12115,"ड़सवार":12116,"विल्":12117,"विटा":12118,"विक्स":12119,"विन्दा":12120,"विस्थापन":12121,"विल्सन":12122,"प्रभार":12123,"प्रकरण":12124,"प्रस्थान":12125,"प्रयोजन":12126,"प्रक्षेप":12127,"थाय":12128,"राशन":12129,"राडो":12130,"बातो":12131,"बाडी":12132,"बाकू":12133,"नीदर":12134,"नीरस":12135,"निसि":12136,"निबंध":12137,"निभाई":12138,"नितिक":12139,"निषि":12140,"चाउ":12141,"चाहोगी":12142,"गाई":12143,"तीनो":12144,"तीखी":12145,"तिन":12146,"तिल":12147,"न्तर":12148,"न्तों":12149,"दिसम्":12150,"रीक":12151,"रीसाइकिल":12152,"पाश":12153,"पाकर":12154,"पास्":12155,"पाली":12156,"पादक":12157,"कुं":12158,"कुमारी":12159,"कुवैत":12160,"मिलिए":12161,"मिमोसा":12162,"समलैंग":12163,"समन्दर":12164,"संगर":12165,"संपर्":12166,"संपन्न":12167,"संभाषण":12168,"संदूक":12169,"संघटन":12170,"संदेहा":12171,"जिगर":12172,"जिस्ट":12173,"जियन":12174,"जियेंगे":12175,"लीवर":12176,"वेष":12177,"कुछेक":12178,"रूबा":12179,"रूढ़ि":12180,"शाच":12181,"शासक":12182,"चाह्ते":12183,"्यात्मक":12184,"लगवा":12185,"िकन":12186,"गेज़":12187,"गेटो":12188,"गेटिव":12189,"सबमें":12190,"लोगी":12191,"लोग्राम":12192,"हरि":12193,"ल्जन":12194,"सुरी":12195,"सुओं":12196,"सुगंध":12197,"सुदृढ़":12198,"सिंक":12199,"सियस":12200,"पहनो":12201,"श्श्श":12202,"फ़न":12203,"फ़ैर":12204,"फ़िन":12205,"फ़र्ज़":12206,"फ़ारसी":12207,"मीलों":12208,"मीटर्स":12209,"ंगः":12210,"थेन":12211,"अबतक":12212,"मानवा":12213,"मानकों":12214,"माननीय":12215,"कोईभी":12216,"सोलर":12217,"बनावटी":12218,"तरंगे":12219,"शिट":12220,"शियो":12221,"रोई":12222,"रोमन":12223,"गीर":12224,"कामो":12225,"चेस":12226,"चेरी":12227,"दुरुप":12228,"लोम":12229,"लोरी":12230,"बिंदी":12231,"बिगाड़":12232,"बीकन":12233,"कहिए":12234,"महत्त":12235,"महफ़ू":12236,"मिलके":12237,"मिलेंगी":12238,"टेट्रा":12239,"पहलेसे":12240,"रूपी":12241,"पिच":12242,"पिशाच":12243,"फिरभी":12244,"किसीभी":12245,"पासवर्ड":12246,"पुनर":12247,"पुतली":12248,"कमर्शियल":12249,"शुक्रा":12250,"टाय":12251,"रुस":12252,"रुकता":12253,"रुझान":12254,"पीता":12255,"पींस":12256,"पीतल":12257,"प्वाइंट":12258,"व्यस्कों":12259,"रिकी":12260,"रिकार्":12261,"रिजर्":12262,"बताएं":12263,"कभीनहीं":12264,"सूजन":12265,"म्बना":12266,"रखिए":12267,"योनि":12268,"योजक":12269,"चिल्":12270,"चिँपाँ":12271,"चाहिएँ":12272,"चुनिंदा":12273,"बदनाम":12274,"बारि":12275,"बारें":12276,"अंड":12277,"अंडा":12278,"अनुमो":12279,"अनुभाग":12280,"अनुप्रयोग":12281,"अनुरूपता":12282,"उपक्रम":12283,"उपेक्षित":12284,"बोको":12285,"बोर्ग":12286,"खुदा":12287,"खुफिया":12288,"लगाम":12289,"बुढ़ा":12290,"बुलींग":12291,"पेनी":12292,"पेटाइ":12293,"पेट्रो":12294,"युयू":12295,"ज्वार":12296,"बनवा":12297,"हिच":12298,"मार्य":12299,"डिय":12300,"स्टर्":12301,"स्टेंज़":12302,"पैच":12303,"पैमाना":12304,"चाहतेहैं":12305,"खोई":12306,"कैरो":12307,"कैंडी":12308,"कैलेंडर":12309,"शीस्ट":12310,"उत्तरा":12311,"जेक":12312,"जेय":12313,"जेन्":12314,"हेपेटाइ":12315,"गुज":12316,"निर्जीव":12317,"वारंट":12318,"कृष्ण":12319,"त्वना":12320,"आजू":12321,"इंते":12322,"डीलर":12323,"चित्रा":12324,"धारकों":12325,"खेले":12326,"खेति":12327,"टिकी":12328,"मोट":12329,"मोहि":12330,"गोलियाँ":12331,"तरीको":12332,"यूनानी":12333,"यूवीसी":12334,"कईं":12335,"शेय":12336,"दिखाएँ":12337,"दिखाऊँगा":12338,"प्राजेक्ट":12339,"वैल":12340,"असमान":12341,"पर्चे":12342,"भागियों":12343,"कौमार्य":12344,"नोक":12345,"नोबेल":12346,"तबलीगी":12347,"फीड":12348,"कंघी":12349,"कार्यस्थल":12350,"कार्यवाहक":12351,"पोप":12352,"पोट्रे":12353,"छापने":12354,"माँगा":12355,"चीज़ो":12356,"स्याही":12357,"जुंग":12358,"जुगाड़":12359,"जुलूस":12360,"डॉग":12361,"डॉट":12362,"आयामों":12363,"हँसे":12364,"थोडे":12365,"महिलाये":12366,"डरपोक":12367,"लैस्ज़":12368,"नौसेना":12369,"नौसैनिक":12370,"प्रेत":12371,"जूता":12372,"जिनपर":12373,"राजनेताओं":12374,"राजनितिक":12375,"सम्पत्ति":12376,"क्सन":12377,"अवय":12378,"अवकाश":12379,"अवतरण":12380,"बर्बर":12381,"भिन":12382,"विश्वव्यापी":12383,"द्रश्य":12384,"ज़ात":12385,"महाकाय":12386,"महाकाव्य":12387,"स्पंदन":12388,"बंधकों":12389,"सैकंड":12390,"सुनहरा":12391,"सुनहरे":12392,"दानगी":12393,"पड़ना":12394,"फाय":12395,"फास्ट":12396,"अमेज़न":12397,"बचाए":12398,"स्थितियाँ":12399,"कूच":12400,"कून":12401,"कूदो":12402,"करणीय":12403,"फिली":12404,"खिंच":12405,"पत्ता":12406,"झाय":12407,"जारहे":12408,"मून":12409,"मूंगा":12410,"खोजते":12411,"व्यव्हार":12412,"आईं":12413,"कार्लाइ":12414,"सनसनी":12415,"चर्बी":12416,"न्यूकैसल":12417,"न्यूयाॅर्क":12418,"शुरुवाती":12419,"दिखेंगे":12420,"श्रीलंका":12421,"दौड़ने":12422,"फैलाते":12423,"फैंसी":12424,"फैक्ट्री":12425,"खीर":12426,"खींचे":12427,"पहुँचेंगे":12428,"अफवा":12429,"अफसर":12430,"दिमागों":12431,"मार्था":12432,"अरवि":12433,"उठाए":12434,"उठाये":12435,"बचती":12436,"तकनीशियन":12437,"धनवान":12438,"रोकती":12439,"सौदों":12440,"परेड":12441,"उदाहरणों":12442,"गिरि":12443,"तस्वीरे":12444,"ज़ीन":12445,"घंटो":12446,"ट्टन":12447,"ज़िल":12448,"लड़कीः":12449,"घुड़सवार":12450,"तंत्रज्ञान":12451,"बल्स":12452,"बल्ली":12453,"रणभूमि":12454,"द्योगिकी":12455,"फ्लिप":12456,"हराम":12457,"हराया":12458,"महानतम":12459,"गिना":12460,"गिरी":12461,"बॉडी":12462,"नरसंहार":12463,"चिकित्सीय":12464,"यात्राएं":12465,"ग्रीष्म":12466,"लुत्":12467,"कोशिकायें":12468,"अभिभूत":12469,"हारना":12470,"सामान्यता":12471,"उम्मीदें":12472,"चूम":12473,"छुप":12474,"छुपाने":12475,"भूलें":12476,"सेवाएँ":12477,"उम्मीदों":12478,"जन्मजात":12479,"लेंगी":12480,"पैदावार":12481,"दुर्व्यवहार":12482,"निकलकर":12483,"इलाज़":12484,"तुलनात्मक":12485,"र्डन":12486,"२०२०":12487,"छात्रो":12488,"छात्रवृत्ति":12489,"लोगोको":12490,"पक्षों":12491,"णामय":12492,"पहचानता":12493,"लौह":12494,"स्टेक":12495,"स्टेशनों":12496,"आर्थर":12497,"पांचवें":12498,"पड़ाव":12499,"बेचारे":12500,"टॉल्जन":12501,"क्रान्ति":12502,"भुगतना":12503,"पोर्टल":12504,"इंटरफ़ेस":12505,"वस्तुगत":12506,"लालसा":12507,"मैनसन":12508,"ट्रेड":12509,"टाइटन":12510,"लम्बाई":12511,"शैम्":12512,"शैंक":12513,"प्रेरक":12514,"मृत्युदर":12515,"बढने":12516,"आयेगी":12517,"नाइज़े":12518,"बेवक़ू":12519,"फ़िश":12520,"प्रतीकों":12521,"डैनियल":12522,"हार्पर":12523,"ढूँढा":12524,"नैनो":12525,"नैशनल":12526,"क्रोमो":12527,"जीतता":12528,"मर्दानगी":12529,"रोबोटिक":12530,"संस्थाएं":12531,"वॉच":12532,"फ्रेंस":12533,"फ्रेंड":12534,"आनं":12535,"सदैव":12536,"पढ़ाते":12537,"वंशी":12538,"शॉशैंक":12539,"अलास्का":12540,"छिपी":12541,"हजारोँ":12542,"रोपण":12543,"थ्यो":12544,"फलस्वरूप":12545,"१९९०":12546,"श्रेण":12547,"जोड़कर":12548,"आंकड़ो":12549,"सुधारना":12550,"मानेगा":12551,"अल्झाय":12552,"उपलब्द्ध":12553,"लाइव":12554,"एनर्जी":12555,"सॉल":12556,"रेखाओं":12557,"लाईट":12558,"लाईन":12559,"बनेगा":12560,"फ़्लू":12561,"रक्तचाप":12562,"सुलझ":12563,"नुकसानदायक":12564,"हज़ारो":12565,"पहनता":12566,"पत्तियों":12567,"राष्ट्रीयता":12568,"अर्ध":12569,"सहमती":12570,"सेलफोन":12571,"कम्पास":12572,"न्द्री":12573,"रस्सियों":12574,"२००९":12575,"खरपतवार":12576,"किंग्स":12577,"उपाध्यक्ष":12578,"चालयों":12579,"पेंच":12580,"पेंटागन":12581,"स्पेक्टर":12582,"एचः":12583,"मछलियों":12584,"फ़ैसले":12585,"अमीरों":12586,"बड़बड़ा":12587,"बारीक":12588,"सुविधाएं":12589,"सौरसेल":12590,"हैलोरन":12591,"जेंसी":12592,"ढूँढें":12593,"ट्रैफ़िक":12594,"बिंदुओं":12595,"अभियांत्रिक":12596,"हिस्सेदारी":12597,"पढाया":12598,"पढाना":12599,"पढाते":12600,"सर्वसम्":12601,"ऊंचा":12602,"चमकता":12603,"बनीं":12604,"गिराया":12605,"कम्पनियाँ":12606,"अनादर":12607,"कीजिएगा":12608,"विडम्बना":12609,"रिपोर्टों":12610,"चैटर":12611,"चैंगः":12612,"टर्नर":12613,"संभाला":12614,"प्रजातियां":12615,"स्रोतों":12616,"कपडा":12617,"शौचालयों":12618,"सँभावना":12619,"पकाया":12620,"बुनियाद":12621,"निगमों":12622,"डाटाबेस":12623,"चिन्ता":12624,"आयीं":12625,"नशेड़ियों":12626,"मुसीब":12627,"श्रेष्ठतम":12628,"तूफानी":12629,"तूफानों":12630,"बदलेगा":12631,"जर्सी":12632,"जर्नल":12633,"सीटें":12634,"नृवंशी":12635,"सबूतों":12636,"स्मार्टफोन":12637,"आदिम":12638,"कथाओं":12639,"स्टाफ़":12640,"स्टाइन":12641,"बोलीं":12642,"घिस":12643,"सिंथ":12644,"कौशल्य":12645,"ख्वाब":12646,"एक्सपो":12647,"क्रीट":12648,"अँधकार":12649,"इयेज़ा":12650,"लहरें":12651,"फ़्रेंच":12652,"जिम्मेदारियों":12653,"एलिय्या":12654,"मंदारिन":12655,"कामयाबी":12656,"हस्तमैथुन":12657,"कहेगा":12658,"खोलते":12659,"फोटोग्राफर":12660,"तैरता":12661,"व्यापकता":12662,"कठोरता":12663,"उभरता":12664,"बंदि":12665,"ब्लैकमेल":12666,"गिरफ्तारी":12667,"पेशेवरों":12668,"हाइपो":12669,"नक्शेकदम":12670,"मुड़कर":12671,"अध्यापकों":12672,"फ़्राइडे":12673,"ब्लाक":12674,"अन्ततः":12675,"दस्तावेज़ों":12676,"दफना":12677,"किरणों":12678,"मुनाफ़ा":12679,"हिमशैल":12680,"टेलोमेरेज़":12681,"गौरव":12682,"फॉर्म":12683,"विद्यु":12684,"एकाएक":12685,"एकाग्रता":12686,"ओकेआर":12687,"पवित्रता":12688,"डरावने":12689,"बेसमेंट":12690,"अर्थशास्त्रियों":12691,"नजरिये":12692,"मधुमक्खी":12693,"वृत्तचित्र":12694,"आर्डर":12695,"प्रदर्शनों":12696,"स्तनपान":12697,"लियन्स":12698,"पहचानें":12699,"बढ़ोतरी":12700,"महाद्वीपों":12701,"स्कूटर":12702,"कुर्सि":12703,"आरोपों":12704,"थैंक्स":12705,"पिकनिक":12706,"आपदाओं":12707,"बांसुरी":12708,"अग्लोए":12709,"अत्याव":12710,"फारसी":12711,"तालिका":12712,"होमलैंड":12713,"मुर्गी":12714,"हिलते":12715,"नार्ड":12716,"क्षतिग्रस्त":12717,"जागरूक":12718,"इस्लामी":12719,"कटोरा":12720,"क्रूगर":12721,"दरारें":12722,"फ्लोरिडा":12723,"बातेँ":12724,"गोलाबारी":12725,"एजेंसियों":12726,"दराज़":12727,"लचीली":12728,"आप्रवासियों":12729,"दासता":12730,"सब्जि":12731,"सब्जी":12732,"परोपकार":12733,"आश्रित":12734,"चिकनी":12735,"ढोल":12736,"ढोने":12737,"नाचते":12738,"बांटने":12739,"बांटना":12740,"स्टूपिड":12741,"कैलिफ़ोर्निया":12742,"फिलिस्तीन":12743,"टेलीविज़न":12744,"गॉड":12745,"गाँधी":12746,"सिग्ने":12747,"ब्रैड":12748,"प्रासंगिकता":12749,"चश्मे":12750,"मसीहा":12751,"म्यूजियम":12752,"हौसला":12753,"स्पिनो":12754,"स्पिटल":12755,"सीडीसी":12756,"अश्वेत":12757,"अश्लील":12758,"चारागाह":12759,"चुनौतियां":12760,"आख़िरी":12761,"एस्किमो":12762,"लंगड़ा":12763,"स्काउट्स":12764,"साँप":12765,"गुज़ारा":12766,"गडबड":12767,"केपलर":12768,"चिड़चि":12769,"प्रायः":12770,"औटिस्टिक":12771,"ब्यूरो":12772,"मान्यताओं":12773,"विस्मयकारी":12774,"जीवाणुओं":12775,"रूपांतरित":12776,"चिरस्थायी":12777,"ध्रुव":12778,"सीनेटर":12779,"मोहब्बत":12780,"प्राइवेट":12781,"तड़प":12782,"नानाजी":12783,"मैथ्यू":12784,"इंजिनियर":12785,"आईसीओ":12786,"फ्लाईट्रैप":12787,"झेलनी":12788,"कत्जा":12789,"मित्राविन्दा":12790,"शाबाश":12791,"फेफड़े":12792,"रोगाणुओं":12793,"गवाहों":12794,"सरासर":12795,"मानिए":12796,"रेवती":12797,"सियोल":12798,"क्रैश":12799,"रिज़र्व":12800,"चिंगारी":12801,"चुटकु":12802,"कृत्यों":12803,"इन्तजार":12804,"फ़िल्में":12805,"उद्घोषकः":12806,"नुस्खे":12807,"अंगुठेबाजी":12808,"खटखटाया":12809,"अहंकार":12810,"ईंटें":12811,"एनीमेशन":12812,"चरागाह":12813,"तस्करी":12814,"बटुआ":12815,"दिवालियापन":12816,"श्रद्धांजलि":12817,"फ़ोटोग्रा":12818,"ब्राउज़र":12819,"हाइपरलिंक":12820,"अपरिहार":12821,"एरिका":12822,"ऑप्टिकल":12823,"थूक":12824,"मेकअप":12825,"दुगुनी":12826,"बारूद":12827,"ज्योकी":12828,"उड़ेगा":12829,"एथेंस":12830,"बहिष्कृत":12831,"स्किप":12832,"मुठभेड़":12833,"दुबई":12834,"रिलीज":12835,"सर्वाधिक":12836,"अतुल्य":12837,"गट्ठर":12838,"धूमकेतु":12839,"पारेषण":12840,"मखौल":12841,"किरदार":12842,"फ़्यूरी":12843,"ख़ामोशी":12844,"हस्तांतरण":12845,"अक्यूमन":12846,"अल्लाह":12847,"उम्दा":12848,"उस्ताद":12849,"केनेमा":12850,"सेक्रेटरी":12851,"क्वार्टर":12852,"विकिपीडिया":12853,"विंडोज़":12854,"संरेखण":12855,"सियरा":12856,"मानकीकृत":12857,"दुल्हन":12858,"पीढियों":12859,"बुधवार":12860,"भोजनालय":12861,"गोलार्द्ध":12862,"आनुवंशिकी":12863,"अग्निशमन":12864,"अफ़ीम":12865,"कंधों":12866,"झपकते":12867,"बहिन":12868,"सेलुलर":12869,"कीटनाशक":12870,"होलोवे":12871,"सिंगापुर":12872,"दोस्ताना":12873,"उत्पीडन":12874,"निर्वाचित":12875,"असेंबली":12876,"दूरदर्शिता":12877,"प्रोफ़ेसर":12878,"समानुभूति":12879,"अल्टोस":12880,"इंडियन":12881,"एस्बेस्टस":12882,"बांग्लादेश":12883,"ओलंपिक":12884,"खलिहान":12885,"तंदुरुस्त":12886,"नरायमा":12887,"बलूत":12888,"यहोवा":12889,"रफ्तार":12890,"समैन्":12891,"सहूलियत":12892,"हैमिलटन":12893,"हांगकांग":12894,"स्म्रुति":12895,"मुम्बई":12896,"विक्सित":12897,"नीदरलैंड":12898,"निषिद्ध":12899,"दिसम्बर":12900,"संदेहास्पद":12901,"फ़ैरल":12902,"दुरुपयोग":12903,"महफ़ूज़":12904,"शुक्राणु":12905,"हेपेटाइटिस":12906,"लैस्ज़लो":12907,"महाकायता":12908,"कार्लाइल":12909,"नाइज़ेशन":12910,"एलिय्याह":12911,"ँश":12912,"ंकार्ड":12913,"अठ":12914,"अमि":12915,"अली":12916,"अमन":12917,"अद्य":12918,"असुरक्षा":12919,"अव्यवस्था":12920,"अटै":12921,"अमाने":12922,"अशांति":12923,"असुविधा":12924,"अमिता":12925,"असम्भव":12926,"असंख्य":12927,"अस्वीकृति":12928,"अपरिवर्तनीय":12929,"अकाउंट":12930,"आफ":12931,"आनि":12932,"आटा":12933,"आयर":12934,"आरोग":12935,"आलिंग":12936,"आजीविका":12937,"आवेग":12938,"आंगन":12939,"आविष्कारों":12940,"इक्की":12941,"ईंटों":12942,"उत":12943,"उदो":12944,"उष्":12945,"उभरने":12946,"ऊर्":12947,"ऊगा":12948,"ऍफ़":12949,"एप":12950,"एथे":12951,"एप्":12952,"एवन":12953,"ऐक":12954,"ऐश":12955,"ऐंड":12956,"ऐप्स":12957,"ऑडि":12958,"ओः":12959,"ओक":12960,"ओहो":12961,"ओर्":12962,"ओये":12963,"ओलू":12964,"ओइड":12965,"कया":12966,"कमि":12967,"कदा":12968,"कली":12969,"कटे":12970,"कडी":12971,"कटि":12972,"कसाई":12973,"कस्टम":12974,"खदान":12975,"खलन":12976,"गप":12977,"गित":12978,"गमन":12979,"गन्दा":12980,"घरा":12981,"घटी":12982,"घनिष्ठ":12983,"चँ":12984,"चॉ":12985,"चड़":12986,"चचा":12987,"चंद":12988,"चक्का":12989,"चपेट":12990,"चम्म":12991,"छड़":12992,"छतें":12993,"जया":12994,"जलाया":12995,"जवेल्ट":12996,"जमानत":12997,"झूल":12998,"टनी":12999,"टकों":13000,"टेंट":13001,"ट्यु":13002,"डक":13003,"डटे":13004,"ड्री":13005,"डंक":13006,"ढलाई":13007,"ढलान":13008,"तवा":13009,"तमी":13010,"थें":13011,"थार":13012,"दरी":13013,"दफा":13014,"धयन":13015,"नगा":13016,"नब्":13017,"नफोर्ड":13018,"पब":13019,"पटल":13020,"पन्ना":13021,"पक्के":13022,"फसे":13023,"फिन":13024,"बहूँ":13025,"बंट":13026,"बखूबी":13027,"भगा":13028,"भगो":13029,"भोर":13030,"भ्यास":13031,"मग":13032,"मच":13033,"मठ":13034,"मत्":13035,"मरू":13036,"मशा":13037,"मद्":13038,"मलता":13039,"मचान":13040,"मक्का":13041,"यश":13042,"रई":13043,"रची":13044,"रहोगी":13045,"रसाय":13046,"रत्न":13047,"लह":13048,"लहरी":13049,"शः":13050,"श्रा":13051,"शमन":13052,"शस्त्रा":13053,"सः":13054,"सचाई":13055,"सकीय":13056,"समेट":13057,"सहेली":13058,"सफ़ाई":13059,"हड":13060,"हट्टन":13061,"ुला":13062,"ेयर":13063,"ॉट":13064,"ोम":13065,"ौहार":13066,"ौकिक":13067,"्ष्टि":13068,"्गानिस्तान":13069,"२९":13070,"३२":13071,"३३":13072,"६१":13073,"६५":13074,"८५":13075,"हैनी":13076,"केड":13077,"केसे":13078,"केयर":13079,"केस्ट्रा":13080,"यासीन":13081,"नेस्":13082,"सेठ":13083,"सेव":13084,"सेन्":13085,"सेज़":13086,"सेक्टर":13087,"ारिक":13088,"करदिया":13089,"कररहेहैं":13090,"किधर":13091,"ताल्":13092,"तादाद":13093,"ताइवान":13094,"औरतो":13095,"औरवह":13096,"नापा":13097,"नाटा":13098,"नामो":13099,"कोरल":13100,"कोल्टन":13101,"कोणीय":13102,"काठी":13103,"काओं":13104,"कास्ट":13105,"हैंडल":13106,"क्लीन":13107,"क्वें":13108,"क्खम":13109,"मैके":13110,"मैड्":13111,"मैट्रिक्स":13112,"हाव":13113,"हानी":13114,"हाजि":13115,"हाशि":13116,"मैंमैं":13117,"स्ड":13118,"स्के":13119,"स्ला":13120,"स्मा":13121,"स्क्री":13122,"स्खलन":13123,"एकलौ":13124,"होग":13125,"होतें":13126,"होशिया":13127,"होऊंगा":13128,"होगें":13129,"लिबर्":13130,"लिटिल":13131,"साउ":13132,"साशा":13133,"सात्मक":13134,"हमार":13135,"हमएक":13136,"आपा":13137,"आप्":13138,"र्फ":13139,"र्ना":13140,"र्ध्य":13141,"जागा":13142,"जानिक":13143,"जातें":13144,"जांए":13145,"वाचक":13146,"वायदा":13147,"लेटे":13148,"लेखों":13149,"लेस्टर":13150,"परः":13151,"परवाही":13152,"परमिट":13153,"लायें":13154,"लाटरी":13155,"लापरवाही":13156,"माली":13157,"मांगे":13158,"्यसिंथ":13159,"देस":13160,"मेलि":13161,"मेगा":13162,"मेरु":13163,"मेथिय":13164,"तुमे":13165,"मुल":13166,"मुक्के":13167,"रहिए":13168,"विता":13169,"विनी":13170,"विन्":13171,"विंड":13172,"विस्ट":13173,"विधे":13174,"विध्":13175,"विहीन":13176,"विनियमित":13177,"विशुद्ध":13178,"प्रवक्ता":13179,"प्रसंस्करण":13180,"थाई":13181,"थामे":13182,"इसन":13183,"इस्रा":13184,"राणी":13185,"राबर्ट":13186,"हुकुम":13187,"बाढ":13188,"बास":13189,"बाहें":13190,"बांह":13191,"नीरिंग":13192,"निए":13193,"निये":13194,"नियुक्त":13195,"निएल":13196,"नियोजन":13197,"गाज़ा":13198,"येह":13199,"तीर्थ":13200,"रेप":13201,"अपेक्षित":13202,"मुझपे":13203,"सीसा":13204,"सीसी":13205,"दिआ":13206,"दिता":13207,"दिग्":13208,"रील":13209,"रीटा":13210,"तोडा":13211,"जोडा":13212,"जोडी":13213,"जोअा":13214,"पाट":13215,"पाथ":13216,"पावर":13217,"पास्ता":13218,"पालना":13219,"क्यातुम":13220,"कुंग":13221,"कुलीन":13222,"कुंव":13223,"कुटु":13224,"मिको":13225,"मिजा":13226,"मिस्ट्री":13227,"कारखाना":13228,"ज़ै":13229,"ज़हर":13230,"ज़बान":13231,"ज़ोन":13232,"ज़बला":13233,"समंदर":13234,"समरूपता":13235,"संल":13236,"संप्रभु":13237,"संग्रहण":13238,"संविधान":13239,"संभल":13240,"त्ज़":13241,"त्वरण":13242,"जिंद":13243,"जिल्स":13244,"जिटिव":13245,"दास्त":13246,"दाखिला":13247,"दालान":13248,"लीज़ा":13249,"वेत्ता":13250,"वेल्ड":13251,"वेस्टा":13252,"च्चा":13253,"रूजवेल्ट":13254,"शाफ्ट":13255,"चाहत":13256,"लगो":13257,"अपनेआप":13258,"जीतना":13259,"करनेसे":13260,"भाइ":13261,"भाड़े":13262,"भाज्य":13263,"बहुता":13264,"गेम्स":13265,"सबो":13266,"कियाः":13267,"कियागया":13268,"हेंगर":13269,"हरगि":13270,"ल्हा":13271,"ल्ज़":13272,"ल्वे":13273,"ल्ट्स":13274,"ल्ड्स":13275,"सुम":13276,"सुखाना":13277,"सुलिन":13278,"सुकून":13279,"स्तू":13280,"सिता":13281,"सिविल":13282,"सिल्क":13283,"सिलिकॉ":13284,"किनार":13285,"श्मिट":13286,"खानी":13287,"खाये":13288,"खास्त":13289,"खाएं":13290,"खातों":13291,"खांसी":13292,"तुम्हीं":13293,"फ़्रे":13294,"फ़र्श":13295,"फ़कीर":13296,"बेले":13297,"बेक्यू":13298,"मीट":13299,"मीसा":13300,"ंगु":13301,"ंगार":13302,"उन्के":13303,"उन्मूल":13304,"उन्मादी":13305,"त्रो":13306,"मानस":13307,"मानचित्रण":13308,"सोसाइ":13309,"कहाः":13310,"्टा":13311,"दूसर":13312,"शियम":13313,"पताहै":13314,"रोच":13315,"रोष":13316,"रोके":13317,"रोकी":13318,"रोती":13319,"रोबी":13320,"रोजर":13321,"रोपित":13322,"रोमां":13323,"रोटियाँ":13324,"बिच":13325,"बिन्स":13326,"बीफ":13327,"बीटा":13328,"बीजिंग":13329,"कहनी":13330,"कहलाता":13331,"महि":13332,"टीः":13333,"टीले":13334,"टींग":13335,"टेनिस":13336,"पियों":13337,"पियो":13338,"पिंड":13339,"पिस्ट":13340,"पिल्स":13341,"ढ़क":13342,"मतदाताओं":13343,"पुट":13344,"पुलि":13345,"पुरी":13346,"पुस्ति":13347,"पुकारा":13348,"पुताई":13349,"कम्यू":13350,"शुर":13351,"टाँग":13352,"टाइसन":13353,"रुख":13354,"रुत्":13355,"पीए":13356,"पीडी":13357,"पीएस":13358,"पीएचडी":13359,"सरंच":13360,"डालिये":13361,"डांस":13362,"डाक्टर":13363,"डालोगे":13364,"परिधान":13365,"परिस्तिथि":13366,"परित्याग":13367,"परिपेक्ष":13368,"व्यस्क":13369,"व्यक्ती":13370,"जिसपर":13371,"रिश":13372,"रिक्ति":13373,"सालय":13374,"वर्ना":13375,"सूछ":13376,"सून":13377,"सूअरों":13378,"सूर्या":13379,"देशीय":13380,"म्बी":13381,"म्म्म":13382,"होताहै":13383,"चिथ":13384,"चिमनी":13385,"चुनी":13386,"प्रतिमान":13387,"प्रतिशोध":13388,"प्रतिकूल":13389,"प्रतिभागियों":13390,"बदकिस्मती":13391,"बारबेक्यू":13392,"अंजान":13393,"अनुसूची":13394,"अनुमानित":13395,"जीवविज्ञान":13396,"उपजाऊ":13397,"उपहास":13398,"बोय":13399,"बोर्न":13400,"हुआंग":13401,"लगाएँ":13402,"बुर्":13403,"पेरी":13404,"पेक्षता":13405,"युरोप":13406,"स्थगित":13407,"ब्ध":13408,"ब्लो":13409,"स्थाई":13410,"हिये":13411,"हियों":13412,"हिली":13413,"हिलता":13414,"हिलाने":13415,"हिलने":13416,"हिंदी":13417,"हिग्स":13418,"मारोगे":13419,"डिलैक":13420,"स्टर्स":13421,"स्टर्ड":13422,"पैलेस":13423,"वरन":13424,"वरदान":13425,"खोदना":13426,"कैसर":13427,"कैडिलैक":13428,"जेसी":13429,"जेरिया":13430,"जेलीन":13431,"जेफर":13432,"जेनिस":13433,"हेर":13434,"हेहे":13435,"हेन्द्री":13436,"गुआ":13437,"गुजार":13438,"गुप्ता":13439,"गुंडे":13440,"करोडो":13441,"धानिक":13442,"इंसाइट":13443,"दूसरो":13444,"बैनर":13445,"बैरल":13446,"वादक":13447,"दर्स":13448,"बढ़ई":13449,"बढ़िए":13450,"खेर":13451,"लबम":13452,"टिड":13453,"मोनी":13454,"मोबी":13455,"मोशन":13456,"मोर्स":13457,"मोहक":13458,"मोहम्मद":13459,"गोबर":13460,"गोश्त":13461,"डेड":13462,"डेला":13463,"पहुचना":13464,"दिखावा":13465,"दिखानी":13466,"दिखाऊँगी":13467,"प्राणा":13468,"वैचारिक":13469,"वैधानिक":13470,"अपनाते":13471,"मरता":13472,"असैनिक":13473,"फोर्ट":13474,"यादार":13475,"समाप्ति":13476,"छोड़ती":13477,"भवनों":13478,"कौआ":13479,"ग्रें":13480,"साम्य":13481,"सामन्य":13482,"सामयिक":13483,"नोस":13484,"फीर":13485,"फीते":13486,"कंटेनर":13487,"पोर्क":13488,"पोरल":13489,"स्वं":13490,"स्वलीन":13491,"टोक":13492,"टोल":13493,"छाँ":13494,"छायादार":13495,"जुब":13496,"जुर्म":13497,"्यूला":13498,"कॉलर":13499,"कॉप्टर":13500,"डॉक":13501,"भूकं":13502,"यारों":13503,"खुदको":13504,"थोलिक":13505,"लैण्ड":13506,"त्यौहार":13507,"कुलस":13508,"बीच़":13509,"जूलिया":13510,"जूनून":13511,"विषै":13512,"ख़तरा":13513,"ख़मीसा":13514,"सम्पन्न":13515,"क्सटन":13516,"बर्नार्ड":13517,"नियमो":13518,"द्रु":13519,"ज़ाइ":13520,"ज़ानिया":13521,"महाशक्ति":13522,"महाशय":13523,"खेलेंगे":13524,"स्पॉट":13525,"बंधी":13526,"बंधीय":13527,"सैट":13528,"फाइट":13529,"शोषित":13530,"सर्किट":13531,"ब्रौन":13532,"फिदा":13533,"क़ै":13534,"क़दम":13535,"गतिरोध":13536,"बैठकें":13537,"खिताब":13538,"सुनाया":13539,"सुनाती":13540,"तनख्वाह":13541,"झांक":13542,"न्नति":13543,"न्यूज":13544,"न्यूक्लि":13545,"बूढा":13546,"घटने":13547,"चित्रकार":13548,"योजनाएँ":13549,"योजनाबद्ध":13550,"साइकल":13551,"साइटों":13552,"साइकिलों":13553,"फेजेलीन":13554,"इन्ही":13555,"इन्द्र":13556,"फैटोप्लान्कटन":13557,"रियाँ":13558,"प्रोटॉन":13559,"प्रोमेथिय":13560,"मार्को":13561,"चोदा":13562,"उठाती":13563,"बचकाना":13564,"जायज़":13565,"रोकते":13566,"सौम्य":13567,"आवासीय":13568,"विशेषतः":13569,"गिरते":13570,"हवाओं":13571,"कराता":13572,"क्यूक्सो":13573,"जवानों":13574,"ग्वेन":13575,"ढालने":13576,"नेटिक":13577,"रणदेव":13578,"श्रंखला":13579,"पराजित":13580,"खिलाने":13581,"हराना":13582,"वृत":13583,"वृति":13584,"मुश्किलों":13585,"महानता":13586,"बॉट":13587,"बॉलीवुड":13588,"प्रणालियाँ":13589,"ऊँचाई":13590,"ऊँगली":13591,"अध्यन":13592,"पूर्ववत":13593,"नरभ":13594,"चिकित्सालय":13595,"ड्रेंट":13596,"रॉयल":13597,"वास्तविकताओं":13598,"पकड़ते":13599,"ग्रीयर":13600,"वायुगति":13601,"अन्तिम":13602,"गर्वित":13603,"रचनात्मक्ता":13604,"कोशिकायेँ":13605,"अभिव्यक्त":13606,"भाग्यवश":13607,"गरीबो":13608,"जरलैंड":13609,"फ़ील्ड":13610,"बुलाती":13611,"दुर्बल":13612,"दुर्दशा":13613,"बदलावों":13614,"आंसुओं":13615,"व्यवस्थाएं":13616,"मिलीं":13617,"निकलती":13618,"बढ़ाएंगे":13619,"इलाका":13620,"खुशहाली":13621,"राष्ट्रिय":13622,"एंडर्सनः":13623,"चिंताजनक":13624,"२०१७":13625,"अस्सी":13626,"पत्रकारों":13627,"अलमारी":13628,"अलबामा":13629,"दरवाज़ों":13630,"पक्षपाती":13631,"धुँ":13632,"शर्ते":13633,"मुख्यमंत्री":13634,"उत्तरजीवी":13635,"अक्ल":13636,"ब्रागा":13637,"निकालेंगे":13638,"बच्चाः":13639,"उड़ानों":13640,"अफ़ेयर":13641,"अफ़्गानिस्तान":13642,"धोते":13643,"समर्थित":13644,"फ्टवेयर":13645,"पोर्टलैंड":13646,"जातियों":13647,"इंटरैक्":13648,"वस्तुएँ":13649,"मैनहट्टन":13650,"ट्रेडिंग":13651,"मशीनरी":13652,"चौरा":13653,"गोलीबारी":13654,"सातवीं":13655,"तितलियों":13656,"हिरन":13657,"बढो":13658,"बढेंगे":13659,"निकास":13660,"प्रतिक्रियाशील":13661,"आकारों":13662,"आत्मिक":13663,"ग़ज़":13664,"ग़ज़ब":13665,"विशालता":13666,"प्लांट":13667,"प्लावक":13668,"प्लास्मा":13669,"फ़िल":13670,"फ़िट्ज़पैट्रिक":13671,"आवाजः":13672,"आवाजें":13673,"उल्टे":13674,"ड्रायर":13675,"इच्छाओं":13676,"नैन्सी":13677,"नैरोबी":13678,"अतिक्रमण":13679,"टैब":13680,"टैक्":13681,"मर्सि":13682,"मर्दाने":13683,"मार्गरेट":13684,"तलाक़":13685,"हथकड़ी":13686,"वॉटर":13687,"उद्घाटन":13688,"माफिया":13689,"खींचती":13690,"फ्रिज":13691,"चिल्लाया":13692,"पर्यावरणीय":13693,"आत्मबोध":13694,"बन्ध":13695,"कृतज्ञ":13696,"संघर्षों":13697,"छिप":13698,"छिपाना":13699,"एलः":13700,"उठकर":13701,"उठते":13702,"करूणा":13703,"अल्गोरि":13704,"मंज़िल":13705,"बहादूर":13706,"कंडोम":13707,"मित्रता":13708,"कहतीं":13709,"सॉसेज":13710,"हथियाने":13711,"सेंट्रल":13712,"सिद्धान्तों":13713,"मज़ाक़":13714,"फ़्लै":13715,"फ़्लाइट":13716,"फ़्लोर":13717,"घूमती":13718,"वक्तव्य":13719,"ट्राइए":13720,"रैप":13721,"रैंक":13722,"रैक्खम":13723,"बिताता":13724,"सुपरहीरो":13725,"पहनती":13726,"महोल":13727,"कारावास":13728,"अर्जी":13729,"अर्ज़ी":13730,"वायरलेस":13731,"शांतिप्रिय":13732,"स्टीवन":13733,"न्द्रीय":13734,"पार्टियों":13735,"गार्ट":13736,"धर्मनिर":13737,"माइने":13738,"मृतकों":13739,"उपलब्धता":13740,"२००१":13741,"२००३":13742,"फ़ेसबुक":13743,"ब्रेकर":13744,"ब्रेकिंग":13745,"दुश्मनी":13746,"ढेला":13747,"पहाड़ियों":13748,"विस्फ़ोट":13749,"झुकता":13750,"झुर्र":13751,"सांप":13752,"सांत्वना":13753,"चुराने":13754,"नागरिकता":13755,"हितों":13756,"ख़ाने":13757,"सुझाया":13758,"जागने":13759,"कहोगे":13760,"दबाते":13761,"दर्शको":13762,"विस्तारित":13763,"लडके":13764,"प्रिंस":13765,"कांक्षी":13766,"कांफ्रेंस":13767,"उलमन":13768,"सर्वनाश":13769,"चमड़ी":13770,"हांकविलियम्स":13771,"गिराना":13772,"फ्रांक":13773,"बद्धता":13774,"प्रतिभावान":13775,"चैन":13776,"टर्बाइन":13777,"टर्मिनल":13778,"फुटबाल":13779,"यौगिक":13780,"निरर्थ":13781,"ब्लॉकों":13782,"करुँगा":13783,"करुणामय":13784,"किस्सा":13785,"हाईस्कूल":13786,"हाईड्रेंट":13787,"पतले":13788,"नन्क्राफ्ट":13789,"सूचीबद्ध":13790,"एल्विस":13791,"नितंब":13792,"चिन्हित":13793,"अप्रवासी":13794,"जुड़वाँ":13795,"जुड़वां":13796,"शिकाय":13797,"बदलेगी":13798,"दैर्ध्य":13799,"बिकने":13800,"व्रु":13801,"शुक्रगुज़ार":13802,"नवम्बर":13803,"दोहराता":13804,"दोहराना":13805,"सूटकेस":13806,"स्टारबोर्ड":13807,"इंगलैंड":13808,"उड़ते":13809,"उतारने":13810,"गुज़रना":13811,"सैनटिनो":13812,"कथानक":13813,"रोजर्स":13814,"अवस्थाओं":13815,"अध्यक्षता":13816,"गार्जियन":13817,"चक्रों":13818,"चरणों":13819,"अंतर्विरोध":13820,"सजावट":13821,"स्टालिन":13822,"टेलीपोर्":13823,"मोड़ो":13824,"घिरी":13825,"ठोड़ी":13826,"तालमेल":13827,"आन्दोलनों":13828,"पूंजीवादी":13829,"निराशावादी":13830,"चालकहीन":13831,"जीतेगा":13832,"पहेले":13833,"पहेलियों":13834,"प्रेरणादायक":13835,"टेक्नॉ":13836,"उद्यान":13837,"समीप":13838,"उत्सुकता":13839,"एलिवेटर":13840,"मंदबुद्धि":13841,"छोडने":13842,"सादगी":13843,"फिलहाल":13844,"माइक्रोफोन":13845,"माइक्रोवेव":13846,"पसीने":13847,"तैरने":13848,"घुसना":13849,"आकृतियाँ":13850,"मसलन":13851,"दुरबीन":13852,"गुजरता":13853,"गुजरती":13854,"धाराओं":13855,"यूनियन":13856,"मेजबानी":13857,"रुचिकर":13858,"कॉर्टेक्स":13859,"खंडन":13860,"टकराने":13861,"डब्लू":13862,"आविष्कारक":13863,"सृ्ष्टि":13864,"त्रुटियों":13865,"एल्गोरिथम":13866,"फ़्रांसिस्को":13867,"शेयरधारकों":13868,"एंटीबॉडी":13869,"दफनाया":13870,"प्रचारक":13871,"जोडने":13872,"पंक्तियाँ":13873,"नॉर्":13874,"विद्यमान":13875,"घुमाओ":13876,"घबराओ":13877,"घबराते":13878,"कैरिबियन":13879,"पहुचेंगे":13880,"मुस्कुराना":13881,"चमत्कारिक":13882,"ंसीसी":13883,"मच्छरदा":13884,"ऑपरेटर":13885,"मधुर":13886,"हन्नाः":13887,"स्टियन":13888,"खिलौनों":13889,"डूबने":13890,"हनन":13891,"टीकाकरण":13892,"अटके":13893,"ओवरराइड":13894,"ओवरडोज़":13895,"नर्सिंग":13896,"अदृश्यता":13897,"आइसो":13898,"आलोचक":13899,"क्लोनिंग":13900,"पहनावा":13901,"ट्रॉय":13902,"थैली":13903,"स्पैनिश":13904,"बांये":13905,"तालीयां":13906,"पात्रता":13907,"पात्रों":13908,"पुर्ण":13909,"चिपकाने":13910,"कवरेज":13911,"स्थानांतरण":13912,"बैंग्टा":13913,"मुर्गा":13914,"पैकेजिंग":13915,"कस्बों":13916,"अवधारणाओं":13917,"खरबों":13918,"ऐंबुलेंस":13919,"घूमें":13920,"दाहिनी":13921,"फ्लोयड":13922,"वर्गीय":13923,"गुफाओं":13924,"गोलाकार":13925,"विशेषताएँ":13926,"अनाथालयों":13927,"मक्खियाँ":13928,"उद्धरण":13929,"परोपकारिता":13930,"कर्तव्यों":13931,"अल्पकालिक":13932,"घूरना":13933,"माईनन्क्राफ्ट":13934,"बाइबिल":13935,"हेलीकॉप्टर":13936,"सार्वजानिक":13937,"बुजुर्गों":13938,"तात्कालि":13939,"नाचने":13940,"निरीक्षक":13941,"तकलीफ़":13942,"एलिजाबेथः":13943,"विफलताओं":13944,"पर्वतार":13945,"अन्वेषक":13946,"अख़बारों":13947,"अाप":13948,"प्रतिद्वंदी":13949,"भद्दे":13950,"काँटे":13951,"बास्किन":13952,"जुडाव":13953,"जटिलताओं":13954,"प्रारम्भिक":13955,"पुरूषों":13956,"नगदी":13957,"दौडने":13958,"कार्टूनिस्टों":13959,"इलेक्ट्रॉनिक्स":13960,"आएँगी":13961,"गौतम":13962,"गेट्सः":13963,"मोमबत्ती":13964,"शेरिल":13965,"सौंपने":13966,"झोपड़ी":13967,"प्रत्याशा":13968,"अधूरी":13969,"गोताखो":13970,"फिल्में":13971,"त्रुटिहीन":13972,"कश्मीर":13973,"झुकना":13974,"किताबो":13975,"पादरी":13976,"टेलिस्कोप":13977,"इंजिनीरिंग":13978,"पोलिओ":13979,"आईसीयू":13980,"उर्दू":13981,"कत्ल":13982,"दाराना":13983,"संश्लेषण":13984,"गुनगुना":13985,"डेनवर":13986,"फेरबदल":13987,"अँग्रेज़ी":13988,"पुर्तगाल":13989,"इक्विटी":13990,"उंटेन":13991,"कड़ाई":13992,"चुटकी":13993,"अनुपस्थिति":13994,"इन्तज़ार":13995,"परामर्शदाता":13996,"उद्घोषक":13997,"अहाब":13998,"होँने":13999,"अप्पु":14000,"रिवाज":14001,"ब्लैंकार्ड":14002,"गोल्डन":14003,"भित्तियां":14004,"नुस्खा":14005,"यथास्थिति":14006,"मैगज़ीन":14007,"लिहाज़ा":14008,"ग्रंथि":14009,"चरवाहा":14010,"चरवाहे":14011,"अफ़्रीकन":14012,"फ़ॉर्म्यूला":14013,"प्रतिद्वंद्वी":14014,"केमिकल":14015,"कोलोराडो":14016,"विद्वान":14017,"पुरातन":14018,"व्हिडीओ":14019,"शैतानों":14020,"मुस्कराहट":14021,"रेंजरों":14022,"टिप्पणियों":14023,"आर्कटिक":14024,"चखने":14025,"मंगो":14026,"सेटिंग्स":14027,"काॅपी":14028,"जावेद":14029,"कामकाजी":14030,"अनुवांशिक":14031,"व्याकुलता":14032,"क़ब्ज़े":14033,"फ़िलिपींस":14034,"झुग्गी":14035,"घिनौना":14036,"हाइड्रोजन":14037,"आकड़े":14038,"फर्नीचर":14039,"रसीद":14040,"लबादा":14041,"हह्यसिंथ":14042,"जाँघ":14043,"मुआवज़ा":14044,"हांलांकि":14045,"फिंगर":14046,"खिडकी":14047,"झाँक":14048,"अफ्रीकन":14049,"नैपकिन":14050,"चैतन्यता":14051,"संश्लेषित":14052,"झंकार":14053,"बद्लाव":14054,"किन्ही":14055,"चाहुंगी":14056,"सिआलिक":14057,"बिस्कुट":14058,"अध्धयन":14059,"टेरेसा":14060,"गुर्दे":14061,"सम्मोहन":14062,"घोटाले":14063,"ओडिसी":14064,"चयापचय":14065,"दफ़्तर":14066,"लॊग":14067,"स्फूर्ति":14068,"संजीदा":14069,"जिस्मानी":14070,"मानदंडों":14071,"चुम्बकीय":14072,"उपनगरों":14073,"डिझाईन":14074,"सैद्धांतिक":14075,"शब्दावली":14076,"चिंपांजियों":14077,"हथौड़ा":14078,"अल्पसंख्यक":14079,"बुदबुदाते":14080,"गम्भीर":14081,"घमंडी":14082,"चकोतरे":14083,"पदोन्नति":14084,"पंडित":14085,"लार्स":14086,"मैल्कॉम":14087,"वांछित":14088,"विटामिन":14089,"प्रक्षेपवक्र":14090,"थायराइड":14091,"समलैंगिकों":14092,"संगरोध":14093,"संपर्कों":14094,"फ़िनर्टी":14095,"महत्तवपूर्ण":14096,"रिजर्व":14097,"चिँपाँजी":14098,"पेट्रोलियम":14099,"उत्तराधिकारी":14100,"मोहिनी":14101,"फीडबैक":14102,"लुत्फ़":14103,"ट्रेडमिल":14104,"बेवक़ूफ़":14105,"थ्योरी":14106,"अल्झायमर":14107,"सर्वसम्मति":14108,"सब्जियां":14109,"स्पिनोसॉ":14110,"अठारह":14111,"अद्यतन":14112,"अमिताभ":14113,"आरोग्य":14114,"आलिंगन":14115,"इक्कीसवी":14116,"कटिबंधीय":14117,"गपशप":14118,"चम्मच":14119,"बहूँत":14120,"मद्दे":14121,"रसायनों":14122,"शस्त्रागार":14123,"ताल्लुक":14124,"मैड्लिन":14125,"होशियारी":14126,"लिबर्टी":14127,"विधेयक":14128,"विध्वं":14129,"जोअान्न":14130,"ज़बलाज़ा":14131,"वेस्टास":14132,"हरगिज़":14133,"सिलिकॉन":14134,"उन्मूलन":14135,"सोसाइटी":14136,"रोमांचित":14137,"पुस्तिका":14138,"सरंचना":14139,"जेफरसन":14140,"प्रोमेथियस":14141,"इंटरैक्टिव":14142,"ट्राइएज":14143,"टेलीपोर्टेशन":14144,"तात्कालिकता":14145,"ँति":14146,"ंके":14147,"ंटो":14148,"ंबू":14149,"ः३०":14150,"अयो":14151,"अवर":14152,"अक्षा":14153,"अक्त":14154,"अछे":14155,"अस्वी":14156,"अविश्वास":14157,"अज्ञान":14158,"अन्न":14159,"अकरा":14160,"अछि":14161,"अप्रभावी":14162,"अमज":14163,"असंतुलन":14164,"अप्रासंगिक":14165,"अकसर":14166,"असंतोष":14167,"अजेय":14168,"आके":14169,"आड़":14170,"आयन":14171,"आटो":14172,"आइट":14173,"आक्रा":14174,"आगाह":14175,"आवेक्षण":14176,"आस्ट्रेलिया":14177,"इया":14178,"इज़":14179,"इयर":14180,"इफा":14181,"इयां":14182,"इस्त्री":14183,"ईवा":14184,"ईटी":14185,"ईसीडी":14186,"उस्":14187,"उखा":14188,"उफ़":14189,"उमी":14190,"उप्":14191,"उगल":14192,"उधे":14193,"उड्":14194,"उल्ला":14195,"उगाने":14196,"ऊंट":14197,"ऋणात्मक":14198,"एर":14199,"एसो":14200,"एरो":14201,"एवर":14202,"एलिस":14203,"एटल":14204,"एलियों":14205,"एलियन":14206,"एएच":14207,"एड्रे":14208,"एयरो":14209,"ऐस":14210,"ऐस्ट्रि":14211,"ऑट":14212,"ऑस्कर":14213,"ओउ":14214,"ओटा":14215,"ओवल":14216,"ओलम्":14217,"ओईसीडी":14218,"कवा":14219,"कमे":14220,"कठी":14221,"कपास":14222,"कशे":14223,"कत्ता":14224,"कवक":14225,"कइयों":14226,"खन":14227,"खड़":14228,"खरे":14229,"खारी":14230,"खजूर":14231,"गवर्":14232,"गब्":14233,"गियाँ":14234,"चढ":14235,"चें":14236,"च्य":14237,"चस्व":14238,"चहरे":14239,"चकमा":14240,"छै":14241,"छपा":14242,"छबी":14243,"छपी":14244,"जड":14245,"जती":14246,"जतन":14247,"झिल":14248,"टच":14249,"टला":14250,"टूल":14251,"ठण्":14252,"डग":14253,"डना":14254,"डविच":14255,"ढकी":14256,"तव":14257,"तस":14258,"तकी":14259,"तमिल":14260,"तनो":14261,"तख्":14262,"थमा":14263,"थनी":14264,"थकान":14265,"दली":14266,"द्यालय":14267,"धना":14268,"धवल":14269,"धरात":14270,"नपु":14271,"नक्षा":14272,"नक्षे":14273,"नार्थ":14274,"नॉन":14275,"नगण":14276,"पँ":14277,"पॅ":14278,"पदा":14279,"प्यू":14280,"पत्रा":14281,"पटेल":14282,"पछाड़":14283,"फड़":14284,"फड़ा":14285,"फलक":14286,"बकी":14287,"बोग":14288,"बजाता":14289,"बहे":14290,"बजना":14291,"बराम":14292,"बग़":14293,"बतिया":14294,"ब्यु":14295,"बग्स":14296,"बगों":14297,"भट":14298,"भरत":14299,"भक्त":14300,"भत्ता":14301,"मँ":14302,"मॅ":14303,"मता":14304,"मटर":14305,"मध्या":14306,"मकता":14307,"मलिक":14308,"मग्न":14309,"मसाले":14310,"म्यान":14311,"यँ":14312,"यमान":14313,"यिन":14314,"यन्स":14315,"रकम":14316,"र्रे":14317,"रमो":14318,"रंजी":14319,"रसद":14320,"रसायनिक":14321,"रसूख":14322,"लार":14323,"लरी":14324,"लफ्":14325,"लमैन":14326,"लपट":14327,"वध":14328,"वक्":14329,"वत्":14330,"वॉन":14331,"वल्ड":14332,"शना":14333,"शन्स":14334,"सलि":14335,"सरो":14336,"सजीव":14337,"सक्त":14338,"सराय":14339,"हः":14340,"हब":14341,"हस्ति":14342,"हनु":14343,"िवि":14344,"िसि":14345,"ियोँ":14346,"ील":14347,"ुआ":14348,"ुंगा":14349,"ुसार":14350,"ूबर":14351,"ेल":14352,"ेश":14353,"ेला":14354,"ेक्स":14355,"ैया":14356,"ॉड":14357,"ॉय":14358,"ौलत":14359,"्वल":14360,"्बर":14361,"्थ्वी":14362,"३४":14363,"३७":14364,"३०००":14365,"४२":14366,"५१":14367,"९५":14368,"हैसियत":14369,"केर":14370,"केला":14371,"केबारे":14372,"केतिक":14373,"केतली":14374,"केरूपमें":14375,"केन्द्रीय":14376,"यायों":14377,"यांत्रिकी":14378,"नेक्ट":14379,"सेः":14380,"सेने":14381,"सेलि":14382,"सेबाहर":14383,"सेशन":14384,"ारन":14385,"ारि":14386,"करसकता":14387,"करनें":14388,"करदाताओं":14389,"किन्स":14390,"किगाली":14391,"किलोग्राम":14392,"तां":14393,"हीटर":14394,"हीलियम":14395,"औरतुम":14396,"औरतः":14397,"्रू":14398,"नाथ":14399,"नाइन":14400,"नाशक":14401,"नापने":14402,"कोन्":14403,"कोड़ा":14404,"कोमल":14405,"कोस्टा":14406,"कोहनी":14407,"कोलंब":14408,"कोरियन":14409,"काकी":14410,"काटी":14411,"काढ़":14412,"काफि":14413,"काबुल":14414,"काग़ज़":14415,"कीले":14416,"कीड़ा":14417,"कीनिया":14418,"क्सर":14419,"क्वॉ":14420,"मैटर":14421,"मैटिक":14422,"मैसेज":14423,"हाथो":14424,"मैंहूँ":14425,"स्किया":14426,"स्थी":14427,"स्लो":14428,"स्मो":14429,"स्वै":14430,"स्नै":14431,"स्लेट":14432,"स्विंग":14433,"स्नू":14434,"स्प्लै":14435,"एकड़":14436,"होन":14437,"होम्स":14438,"लिट":14439,"लिवर":14440,"लियें":14441,"लिंकन":14442,"साल्":14443,"सायद":14444,"सांद्र":14445,"सायरन":14446,"सापेक्षता":14447,"आपऔर":14448,"र्यो":14449,"जामा":14450,"जाकारी":14451,"वाम":14452,"वाे":14453,"वास्":14454,"वादे":14455,"लेप":14456,"लेस्":14457,"लेबा":14458,"लेलो":14459,"परक":14460,"परित":14461,"लाट":14462,"लामा":14463,"लादि":14464,"लाठी":14465,"लापरवाह":14466,"लायेंगे":14467,"लिएएक":14468,"माथ":14469,"माते":14470,"मादा":14471,"मास्क":14472,"्यम":14473,"्यों":14474,"्यंत्र":14475,"देसी":14476,"मेका":14477,"मेक्":14478,"मेज़र":14479,"मेटिक":14480,"मेरस":14481,"मेट्रिक":14482,"तुझ":14483,"मुश":14484,"मुकाम":14485,"मुंडो":14486,"मुकदमों":14487,"मुवक्":14488,"विले":14489,"विये":14490,"विसं":14491,"विनो":14492,"विरों":14493,"विकर्षण":14494,"विन्यास":14495,"विघटित":14496,"विलियम":14497,"विघटन":14498,"प्रोग":14499,"प्रवी":14500,"प्रजाता":14501,"प्रशी":14502,"प्रलय":14503,"प्रहार":14504,"प्रवृत्त":14505,"प्रवचन":14506,"प्रबुद्ध":14507,"प्रैक्":14508,"थाएक":14509,"इसतरह":14510,"रायन":14511,"बाश":14512,"बासित":14513,"बायें":14514,"बांधे":14515,"नीशियम":14516,"नींबू":14517,"निला":14518,"निद्रा":14519,"निन्दा":14520,"निंजा":14521,"निसेला":14522,"चांग":14523,"चात्य":14524,"गाें":14525,"गाता":14526,"गाती":14527,"गात्मक":14528,"तिफा":14529,"सकना":14530,"सकूँगा":14531,"रेका":14532,"रेलगा":14533,"रेटिंग":14534,"रेबियन":14535,"रेशम":14536,"अपॉ":14537,"अपर्या":14538,"अपील":14539,"मुझको":14540,"न्श":14541,"न्क्स":14542,"न्सिल":14543,"सीटों":14544,"सीमेंट":14545,"दिली":14546,"दिव्य":14547,"दिवार":14548,"दिनांक":14549,"रीड":14550,"मुझेबताओ":14551,"जोकी":14552,"जोन्स":14553,"जोसेफ":14554,"पाम":14555,"पाश्":14556,"पांव":14557,"पाइल":14558,"पालने":14559,"पाचन":14560,"पापों":14561,"कुस":14562,"मिर":14563,"मिरा":14564,"मिनी":14565,"मिशि":14566,"मित्व":14567,"मिस्त्री":14568,"उसपे":14569,"ज़बर्":14570,"समताप":14571,"संकर":14572,"संतृ":14573,"संचय":14574,"संचरण":14575,"संघटित":14576,"संघटक":14577,"संपाद":14578,"संन्जा":14579,"संवैधानिक":14580,"त्त्व":14581,"त्तीस":14582,"दात":14583,"दाया":14584,"दामाद":14585,"देखूँ":14586,"देखबाल":14587,"लीं":14588,"लीफ":14589,"लीमो":14590,"क्षय":14591,"क्षकों":14592,"वेनिया":14593,"वेटरी":14594,"शावर":14595,"शान्त":14596,"लगन":14597,"लगि":14598,"जीओ":14599,"जीनी":14600,"जीरो":14601,"जीबी":14602,"जीटल":14603,"जीपीएस":14604,"करनेकी":14605,"बहुमूल्य":14606,"गेहूं":14607,"गेस्ट्रो":14608,"सबल":14609,"जबसे":14610,"जब्बर":14611,"सुध":14612,"सुन्":14613,"सुल्":14614,"सुस्त":14615,"सुसज्":14616,"सुप्री":14617,"सुकन्या":14618,"पूं":14619,"स्तम्भ":14620,"सिन्":14621,"सिरी":14622,"सिमि":14623,"पहनें":14624,"श्ब्":14625,"खांस":14626,"खासियत":14627,"लेकिनमैं":14628,"फ़लता":14629,"फ़ार्म":14630,"बेट":14631,"बेची":14632,"उन्ड":14633,"उन्नी":14634,"उन्मुख":14635,"थेर":14636,"त्रिक":14637,"तरहसे":14638,"ंदों":14639,"वोड":14640,"वोल्":14641,"सोँ":14642,"सोए":14643,"सोर्":14644,"सोये":14645,"सोफ़ा":14646,"कहाकि":14647,"कहानियो":14648,"क्योंकी":14649,"बनाएंगे":14650,"बनाऊँगा":14651,"बनाइये":14652,"जानव":14653,"शिव":14654,"शिला":14655,"शिविरों":14656,"रोये":14657,"रोथी":14658,"रोजाना":14659,"रोशन":14660,"रोलर":14661,"रोल्स":14662,"रोबिन":14663,"गीजर":14664,"कामरेड":14665,"चील":14666,"ियाना":14667,"क्रॉल":14668,"दुनीया":14669,"लोहा":14670,"लोडिंग":14671,"लोटिन":14672,"लोटस":14673,"होगाः":14674,"अनकही":14675,"अनैतिक":14676,"बिमार":14677,"बिखरी":14678,"बिमारियों":14679,"अधी":14680,"बीर":14681,"बीता":14682,"मिलमैन":14683,"टीकों":14684,"वीडिओ":14685,"टेडी":14686,"टेरिया":14687,"टेढ़ी":14688,"टेशनल":14689,"रूपये":14690,"छोटू":14691,"पिए":14692,"पियर":14693,"पिक्चर":14694,"मतदाता":14695,"पुश":14696,"पुष्ट":14697,"पुलों":14698,"कमजो":14699,"शुभार":14700,"टाँ":14701,"टापू":14702,"रुपरेखा":14703,"पीवीसी":14704,"प्ल":14705,"प्लो":14706,"लोगोंने":14707,"डाॅ":14708,"डालिए":14709,"डायर":14710,"परियों":14711,"परिणा":14712,"परिचालन":14713,"परिशुद्धता":14714,"रहीम":14715,"व्यूह":14716,"रिओ":14717,"रिवर":14718,"रियम":14719,"रिहाई":14720,"रिपोर्":14721,"रिच्ची":14722,"सालसे":14723,"वर्स":14724,"वर्गा":14725,"वर्किंग":14726,"वर्धक":14727,"वर्चुअल":14728,"वर्महोल":14729,"वर्चस्व":14730,"सूर्यो":14731,"कैसेट":14732,"करताहै":14733,"म्मा":14734,"म्पियन":14735,"चिन":14736,"चिल":14737,"चिका":14738,"चुभन":14739,"प्रतिव्यक्ति":14740,"बदनामी":14741,"बदतमी":14742,"बदौलत":14743,"ष्टता":14744,"अंतरी":14745,"अंकुर":14746,"अनुशासन":14747,"अनुयाय":14748,"अनुशासित":14749,"अनुगामी":14750,"जीवविज्ञानी":14751,"जीवधारी":14752,"उपज":14753,"उपमा":14754,"ंडम":14755,"बोत":14756,"बोरी":14757,"बोजो":14758,"बोलिंग":14759,"खुर":14760,"खुर्":14761,"खुनी":14762,"बुझ":14763,"बुढ":14764,"पेल":14765,"पेटी":14766,"पेलोड":14767,"पेप्सी":14768,"पेहेन":14769,"युगल":14770,"युग्":14771,"युक्ती":14772,"स्थर":14773,"ज्मा":14774,"ब्लम":14775,"द्धी":14776,"होनेपर":14777,"स्थानो":14778,"स्थापत्य":14779,"हिरा":14780,"हिलो":14781,"हिमाल":14782,"हिलाना":14783,"मारती":14784,"डिग":14785,"डिसार्":14786,"पैरोँ":14787,"खोले":14788,"खोली":14789,"कैली":14790,"कैटरी":14791,"कैरेस":14792,"कैलोरी":14793,"कैरेबियन":14794,"शील्ड":14795,"उत्परिवर्":14796,"जेनि":14797,"हेै":14798,"गुच्छ":14799,"गुंडा":14800,"पसन":14801,"आदतें":14802,"निर्द":14803,"वारत":14804,"वारदात":14805,"कृती":14806,"त्वपूर्ण":14807,"धागा":14808,"धागे":14809,"दूसरोँ":14810,"डीज़":14811,"डीएमः":14812,"दर्जा":14813,"बढ़ेंगे":14814,"टिनम":14815,"मोती":14816,"मोड़े":14817,"मोजे":14818,"मोज़े":14819,"गोरी":14820,"ंत्रि":14821,"डेबी":14822,"डेरि":14823,"डेनिएल":14824,"भगवन":14825,"भगदड़":14826,"शेन":14827,"शेक्स":14828,"शेरील":14829,"दिखाऊंगा":14830,"दिखायेंगे":14831,"नामं":14832,"प्राध्या":14833,"प्राधिकार":14834,"सचमें":14835,"एंजाइ":14836,"एंजिल्स":14837,"चलाए":14838,"चलाकर":14839,"चलाये":14840,"मरथा":14841,"असत्य":14842,"असफ़लता":14843,"मौसी":14844,"समानांतर":14845,"समाकलन":14846,"यरोग":14847,"भागता":14848,"कौम":14849,"ग्रही":14850,"नोरा":14851,"नोबल":14852,"नोआह":14853,"नोवायरस":14854,"तबतक":14855,"फीटी":14856,"कंट्री":14857,"कंगाल":14858,"कंटेट":14859,"कंटेंट":14860,"पोर":14861,"पोती":14862,"पोलैंड":14863,"पोलियो":14864,"हंगे":14865,"हंसमु":14866,"मिलाप":14867,"मिलाते":14868,"जरूरतें":14869,"छांट":14870,"बरसों":14871,"माँसपे":14872,"जुटे":14873,"कॉक":14874,"कॉन":14875,"कॉर्ड":14876,"कॉमरे":14877,"भरण":14878,"भरते":14879,"भरती":14880,"कर्नाटक":14881,"भूला":14882,"भूमी":14883,"भूषा":14884,"दरारों":14885,"आयातित":14886,"हँसा":14887,"दूरदर्शी":14888,"तैये":14889,"मालवाहक":14890,"डरल":14891,"डरकर":14892,"लैन":14893,"लैशी":14894,"क्रियान्वित":14895,"क्रियान्वयन":14896,"प्रेषण":14897,"प्रेषित":14898,"कलकत्ता":14899,"कंप्यू":14900,"स्वाधी":14901,"स्वामित्व":14902,"ख़र्":14903,"सम्म":14904,"अवशोषित":14905,"अव्वल":14906,"बर्न्स":14907,"बर्खास्त":14908,"महत्वहीन":14909,"पकडा":14910,"भिमानी":14911,"भिखारी":14912,"विश्वभर":14913,"भावनाए":14914,"भावनाओ":14915,"जल्लाद":14916,"समुन्दर":14917,"समुराई":14918,"खेलें":14919,"स्पस्ट":14920,"स्पलैशी":14921,"सैलून":14922,"विश्वासघात":14923,"अंतः":14924,"अंतमें":14925,"ट्रकों":14926,"ट्रियल":14927,"व्याकरण":14928,"फाश":14929,"फासला":14930,"फाँसी":14931,"फायरिंग":14932,"भुगत":14933,"सर्वे":14934,"सहने":14935,"सहना":14936,"सहभाग":14937,"सहकारी":14938,"सहारन":14939,"ब्र्":14940,"शब्दकोष":14941,"फिक्स":14942,"लूप":14943,"लूटो":14944,"क़र्ज़":14945,"गतिमान":14946,"बैठेंगे":14947,"बैठिए":14948,"खिसक":14949,"त्रासदियों":14950,"शक्तिमान":14951,"शक्तियां":14952,"शक्तिहीन":14953,"मानवजाती":14954,"मूलरूप":14955,"कार्ल":14956,"न्यूरा":14957,"न्यूयोर्क":14958,"भाषाई":14959,"बूथ":14960,"बूती":14961,"बूढी":14962,"घटती":14963,"चित्रो":14964,"जिन्होनें":14965,"नएन":14966,"आनेवाले":14967,"साइबेरिया":14968,"दौडा":14969,"फेन":14970,"इन्डिया":14971,"इन्कथा":14972,"इन्तिफा":14973,"फैंक":14974,"फैलाया":14975,"चिंपांजी":14976,"प्रोब":14977,"प्रोजै":14978,"प्रोद्योगिकी":14979,"मार्कस":14980,"मगरमच्छ":14981,"बोलें":14982,"मृतक":14983,"प्रभावहीन":14984,"प्रभावकारिता":14985,"बचों":14986,"वेश्यालय":14987,"धनुर्":14988,"रोकेंगे":14989,"अर्थहीन":14990,"विकासात्मक":14991,"घांस":14992,"घाटियों":14993,"कल्पनाओं":14994,"भविष्यवक्ता":14995,"दायरा":14996,"क्यूंकी":14997,"निश्चितता":14998,"सलामत":14999,"ज़ीज़":15000,"ग्गन":15001,"ग्धों":15002,"ग्लाइडर":15003,"ढाला":15004,"ट्टो":15005,"ज़िंद":15006,"घुमाने":15007,"बल्ला":15008,"परागण":15009,"सितंबर":15010,"पृ्थ्वी":15011,"फ्स":15012,"फ्लॉ":15013,"हरामी":15014,"भेजेंगे":15015,"गिलहरी":15016,"गिलोटिन":15017,"आँकड़ों":15018,"पूर्वस्कूली":15019,"चलेगी":15020,"आशाः":15021,"आशावान":15022,"आशाजनक":15023,"लॉक्स":15024,"संख्याएँ":15025,"संगीतखेल":15026,"मुश्किलें":15027,"डोरिस":15028,"डोरोथी":15029,"परिवर्तनशील":15030,"रॉबिन्स":15031,"जन्मे":15032,"अन्यायों":15033,"गर्त":15034,"लुढ़":15035,"रचनाओं":15036,"पुलिसकर्मी":15037,"अभियोग":15038,"अभियं":15039,"अभिजात":15040,"हार्ट":15041,"चूल्हे":15042,"चूहोँ":15043,"चूसना":15044,"चूड़ियाँ":15045,"छुड़":15046,"सेवाएं":15047,"दवाइयों":15048,"क्रिस्टल":15049,"जन्मस्थान":15050,"जन्मभूमि":15051,"बुलाता":15052,"दुर्भावना":15053,"दुर्गम":15054,"ग्रास":15055,"ग्राफीटी":15056,"मिलीलीटर":15057,"पागलों":15058,"बढ़ाता":15059,"ल्सः":15060,"लिखती":15061,"कटवा":15062,"चिंताएं":15063,"२०११":15064,"चुकाई":15065,"फ़ाइन":15066,"हालातों":15067,"लौटना":15068,"मुख्यधारा":15069,"मुख्यपृष्ट":15070,"टनेस":15071,"ह्ह":15072,"क्टस":15073,"उत्तरों":15074,"उत्तरदायित्व":15075,"व्लादि":15076,"मजबूती":15077,"स्त्रियाँ":15078,"गठित":15079,"सायकल":15080,"सायकिल":15081,"कतई":15082,"लकवा":15083,"लिखाः":15084,"लिखावट":15085,"तनावग्रस्त":15086,"उड़ाया":15087,"उड़ानें":15088,"रोधक":15089,"सिरदर्द":15090,"अफ़ग़ा":15091,"आरक्षित":15092,"पूछाः":15093,"समझाओ":15094,"धोँ":15095,"प्रशिक्षक":15096,"खासतौर":15097,"वस्तुएं":15098,"पुनरुत्":15099,"कमाती":15100,"कमांडो":15101,"बराक":15102,"मैनचेस्टर":15103,"निवेशिक":15104,"चौका":15105,"चौड़ी":15106,"चौंक":15107,"चौबीस":15108,"चौदह":15109,"लम्हे":15110,"शैं":15111,"ध्द":15112,"हलके":15113,"बढत":15114,"टिकटों":15115,"जल्दबाजी":15116,"ज़ेन":15117,"आत्मी":15118,"ग़म":15119,"फुल":15120,"प्लाज्मा":15121,"प्रियजन":15122,"फ़िलिप":15123,"नज़रें":15124,"नज़रिए":15125,"जैकः":15126,"इच्छाशक्ति":15127,"जीतेंगे":15128,"पहुंचते":15129,
[...]
