{"version":"1.0","truncation":null,"padding":null,"added_tokens":[{"id":0,"special":true,"content":"[UNK]","single_word":false,"lstrip":false,"rstrip":false,"normalized":false},{"id":1,"special":true,"content":"[CLS]","single_word":false,"lstrip":false,"rstrip":false,"normalized":false},{"id":2,"special":true,"content":"[SEP]","single_word":false,"lstrip":false,"rstrip":false,"normalized":false},{"id":3,"special":true,"content":"[PAD]","single_word":false,"lstrip":false,"rstrip":false,"normalized":false},{"id":4,"special":true,"content":"[MASK]","single_word":false,"lstrip":false,"rstrip":false,"normalized":false}],"normalizer":null,"pre_tokenizer":{"type":"Whitespace"},"post_processor":{"type":"TemplateProcessing","single":[{"SpecialToken":{"id":"[CLS]","type_id":0}},{"Sequence":{"id":"A","type_id":0}},{"SpecialToken":{"id":"[SEP]","type_id":0}}],"pair":[{"SpecialToken":{"id":"[CLS]","type_id":0}},{"Sequence":{"id":"A","type_id":0}},{"SpecialToken":{"id":"[SEP]","type_id":0}},{"Sequence":{"id":"B","type_id":1}},{"SpecialToken":{"id":"[SEP]","type_id":1}}],"special_tokens":{"[CLS]":{"id":"[CLS]","ids":[1],"tokens":["[CLS]"]},"[SEP]":{"id":"[SEP]","ids":[2],"tokens":["[SEP]"]}}},"decoder":null,"model":{"type":"BPE","dropout":null,"unk_token":"[UNK]","continuing_subword_prefix":null,"end_of_word_suffix":null,"fuse_unk":false,"vocab":{"[UNK]":0,"[CLS]":1,"[SEP]":2,"[PAD]":3,"[MASK]":4,"\"":5,",":6,".":7,"0":8,"1":9,"2":10,"3":11,"4":12,"5":13,"6":14,"7":15,"8":16,"9":17,"E":18,"[":19,"]":20,"^":21,"_":22,"a":23,"b":24,"c":25,"d":26,"e":27,"f":28,"g":29,"h":30,"i":31,"j":32,"k":33,"l":34,"m":35,"n":36,"o":37,"p":38,"q":39,"r":40,"s":41,"t":42,"u":43,"v":44,"w":45,"x":46,"y":47,"z":48,"th":49,"in":50,"an":51,"the":52,"ou":53,"re":54,"at":55,"is":56,"er":57,"on":58,"to":59,"ing":60,"en":61,".\"":62,"it":63,"you":64,"al":65,"and":66,"or":67,"st":68,"no":69,"me":70,"le":71,"se":72,"ar":73,"of":74,"ve":75,"we":76,"he":77,"as":78,"that":79,"be":80,"wh":81,"ed":82,"ll":83,"es":84,"ha":85,"ic":86,"so":87,"are":88,"not":89,"do":90,"ro":91,"ac":92,"ly":93,"wi":94,"ld":95,"ay":96,"go":97,"ion":98,"gh":99,"li":100,"lo":101,"id":102,"co":103,"ut":104,"for":105,"ch":106,"ent":107,"ver":108,"ke":109,"am":110,"ge":111,"this":112,"have":113,"ght":114,"ri":115,"out":116,"ab":117,"ad":118,"ho":119,"ir":120,"ne":121,"mo":122,"un":123,"one":124,"my":125,"now":126,"all":127,"what":128,"..":129,"was":130,"us":131,"pe":132,"they":133,"fe":134,"im":135,"with":136,"ould":137,"de":138,"au":139,"te":140,"can":141,"if":142,"but":143,"ce":144,"our":145,"here":146,"will":147,"ant":148,"ple":149,"ther":150,"thing":151,"wor":152,"ter":153,"tr":154,"ust":155,"your":156,"ur":157,"po":158,"ti":159,"there":160,"ok":161,"up":162,"con":163,"some":164,"ally":165,"man":166,"pl":167,"ation":168,"get":169,"ma":170,"pro":171,"ind":172,"od":173,"very":174,"like":175,"per":176,"ct":177,"about":178,"com":179,"oun":180,"know":181,"just":182,"ta":183,"ex":184,"how":185,"ate":186,"res":187,"ye":188,"ul":189,"art":190,"ap":191,"sa":192,"fro":193,"from":194,"king":195,"il":196,"sh":197,"way":198,"ag":199,"who":200,"would":201,"ill":202,"ause":203,"ity":204,"when":205,"act":206,"ive":207,"going":208,"ack":209,"ig":210,"peo":211,"su":212,"people":213,"ers":214,"them":215,"bo":216,"ment":217,"...":218,"qu":219,"ra":220,"time":221,"want":222,"end":223,"come":224,"see":225,"ink":226,"wo":227,"did":228,"wn":229,"she":230,"ide":231,"ist":232,"right":233,"bec":234,"ine":235,"by":236,"day":237,"ast":238,"look":239,"ound":240,"fo":241,"di":242,"her":243,"more":244,"any":245,"these":246,"were":247,"because":248,"ci":249,"ry":250,"ess":251,"ars":252,"had":253,"think":254,"every":255,"ss":256,"where":257,"other":258,"him":259,"their":260,"ven":261,"ren":262,"der":263,"red":264,"ong":265,"ble":266,"gr":267,"ck":268,"pp":269,"ort":270,"than":271,"ard":272,"ight":273,"got":274,"sp":275,"his":276,"let":277,"then":278,"need":279,"ice":280,"af":281,"ame":282,"back":283,"could":284,"ain":285,"el":286,"say":287,"ol":288,"um":289,"aught":290,"sto":291,"has":292,"ase":293,"well":294,"ough":295,"ts":296,"age":297,"ure":298,"ies":299,"ous":300,"ace":301,"cre":302,"new":303,"gu":304,"work":305,"world":306,"ans":307,"take":308,"ach":309,"use":310,"really":311,"led":312,"ich":313,"aughter":314,"ree":315,"good":316,"been":317,"ie":318,"ty":319,"ting":320,"00":321,"lit":322,"make":323,"over":324,"tell":325,"em":326,"ep":327,"chan":328,"able":329,"ions":330,"pr":331,"sel":332,"br":333,"why":334,"ild":335,"ose":336,"laughter":337,"into":338,"tal":339,"iz":340,"ving":341,"which":342,"fir":343,"tle":344,"years":345,"something":346,"happ":347,"ber":348,"fu":349,"life":350,"down":351,"ph":352,"bu":353,"ass":354,"dis":355,"even":356,"two":357,"ence":358,"try":359,"cent":360,"men":361,"only":362,"most":363,"ite":364,"ick":365,"cal":366,"bl":367,"off":368,"hu":369,"om":370,"cl":371,"first":372,"mu":373,"start":374,"ually":375,"ated":376,"said":377,"ves":378,"spe":379,"put":380,"ys":381,"those":382,"pre":383,"car":384,"ru":385,"mar":386,"jo":387,"bet":388,"ah":389,"coun":390,"son":391,"read":392,"cho":393,"hel":394,"mis":395,"ak":396,"things":397,"stand":398,"gre":399,"fa":400,"under":401,"fore":402,"love":403,"does":404,"may":405,"port":406,"dif":407,"che":408,"comm":409,"bod":410,"part":411,"ical":412,"ade":413,"little":414,"lear":415,"happen":416,"much":417,"find":418,"ning":419,"ought":420,"pres":421,"ater":422,"tor":423,"ps":424,"give":425,"ia":426,"should":427,"tur":428,"stu":429,"self":430,"pt":431,"wer":432,"ave":433,"ile":434,"ins":435,"actually":436,"min":437,"too":438,"many":439,"long":440,"never":441,"tri":442,"feren":443,"help":444,"hi":445,"ign":446,"form":447,"being":448,"log":449,"real":450,"ue":451,"thr":452,"lot":453,"its":454,"child":455,"feel":456,"body":457,"call":458,"int":459,"row":460,"est":461,"la":462,"ger":463,"also":464,"des":465,"gen":466,"ask":467,"ish":468,"lie":469,"mon":470,"through":471,"differen":472,"doing":473,"human":474,"after":475,"et":476,"ways":477,"ms":478,"yes":479,"home":480,"sy":481,"wr":482,"ance":483,"again":484,"sit":485,"ever":486,"sed":487,"wa":488,"around":489,"ser":490,"less":491,"pa":492,"ful":493,"still":494,"vi":495,"cr":496,"ds":497,"kind":498,"fin":499,"mean":500,"sup":501,"care":502,"rest":503,"thank":504,"oh":505,"turn":506,"show":507,"hand":508,"cess":509,"own":510,"mem":511,"les":512,"ily":513,"cor":514,"inter":515,"old":516,"ations":517,"sha":518,"ved":519,"yeah":520,"today":521,"talk":522,"before":523,"three":524,"du":525,"sho":526,"sur":527,"comp":528,"je":529,"big":530,"plan":531,"made":532,"als":533,"thought":534,"si":535,"bab":536,"dr":537,"col":538,"cont":539,"op":540,"med":541,"belie":542,"year":543,"fri":544,"fr":545,"kes":546,"eng":547,"same":548,"change":549,"place":550,"ict":551,"sing":552,"low":553,"kid":554,"appl":555,"bit":556,"xt":557,"okay":558,"fam":559,"sol":560,"mat":561,"proble":562,"different":563,"ces":564,"ens":565,"friend":566,"cour":567,"ction":568,"ire":569,"last":570,"bro":571,"ip":572,"ary":573,"play":574,"better":575,"soci":576,"understand":577,"sm":578,"ear":579,"sure":580,"keep":581,"llo":582,"ents":583,"ses":584,"20":585,"ft":586,"head":587,"mind":588,"another":589,"applause":590,"inst":591,"light":592,"irl":593,"clo":594,"alth":595,"bra":596,"str":597,"...\"":598,"ating":599,"used":600,"pu":601,"please":602,"girl":603,"name":604,"tech":605,"came":606,"always":607,"dy":608,"vis":609,"called":610,"side":611,"sim":612,"ult":613,"ob":614,"great":615,"kill":616,"ready":617,"bre":618,"ef":619,"wait":620,"might":621,"oney":622,"quest":623,"mill":624,"fun":625,"amer":626,"move":627,"away":628,"times":629,"person":630,"tre":631,"ang":632,"cur":633,"ric":634,"fl":635,"cap":636,"hey":637,"war":638,"ities":639,"cer":640,"par":641,"went":642,"gi":643,"stem":644,"commun":645,"chool":646,"run":647,"dec":648,"power":649,"ates":650,"ident":651,"found":652,"ress":653,"ten":654,"children":655,"school":656,"bus":657,"mor":658,"must":659,"done":660,"land":661,"ward":662,"sci":663,"ev":664,"ath":665,"live":666,"maybe":667,"fect":668,"att":669,"cle":670,"ise":671,"system":672,"tain":673,"wal":674,"mother":675,"stop":676,"sir":677,"import":678,"exper":679,"ouse":680,"cond":681,"job":682,"ons":683,"women":684,"toge":685,"together":686,"money":687,"told":688,"av":689,"learn":690,"god":691,"coming":692,"build":693,"next":694,"bor":695,"vers":696,"high":697,"believe":698,"tive":699,"anything":700,"ks":701,"ics":702,"started":703,"air":704,"far":705,"list":706,"atch":707,"logy":708,"ted":709,"aut":710,"fact":711,"ner":712,"arch":713,"someone":714,"ual":715,"ial":716,"sor":717,"ible":718,"everything":719,"member":720,"ments":721,"important":722,"nothing":723,"percent":724,"cell":725,"health":726,"story":727,"wee":728,"wanted":729,"ago":730,"blo":731,"ff":732,"night":733,"vir":734,"set":735,"water":736,"cy":737,"face":738,"enough":739,"num":740,"father":741,"bal":742,"lim":743,"ility":744,"10":745,"cking":746,"pri":747,"ize":748,"ital":749,"imag":750,"poss":751,"beg":752,"room":753,"few":754,"family":755,"idea":756,"dad":757,"ative":758,"techno":759,"stay":760,"getting":761,"uc":762,"problem":763,"dri":764,"ian":765,"ically":766,"bring":767,"mal":768,"val":769,"io":770,"looking":771,"remember":772,"ject":773,"mus":774,"nor":775,"chang":776,"har":777,"house":778,"miss":779,"hold":780,"country":781,"kids":782,"leave":783,"left":784,"inte":785,"americ":786,"ness":787,"course":788,"iness":789,"while":790,"ters":791,"ding":792,"line":793,"pat":794,"ited":795,"hed":796,"ket":797,"pect":798,"ken":799,"best":800,"book":801,"vo":802,"each":803,"become":804,"ank":805,"ton":806,"ense":807,"gener":808,"four":809,"ors":810,"ines":811,"grow":812,"wrong":813,"ures":814,"exam":815,"point":816,"produ":817,"sorry":818,"bad":819,"ween":820,"mr":821,"stru":822,"month":823,"ones":824,"pare":825,"ca":826,"ists":827,"between":828,"cri":829,"hard":830,"comple":831,"lead":832,"colle":833,"19":834,"inking":835,"ju":836,"ition":837,"ster":838,"saw":839,"lan":840,"ute":841,"lt":842,"won":843,"took":844,"listen":845,"gy":846,"hal":847,"guys":848,"wed":849,"hun":850,"pay":851,"trying":852,"ris":853,"youn":854,"ution":855,"000":856,"dam":857,"heart":858,"trans":859,"second":860,"without":861,",\"":862,"del":863,"cu":864,"talking":865,"ross":866,"gover":867,"cept":868,"afric":869,"ctor":870,"woman":871,"ced":872,"pol":873,"fac":874,"dat":875,"vie":876,"velo":877,"char":878,"once":879,"full":880,"hear":881,"gs":882,"tru":883,"else":884,"ctive":885,"experi":886,"glo":887,"making":888,"boy":889,"open":890,"bill":891,"vide":892,"ship":893,"pret":894,"hour":895,"ries":896,"llow":897,"example":898,"pon":899,"incre":900,"reas":901,"fucking":902,"happened":903,"cha":904,"search":905,"ama":906,"days":907,"selves":908,"win":909,"question":910,"seen":911,"whole":912,"ular":913,"govern":914,"case":915,"ste":916,"technology":917,"brain":918,"means":919,"using":920,"develo":921,"rel":922,"business":923,"beaut":924,"million":925,"ling":926,"publ":927,"bar":928,"five":929,"possible":930,"everyone":931,"fic":932,"ious":933,"small":934,"sign":935,"ized":936,"develop":937,"pho":938,"net":939,"working":940,"vol":941,"city":942,"eas":943,"already":944,"ele":945,"ord":946,"interest":947,"teach":948,"til":949,"lar":950,"thinking":951,"ings":952,"both":953,"brother":954,"data":955,"whe":956,"moment":957,"dead":958,"conne":959,"such":960,"formation":961,"lad":962,"ately":963,"guy":964,"paren":965,"medi":966,"sound":967,"india":968,"shit":969,"lu":970,"ince":971,"young":972,"fut":973,"watch":974,"uni":975,"test":976,"bur":977,"econ":978,"fight":979,"number":980,"doll":981,"ot":982,"makes":983,"phone":984,"pretty":985,"ili":986,"hope":987,"speak":988,"dan":989,"knew":990,"add":991,"cra":992,"respon":993,"inside":994,"mer":995,"comes":996,"tries":997,"cus":998,"myself":999,"sou":1000,"den":1001,"ific":1002,"says":1003,"bon":1004,"pain":1005,"ants":1006,"yet":1007,"law":1008,"ism":1009,"bas":1010,"fine":1011,"langu":1012,"die":1013,"baby":1014,"social":1015,"reg":1016,"lives":1017,"fuck":1018,"friends":1019,"music":1020,"global":1021,"hy":1022,"sk":1023,"having":1024,"gest":1025,"fast":1026,"vel":1027,"until":1028,"half":1029,"50":1030,"vent":1031,"gan":1032,"iv":1033,"countries":1034,"fi":1035,"clear":1036,"sis":1037,"ational":1038,"comput":1039,"walk":1040,"ory":1041,"matter":1042,"game":1043,"word":1044,"reason":1045,"tory":1046,"educ":1047,"train":1048,"photo":1049,"information":1050,"mes":1051,"contin":1052,"na":1053,"nat":1054,"tem":1055,"fron":1056,"blood":1057,"grou":1058,"asked":1059,"beautif":1060,"dre":1061,"prof":1062,"mach":1063,"saying":1064,"fort":1065,"free":1066,"hor":1067,"later":1068,"cted":1069,"earth":1070,"dro":1071,"oper":1072,"lost":1073,"clim":1074,"hind":1075,"grap":1076,"design":1077,"future":1078,"ices":1079,"mic":1080,"ina":1081,"ird":1082,"create":1083,"gg":1084,"zing":1085,"research":1086,"exp":1087,"cial":1088,"news":1089,"stud":1090,"months":1091,"sc":1092,"order":1093,"cut":1094,"ply":1095,"true":1096,"beautiful":1097,"os":1098,"rol":1099,"team":1100,"break":1101,"wonder":1102,"ering":1103,"yourself":1104,"others":1105,"hur":1106,"ash":1107,"exc":1108,"looks":1109,"food":1110,"vest":1111,"heard":1112,"bed":1113,"public":1114,"utes":1115,"uring":1116,"200":1117,"top":1118,"illed":1119,"community":1120,"complete":1121,"fall":1122,"pict":1123,"ried":1124,"30":1125,"ai":1126,"bat":1127,"pie":1128,"ze":1129,"probab":1130,"partic":1131,"language":1132,"pul":1133,"soon":1134,"key":1135,"posit":1136,"prote":1137,"government":1138,"mid":1139,"since":1140,"words":1141,"dollars":1142,"send":1143,"organ":1144,"ny":1145,"ener":1146,"hell":1147,"death":1148,"mag":1149,"safe":1150,"pris":1151,"gone":1152,"almost":1153,"ided":1154,"deal":1155,"sub":1156,"ased":1157,"econom":1158,"envir":1159,"step":1160,"study":1161,"parents":1162,"environ":1163,"sent":1164,"taking":1165,"que":1166,"minutes":1167,"front":1168,"tiv":1169,"ban":1170,"equ":1171,"nice":1172,"ran":1173,"polit":1174,"six":1175,"cam":1176,"gal":1177,"alone":1178,"class":1179,"president":1180,"dou":1181,"dar":1182,"sort":1183,"sense":1184,"ability":1185,"grand":1186,"super":1187,"close":1188,"whether":1189,"ease":1190,"eyes":1191,"suc":1192,"quick":1193,"often":1194,"sometimes":1195,"plac":1196,"imagine":1197,"cou":1198,"past":1199,"pass":1200,"tion":1201,"vice":1202,"model":1203,"press":1204,"experience":1205,"fig":1206,"fire":1207,"mi":1208,"behind":1209,"exact":1210,"entire":1211,"mom":1212,"cells":1213,"africa":1214,"though":1215,"met":1216,"bot":1217,"happens":1218,"socie":1219,"por":1220,"hit":1221,"main":1222,"follow":1223,"dra":1224,"meet":1225,"felt":1226,"pot":1227,"ground":1228,"clu":1229,"probably":1230,"across":1231,"ages":1232,"week":1233,"wit":1234,"chall":1235,"tra":1236,"pped":1237,"anyone":1238,"science":1239,"mission":1240,"stuff":1241,"control":1242,"single":1243,"aking":1244,"gave":1245,"vill":1246,"issu":1247,"action":1248,"doctor":1249,"living":1250,"disease":1251,"against":1252,"building":1253,"hours":1254,"opp":1255,"zy":1256,"goes":1257,"ues":1258,"phys":1259,"takes":1260,"taken":1261,"inste":1262,"morning":1263,"ither":1264,"door":1265,"energy":1266,"ention":1267,"process":1268,"gets":1269,"path":1270,"view":1271,"dream":1272,"environment":1273,"known":1274,"quite":1275,"dire":1276,"simple":1277,"sle":1278,"hosp":1279,"ural":1280,"ib":1281,"thous":1282,"thousand":1283,"scre":1284,"tom":1285,"states":1286,"cks":1287,"gun":1288,"sun":1289,"appro":1290,"gram":1291,"learned":1292,"within":1293,"stories":1294,"happy":1295,"company":1296,"easy":1297,"late":1298,"vor":1299,"unch":1300,"ends":1301,"space":1302,"ump":1303,"bir":1304,"dle":1305,"fle":1306,"plain":1307,"share":1308,"dist":1309,"fly":1310,"flo":1311,"mit":1312,"cop":1313,"cost":1314,"ush":1315,"writ":1316,"begin":1317,"eat":1318,"uro":1319,"ene":1320,"looked":1321,"scient":1322,"mine":1323,"pick":1324,"level":1325,"needs":1326,"works":1327,"answer":1328,"police":1329,"climate":1330,"exactly":1331,"posed":1332,"instead":1333,"mad":1334,"united":1335,"support":1336,"wall":1337,"anim":1338,"ideas":1339,"present":1340,"problems":1341,"given":1342,"stree":1343,"aring":1344,"cover":1345,"trust":1346,"born":1347,"ient":1348,"ander":1349,"state":1350,"dow":1351,"promis":1352,"everybody":1353,"fre":1354,"somebody":1355,"white":1356,"dep":1357,"dred":1358,"died":1359,"feeling":1360,"education":1361,"wife":1362,"hundred":1363,"video":1364,"computer":1365,"15":1366,"ware":1367,"invest":1368,"cons":1369,"hands":1370,"engine":1371,"dru":1372,"ja":1373,"imp":1374,"society":1375,"opport":1376,"gress":1377,"program":1378,"guess":1379,"girls":1380,"damn":1381,"opportun":1382,"band":1383,"least":1384,"planet":1385,"couple":1386,"12":1387,"bers":1388,"gl":1389,"gn":1390,"ring":1391,"tu":1392,"expect":1393,"fear":1394,"certain":1395,"secre":1396,"app":1397,"killed":1398,"ality":1399,"dest":1400,"longer":1401,"ond":1402,"tern":1403,"telling":1404,"changed":1405,"fil":1406,"ier":1407,"arm":1408,"wel":1409,"appe":1410,"sum":1411,"ched":1412,"tors":1413,"bs":1414,"lau":1415,"ished":1416,"sex":1417,"acy":1418,"black":1419,"attention":1420,"billion":1421,"students":1422,"100":1423,"poor":1424,"oud":1425,"sell":1426,"perfect":1427,"sil":1428,"reach":1429,"save":1430,"strong":1431,"crazy":1432,"sleep":1433,"fer":1434,"sco":1435,"along":1436,"whatever":1437,"history":1438,"ously":1439,"treat":1440,"fully":1441,"interesting":1442,"group":1443,"daughter":1444,"during":1445,"lab":1446,"vin":1447,"ann":1448,"cannot":1449,"project":1450,"amazing":1451,"graph":1452,"jack":1453,"national":1454,"outside":1455,"seeing":1456,"chance":1457,"playing":1458,"tou":1459,"ield":1460,"happening":1461,"wards":1462,"luck":1463,"messa":1464,"igh":1465,"ned":1466,"access":1467,"gent":1468,"pas":1469,"stress":1470,"roy":1471,"check":1472,"iles":1473,"decis":1474,"middle":1475,"ball":1476,"tar":1477,"ator":1478,"needed":1479,"finally":1480,"decided":1481,"american":1482,"rad":1483,"moving":1484,"thanks":1485,"attack":1486,"mm":1487,"secur":1488,"diffic":1489,"turned":1490,"success":1491,"ctr":1492,"road":1493,"shi":1494,"short":1495,"joy":1496,"large":1497,"tic":1498,"ourselves":1499,"wants":1500,"mark":1501,"bi":1502,"seven":1503,"china":1504,"post":1505,"cture":1506,"exist":1507,"compan":1508,"truth":1509,"incredi":1510,"south":1511,"completely":1512,"swe":1513,"became":1514,"brought":1515,"effect":1516,"weeks":1517,"cul":1518,"squ":1519,"stat":1520,"haps":1521,"perhaps":1522,"sal":1523,"ined":1524,"ilt":1525,"market":1526,"ben":1527,"hon":1528,"hes":1529,"lots":1530,"motion":1531,"conf":1532,"waiting":1533,"alive":1534,"hello":1535,"pose":1536,"paper":1537,"uh":1538,"local":1539,"emp":1540,"count":1541,"learning":1542,"security":1543,"da":1544,"lish":1545,"ared":1546,"turns":1547,"hospital":1548,"pur":1549,"third":1550,"rece":1551,"bes":1552,"defin":1553,"audi":1554,"aged":1555,"buy":1556,"laugh":1557,"oc":1558,"van":1559,"acc":1560,"reality":1561,"iss":1562,"carbon":1563,"alex":1564,"neur":1565,"pract":1566,"ba":1567,"gro":1568,"deep":1569,"ils":1570,"grad":1571,"spir":1572,"40":1573,"based":1574,"ler":1575,"town":1576,"stra":1577,"forget":1578,"micro":1579,"piece":1580,"economic":1581,"either":1582,"ya":1583,"tried":1584,"village":1585,"bri":1586,"sat":1587,"inclu":1588,"verse":1589,"trave":1590,"sug":1591,"places":1592,"rid":1593,"rus":1594,"worry":1595,"themselves":1596,"powerful":1597,"companies":1598,"cry":1599,"worked":1600,"ization":1601,"ded":1602,"mur":1603,"lea":1604,"lies":1605,"popul":1606,"boys":1607,"cale":1608,"early":1609,"prison":1610,"ls":1611,"cts":1612,"knows":1613,"shot":1614,"pull":1615,"america":1616,"picture":1617,"secret":1618,"eight":1619,"cogn":1620,"rather":1621,"humans":1622,"plane":1623,"medic":1624,"running":1625,"clean":1626,"machine":1627,"hn":1628,"report":1629,"recor":1630,"explain":1631,"built":1632,"vision":1633,"personal":1634,"fit":1635,"mee":1636,"activ":1637,"pet":1638,"indust":1639,"lady":1640,"difficult":1641,"cult":1642,"ko":1643,"ker":1644,"rich":1645,"thre":1646,"ats":1647,"loc":1648,"internet":1649,"drink":1650,"risk":1651,"sister":1652,"ied":1653,"ox":1654,"rup":1655,"sof":1656,"shut":1657,"sport":1658,"speaking":1659,"john":1660,"situ":1661,"danger":1662,"profess":1663,"hurt":1664,"birth":1665,"dig":1666,"oce":1667,"ron":1668,"recent":1669,"ences":1670,"cool":1671,"near":1672,"cancer":1673,"choice":1674,"serious":1675,"slow":1676,"lose":1677,"cove":1678,"ury":1679,"plant":1680,"office":1681,"questions":1682,"communic":1683,"media":1684,"ders":1685,"gree":1686,"ith":1687,"allow":1688,"west":1689,"hair":1690,"sold":1691,"ended":1692,"cies":1693,"loved":1694,"meaning":1695,"bio":1696,"cing":1697,"moun":1698,"ni":1699,"wish":1700,"ane":1701,"asure":1702,"ential":1703,"absol":1704,"indiv":1705,"ender":1706,"istic":1707,"viol":1708,"simply":1709,"electr":1710,"thousands":1711,"individ":1712,"east":1713,"reli":1714,"hood":1715,"text":1716,"fail":1717,"flu":1718,"college":1719,"relation":1720,"impact":1721,"18":1722,"bank":1723,"bud":1724,"particular":1725,"yor":1726,"lock":1727,"forward":1728,"foot":1729,"touch":1730,"absolute":1731,"card":1732,"field":1733,"jour":1734,"ming":1735,"mil":1736,"sen":1737,"star":1738,"created":1739,"liter":1740,"prin":1741,"deser":1742,"figure":1743,"meeting":1744,"covered":1745,"..\"":1746,"rele":1747,"ider":1748,"terri":1749,"trad":1750,"maj":1751,"ults":1752,"rent":1753,"difference":1754,"priv":1755,"hus":1756,"communities":1757,"morrow":1758,"60":1759,"aver":1760,"inno":1761,"tomorrow":1762,"likely":1763,"event":1764,"cit":1765,"hang":1766,"huge":1767,"asking":1768,"tele":1769,"convers":1770,"seems":1771,"anymore":1772,"north":1773,"ga":1774,"ially":1775,"tin":1776,"demo":1777,"worth":1778,"respect":1779,"spend":1780,"type":1781,"ches":1782,"common":1783,"english":1784,"cir":1785,"ram":1786,"idence":1787,"utions":1788,"raid":1789,"famili":1790,"connect":1791,"protect":1792,"camer":1793,"gra":1794,"san":1795,"inv":1796,"nobody":1797,"blue":1798,"millions":1799,"quickly":1800,"draw":1801,"street":1802,"gas":1803,"ances":1804,"ney":1805,"trou":1806,"plic":1807,"prove":1808,"aging":1809,"fair":1810,"responsi":1811,"leg":1812,"immedi":1813,"progress":1814,"cially":1815,"realized":1816,"supposed":1817,"systems":1818,"position":1819,"opportunity":1820,"ians":1821,"stri":1822,"chris":1823,"master":1824,"box":1825,"psy":1826,"minis":1827,"write":1828,"object":1829,"political":1830,"message":1831,"husband":1832,"fra":1833,"mir":1834,"rate":1835,"spo":1836,"tool":1837,"force":1838,"carry":1839,"citiz":1840,"pes":1841,"sam":1842,"online":1843,"sea":1844,"ional":1845,"load":1846,"hole":1847,"pping":1848,"emer":1849,"ges":1850,"lly":1851,"peace":1852,"sud":1853,"spent":1854,"logical":1855,"normal":1856,"growing":1857,"issue":1858,"soft":1859,"york":1860,"rer":1861,"icy":1862,"acter":1863,"code":1864,"ford":1865,"green":1866,"medical":1867,"dark":1868,"sudden":1869,"fur":1870,"opt":1871,"pi":1872,"vive":1873,"army":1874,"drive":1875,"voice":1876,"ordin":1877,"univers":1878,"trouble":1879,"ging":1880,"sw":1881,"feed":1882,"tract":1883,"afraid":1884,"minute":1885,"sym":1886,"drag":1887,"obvi":1888,"giving":1889,"changing":1890,"ax":1891,"mand":1892,"round":1893,"roll":1894,"accept":1895,"image":1896,"rights":1897,"special":1898,"instit":1899,"began":1900,"growth":1901,"window":1902,"sounds":1903,"battle":1904,"direct":1905,"alexander":1906,"population":1907,"cro":1908,"cure":1909,"eye":1910,"euro":1911,"non":1912,"pred":1913,"ange":1914,"bey":1915,"neigh":1916,"dear":1917,"compass":1918,"ley":1919,"somewhere":1920,"agree":1921,"istan":1922,"spread":1923,"worlds":1924,"changes":1925,"pal":1926,"teac":1927,"map":1928,"extre":1929,"favor":1930,"capital":1931,"evol":1932,"jobs":1933,"books":1934,"fortun":1935,"promise":1936,"destroy":1937,"emotion":1938,"sick":1939,"zer":1940,"ators":1941,"cooper":1942,"abo":1943,"dev":1944,"boss":1945,"affect":1946,"huh":1947,"standing":1948,"smart":1949,"ava":1950,"leader":1951,"basically":1952,"challeng":1953,"bly":1954,"hate":1955,"asse":1956,"lived":1957,"except":1958,"choose":1959,"lord":1960,"ror":1961,"wind":1962,"wash":1963,"track":1964,"offic":1965,"ships":1966,"cat":1967,"gor":1968,"mater":1969,"sequ":1970,"deli":1971,"dete":1972,"suff":1973,"survive":1974,"fix":1975,"explo":1976,"approach":1977,"culture":1978,"14":1979,"ahead":1980,"bul":1981,"return":1982,"arri":1983,"beat":1984,"ides":1985,"justice":1986,"board":1987,"cris":1988,"general":1989,"welcome":1990,"major":1991,"eth":1992,"var":1993,"wat":1994,"repre":1995,"revol":1996,"recogn":1997,"offe":1998,"ghan":1999,"coll":2000,"entrepre":2001,"parts":2002,"finan":2003,"understanding":2004,"pattern":2005,"beginning":2006,"gentle":2007,"situation":2008,"aid":2009,"lines":2010,"pen":2011,"scale":2012,"itself":2013,"meant":2014,"edom":2015,"dog":2016,"knowled":2017,"creat":2018,"solve":2019,"nature":2020,"animals":2021,"depend":2022,"absolutely":2023,"eli":2024,"tw":2025,"invol":2026,"asing":2027,"belong":2028,"astic":2029,"images":2030,"possib":2031,"strugg":2032,"challen":2033,"receive":2034,"ocean":2035,"europe":2036,"ged":2037,"sus":2038,"table":2039,"beha":2040,"kept":2041,"icks":2042,"realize":2043,"jud":2044,"african":2045,"magic":2046,"drug":2047,"audience":2048,"average":2049,"neighbor":2050,"challenge":2051,"ired":2052,"mass":2053,"scare":2054,"inner":2055,"andy":2056,"espe":2057,"uncle":2058,"ift":2059,"pers":2060,"solution":2061,"target":2062,"behavi":2063,"bag":2064,"cars":2065,"don":2066,"thor":2067,"requ":2068,"rote":2069,"feet":2070,"def":2071,"terms":2072,"pover":2073,"ilar":2074,"center":2075,"starting":2076,"spec":2077,"sitting":2078,"yearold":2079,"movement":2080,"freedom":2081,"compassion":2082,"especially":2083,"cli":2084,"fish":2085,"taught":2086,"iting":2087,"moved":2088,"proper":2089,"serv":2090,"crit":2091,"experim":2092,"none":2093,"wast":2094,"wrote":2095,"throw":2096,"weap":2097,"loy":2098,"hot":2099,"indian":2100,"resour":2101,"rain":2102,"cape":2103,"connected":2104,"range":2105,"scientists":2106,"hundreds":2107,"poverty":2108,"anal":2109,"legal":2110,"kets":2111,"rais":2112,"focus":2113,"stor":2114,"paid":2115,"development":2116,"continue":2117,"extreme":2118,"mul":2119,"sl":2120,"itary":2121,"gold":2122,"amoun":2123,"hero":2124,"forest":2125,"kinds":2126,"faster":2127,"training":2128,"natural":2129,"drop":2130,"straight":2131,"democr":2132,"70":2133,"iled":2134,"wise":2135,"enjoy":2136,"peri":2137,"courage":2138,"strate":2139,"numbers":2140,"benef":2141,"teacher":2142,"ping":2143,"sli":2144,"itions":2145,"area":2146,"among":2147,"term":2148,"shall":2149,"wood":2150,"achie":2151,"uses":2152,"izing":2153,"fran":2154,"tonight":2155,"listening":2156,"consider":2157,"innov":2158,"cast":2159,"nine":2160,"py":2161,"sar":2162,"towards":2163,"itu":2164,"ify":2165,"yours":2166,"anybody":2167,"beings":2168,"complex":2169,"skin":2170,"incredible":2171,"knowledge":2172,"hum":2173,"mate":2174,"ped":2175,"smo":2176,"size":2177,"ured":2178,"himself":2179,"service":2180,"threat":2181,"immediately":2182,"blow":2183,"pack":2184,"push":2185,"ached":2186,"fective":2187,"conds":2188,"dies":2189,"umb":2190,"commit":2191,"current":2192,"walking":2193,"male":2194,"patient":2195,"generation":2196,"structure":2197,"watching":2198,"11":2199,"bt":2200,"cities":2201,"flight":2202,"mig":2203,"anda":2204,"stair":2205,"cold":2206,"preci":2207,"gives":2208,"crimin":2209,"recently":2210,"beyond":2211,"cup":2212,"dna":2213,"ki":2214,"lin":2215,"ination":2216,"ret":2217,"remind":2218,"ency":2219,"rock":2220,"impossible":2221,"tax":2222,"anyway":2223,"species":2224,"party":2225,"value":2226,"flow":2227,"mou":2228,"sad":2229,"seconds":2230,"fell":2231,"worse":2232,"pop":2233,"prov":2234,"grew":2235,"humanity":2236,"bigger":2237,"solar":2238,"financial":2239,"cause":2240,"sn":2241,"site":2242,"cook":2243,"entially":2244,"pel":2245,"comb":2246,"sphere":2247,"calling":2248,"truly":2249,"photograph":2250,"pictures":2251,"including":2252,"suggest":2253,"revolution":2254,"entrepreneur":2255,"fing":2256,"stage":2257,"ham":2258,"wide":2259,"enter":2260,"ilities":2261,"century":2262,"speed":2263,"putting":2264,"married":2265,"similar":2266,"brea":2267,"becomes":2268,"film":2269,"vincent":2270,"medicine":2271,"17":2272,"hic":2273,"jes":2274,"iling":2275,"mental":2276,"creating":2277,"brid":2278,"babies":2279,"healthy":2280,"physical":2281,"leaving":2282,"multi":2283,"cross":2284,"nar":2285,"nur":2286,"stren":2287,"seat":2288,"riage":2289,"extra":2290,"whose":2291,"memory":2292,"block":2293,"positive":2294,"lucky":2295,"dangerous":2296,"25":2297,"aw":2298,"aim":2299,"og":2300,"rap":2301,"inde":2302,"atic":2303,"separ":2304,"bell":2305,"mob":2306,"ault":2307,"tran":2308,"ties":2309,"confl":2310,"join":2311,"effective":2312,"schools":2313,"pati":2314,"camp":2315,"double":2316,"literally":2317,"crisis":2318,"jesus":2319,"streng":2320,"vict":2321,"weak":2322,"rob":2323,"roof":2324,"robot":2325,"necess":2326,"deter":2327,"upon":2328,"civ":2329,"ief":2330,"tribut":2331,"machines":2332,"cru":2333,"fill":2334,"jump":2335,"lam":2336,"invent":2337,"account":2338,"chine":2339,"moon":2340,"ctions":2341,"quality":2342,"shoot":2343,"earli":2344,"dreams":2345,"further":2346,"chinese":2347,"16":2348,"bye":2349,"base":2350,"dav":2351,"fal":2352,"hone":2353,"tally":2354,"rial":2355,"worried":2356,"concer":2357,"apart":2358,"price":2359,"proud":2360,"marriage":2361,"pair":2362,"instru":2363,"funny":2364,"lands":2365,"mothers":2366,"response":2367,"potential":2368,"spirit":2369,"conversation":2370,"behavior":2371,"mouth":2372,"13":2373,"itch":2374,"sty":2375,"arrest":2376,"accor":2377,"moder":2378,"atest":2379,"tells":2380,"blind":2381,"greatest":2382,"finish":2383,"color":2384,"leaders":2385,"address":2386,"pression":2387,"decision":2388,"honor":2389,"digital":2390,"families":2391,"university":2392,"zero":2393,"migr":2394,"oid":2395,"za":2396,"represent":2397,"wever":2398,"weight":2399,"dom":2400,"however":2401,"neuro":2402,"dered":2403,"ified":2404,"till":2405,"starts":2406,"command":2407,"helped":2408,"higher":2409,"daddy":2410,"cases":2411,"practice":2412,"russi":2413,"gentlemen":2414,"amount":2415,"500":2416,"80":2417,"ado":2418,"aware":2419,"cas":2420,"catch":2421,"date":2422,"task":2423,"thro":2424,"sever":2425,"role":2426,"trac":2427,"stopped":2428,"discovered":2429,"helping":2430,"developed":2431,"universe":2432,"groups":2433,"psycho":2434,"citizens":2435,"fortunately":2436,"stairs":2437,"tt":2438,"wear":2439,"fuh":2440,"visual":2441,"increase":2442,"developing":2443,"teachers":2444,"excuse":2445,"issues":2446,"writing":2447,"resources":2448,"apo":2449,"hid":2450,"hank":2451,"ked":2452,"pup":2453,"income":2454,"totally":2455,"adv":2456,"unders":2457,"poll":2458,"consci":2459,"seem":2460,"shows":2461,"showed":2462,"named":2463,"americans":2464,"wonderful":2465,"floor":2466,"copy":2467,"treatment":2468,"travel":2469,"military":2470,"above":2471,"scared":2472,"period":2473,"fuhrer":2474,"cise":2475,"cket":2476,"pan":2477,"tend":2478,"arab":2479,"antly":2480,"saved":2481,"quie":2482,"diag":2483,"anywhere":2484,"ption":2485,"shaw":2486,"biggest":2487,"interested":2488,"cis":2489,"fres":2490,"miles":2491,"nal":2492,"omy":2493,"sust":2494,"zed":2495,"refu":2496,"remain":2497,"ature":2498,"ery":2499,"tood":2500,"total":2501,"mechan":2502,"lower":2503,"chi":2504,"deta":2505,"compet":2506,"everywhere":2507,"finding":2508,"broken":2509,"signific":2510,"models":2511,"terrible":2512,"camera":2513,"sustain":2514,"crow":2515,"gar":2516,"jim":2517,"mas":2518,"yo":2519,"atom":2520,"stup":2521,"iron":2522,"plants":2523,"raise":2524,"prevent":2525,"desp":2526,"gency":2527,"survi":2528,"produce":2529,"fighting":2530,"bottom":2531,"witch":2532,"enemy":2533,"drugs":2534,"gradu":2535,"journey":2536,"suddenly":2537,"predict":2538,"nes":2539,"ug":2540,"vic":2541,"zz":2542,"thes":2543,"onto":2544,"orig":2545,"neg":2546,"demand":2547,"redu":2548,"brand":2549,"mary":2550,"contact":2551,"farm":2552,"individual":2553,"involved":2554,"patients":2555,"earlier":2556,"understood":2557,"stupid":2558,"mart":2559,"nut":2560,"nam":2561,"ners":2562,"stick":2563,"goal":2564,"comfort":2565,"suit":2566,"quant":2567,"descri":2568,"wake":2569,"handle":2570,"shared":2571,"dying":2572,"function":2573,"fundam":2574,"colleag":2575,"curi":2576,"governments":2577,"sky":2578,"student":2579,"decisions":2580,"ordinary":2581,"emotional":2582,"fundament":2583,"90":2584,"coffe":2585,"dance":2586,"han":2587,"ito":2588,"xic":2589,"inal":2590,"mess":2591,"unk":2592,"usually":2593,"trade":2594,"provide":2595,"exe":2596,"mention":2597,"afford":2598,"brains":2599,"driving":2600,"galax":2601,"radio":2602,"relig":2603,"quiet":2604,"refuge":2605,"fat":2606,"lf":2607,"mp":2608,"pig":2609,"rise":2610,"sme":2611,"enced":2612,"formed":2613,"unless":2614,"tel":2615,"els":2616,"gue":2617,"tellig":2618,"pray":2619,"serve":2620,"talked":2621,"captain":2622,"archite":2623,"charge":2624,"certainly":2625,"tiny":2626,"ema":2627,"ered":2628,"ns":2629,"pir":2630,"skill":2631,"wers":2632,"intellig":2633,"repe":2634,"secure":2635,"improve":2636,"antic":2637,"worst":2638,"ards":2639,"workers":2640,"spective":2641,"final":2642,"surve":2643,"solutions":2644,"ensive":2645,"crime":2646,"violence":2647,"bing":2648,"cin":2649,"cles":2650,"due":2651,"jac":2652,"pha":2653,"race":2654,"sand":2655,"sour":2656,"uck":2657,"iti":2658,"meters":2659,"iced":2660,"active":2661,"lying":2662,"gods":2663,"constru":2664,"peoples":2665,"iety":2666,"emiss":2667,"corpor":2668,"iot":2669,"parent":2670,"lawy":2671,"excited":2672,"oxy":2673,"favorite":2674,"avail":2675,"washing":2676,"extremely":2677,"honest":2678,"despite":2679,"aun":2680,"ech":2681,"scr":2682,"anger":2683,"sters":2684,"ark":2685,"heav":2686,"lowed":2687,"manage":2688,"perform":2689,"perspective":2690,"tains":2691,"otherwise":2692,"rules":2693,"surface":2694,"surpris":2695,"uclear":2696,"brothers":2697,"effects":2698,"industry":2699,"minister":2700,"strength":2701,"several":2702,"coffee":2703,"anx":2704,"hea":2705,"soph":2706,"notice":2707,"lif":2708,"chief":2709,"author":2710,"result":2711,"istics":2712,"afghan":2713,"missing":2714,"chem":2715,"intro":2716,"virus":2717,"network":2718,"orders":2719,"walked":2720,"designed":2721,"organization":2722,"doctors":2723,"madam":2724,"appear":2725,"modern":2726,"24":2727,"ral":2728,"tour":2729,"insp":2730,"atmo":2731,"lect":2732,"vehic":2733,"aming":2734,"river":2735,"mole":2736,"poin":2737,"plastic":2738,"ending":2739,"wow":2740,"gotten":2741,"phil":2742,"clus":2743,"reading":2744,"syn":2745,"corre":2746,"lights":2747,"holding":2748,"product":2749,"painting":2750,"safety":2751,"screen":2752,"streets":2753,"purpose":2754,"civil":2755,"caught":2756,"dry":2757,"kai":2758,"link":2759,"nic":2760,"nuclear":2761,"ride":2762,"ories":2763,"meter":2764,"measure":2765,"docu":2766,"terror":2767,"max":2768,"foc":2769,"fool":2770,"bodies":2771,"shame":2772,"minds":2773,"names":2774,"killing":2775,"evidence":2776,"technolog":2777,"itional":2778,"campa":2779,"mountain":2780,"private":2781,"tools":2782,"obviously":2783,"material":2784,"experiment":2785,"conflict":2786,"according":2787,"99":2788,"fant":2789,"kno":2790,"las":2791,"mut":2792,"nig":2793,"rand":2794,"swi":2795,"tit":2796,"tim":2797,"zo":2798,"lebr":2799,"liber":2800,"therap":2801,"results":2802,"bom":2803,"quar":2804,"store":2805,"bling":2806,"forms":2807,"showing":2808,"bitch":2809,"warri":2810,"park":2811,"avoid":2812,"character":2813,"teaching":2814,"economy":2815,"following":2816,"daily":2817,"windows":2818,"strategy":2819,"ka":2820,"lor":2821,"mous":2822,"native":2823,"oil":2824,"pun":2825,"ray":2826,"song":2827,"vul":2828,"thir":2829,"wearing":2830,"host":2831,"unfortunately":2832,"myth":2833,"tered":2834,"celebr":2835,"actions":2836,"embar":2837,"discus":2838,"prepare":2839,"pressed":2840,"turning":2841,"launch":2842,"effic":2843,"busy":2844,"steal":2845,"connection":2846,"ladies":2847,"basic":2848,"successful":2849,"incredibly":2850,"waste":2851,"conscious":2852,"bound":2853,"ell":2854,"pand":2855,"tro":2856,"une":2857,"ali":2858,"allowed":2859,"legs":2860,"loss":2861,"ades":2862,"ceed":2863,"traf":2864,"confir":2865,"mance":2866,"print":2867,"itely":2868,"marry":2869,"missed":2870,"foreign":2871,"partner":2872,"tural":2873,"studies":2874,"ference":2875,"closer":2876,"reasons":2877,"trained":2878,"passion":2879,"written":2880,"animal":2881,"record":2882,"relationship":2883,"eventually":2884,"diagno":2885,"emissions":2886,"available":2887,"awe":2888,"gri":2889,"lay":2890,"rac":2891,"sens":2892,"tough":2893,"uals":2894,"itive":2895,"stone":2896,"goals":2897,"ams":2898,"const":2899,"exer":2900,"appreci":2901,"saving":2902,"prise":2903,"phi":2904,"evening":2905,"sons":2906,"products":2907,"faces":2908,"beauty":2909,"computers":2910,"sweet":2911,"electric":2912,"responsible":2913,"heavy":2914,"introdu":2915,"vulner":2916,"ials":2917,"mort":2918,"rout":2919,"vacc":2920,"ining":2921,"atory":2922,"ites":2923,"associ":2924,"ably":2925,"hotel":2926,"imate":2927,"ames":2928,"creative":2929,"march":2930,"calls":2931,"visit":2932,"events":2933,"conditions":2934,"largest":2935,"regul":2936,"particip":2937,"tube":2938,"passed":2939,"birthday":2940,"dragon":2941,"achieve":2942,"bridge":2943,"victim":2944,"campaign":2945,"gust":2946,"kne":2947,"pic":2948,"tons":2949,"los":2950,"decl":2951,"willing":2952,"mans":2953,"math":2954,"boo":2955,"phones":2956,"counter":2957,"forever":2958,"feels":2959,"genes":2960,"breath":2961,"increasing":2962,"clearly":2963,"doug":2964,"glass":2965,"activity":2966,"deliver":2967,"martin":2968,"smell":2969,"niger":2970,"bility":2971,"dinner":2972,"gay":2973,"lic":2974,"tv":2975,"tens":2976,"influ":2977,"areas":2978,"concept":2979,"manu":2980,"essentially":2981,"rench":2982,"calm":2983,"claim":2984,"mistake":2985,"greater":2986,"throughout":2987,"although":2988,"decide":2989,"easier":2990,"diseases":2991,"sexual":2992,"location":2993,"nearly":2994,"challenges":2995,"twice":2996,"weapon":2997,"atmosphere":2998,"bare":2999,"pound":3000,"wave":3001,"refle":3002,"sean":3003,"wealth":3004,"irt":3005,"neither":3006,"mote":3007,"moments":3008,"movie":3009,"imately":3010,"demon":3011,"teen":3012,"tired":3013,"ager":3014,"types":3015,"assist":3016,"members":3017,"planning":3018,"soul":3019,"laws":3020,"opportunities":3021,"relationships":3022,"emergency":3023,"pelle":3024,"chemical":3025,"correct":3026,"pill":3027,"wing":3028,"bel":3029,"soil":3030,"acity":3031,"libr":3032,"therefore":3033,"somehow":3034,"complic":3035,"lax":3036,"matic":3037,"matters":3038,"keeps":3039,"damage":3040,"ivity":3041,"studying":3042,"apped":3043,"scott":3044,"grown":3045,"desert":3046,"objects":3047,"specific":3048,"indeed":3049,"bast":3050,"gin":3051,"gard":3052,"gender":3053,"len":3054,"rance":3055,"vit":3056,"ony":3057,"robo":3058,"adults":3059,"dee":3060,"consequ":3061,"knowing":3062,"fold":3063,"bru":3064,"laun":3065,"homes":3066,"match":3067,"clothes":3068,"warm":3069,"paying":3070,"placed":3071,"pathy":3072,"flying":3073,"ondon":3074,"announ":3075,"definitely":3076,"laughing":3077,"failure":3078,"software":3079,"itude":3080,"quantum":3081,"manufact":3082,"dut":3083,"gate":3084,"hat":3085,"london":3086,"spl":3087,"scri":3088,"winter":3089,"ened":3090,"station":3091,"stars":3092,"ira":3093,"aur":3094,"ples":3095,"contribut":3096,"perfor":3097,"bow":3098,"grab":3099,"carto":3100,"corner":3101,"shape":3102,"shoes":3103,"collect":3104,"transform":3105,"dollar":3106,"continues":3107,"pieces":3108,"labor":3109,"occur":3110,"directly":3111,"recognize":3112,"massive":3113,"mouse":3114,"nie":3115,"page":3116,"wound":3117,"keys":3118,"ung":3119,"brit":3120,"bull":3121,"feelings":3122,"belief":3123,"engage":3124,"singing":3125,"smile":3126,"heads":3127,"bringing":3128,"policy":3129,"games":3130,"scene":3131,"silence":3132,"passport":3133,"princi":3134,"suffering":3135,"critical":3136,"afghanistan":3137,"bath":3138,"french":3139,"gain":3140,"ii":3141,"ik":3142,"ires":3143,"jap":3144,"james":3145,"owe":3146,"spot":3147,"tree":3148,"ancy":3149,"era":3150,"noticed":3151,"auto":3152,"div":3153,"cked":3154,"closed":3155,"trevor":3156,"harm":3157,"hung":3158,"continu":3159,"engineering":3160,"slowly":3161,"raised":3162,"democracy":3163,"entrepreneurs":3164,"negative":3165,"traffic":3166,"bought":3167,"hou":3168,"phe":3169,"ino":3170,"itation":3171,"domin":3172,"losing":3173,"abor":3174,"thern":3175,"rah":3176,"carol":3177,"failed":3178,"stuck":3179,"career":3180,"shown":3181,"international":3182,"surprise":3183,"frank":3184,"iction":3185,"volun":3186,"craft":3187,"photos":3188,"profit":3189,"subject":3190,"seriously":3191,"evolution":3192,"arrived":3193,"cate":3194,"cred":3195,"ebo":3196,"hide":3197,"pak":3198,"rist":3199,"ying":3200,"thetic":3201,"relax":3202,"asses":3203,"lling":3204,"lied":3205,"advice":3206,"thinks":3207,"letter":3208,"letters":3209,"vili":3210,"crack":3211,"played":3212,"capacity":3213,"paris":3214,"goddamn":3215,"collective":3216,"burt":3217,"kore":3218,"received":3219,"services":3220,"analy":3221,"fresh":3222,"technologies":3223,"robots":3224,"aper":3225,"dim":3226,"gift":3227,"honey":3228,"lack":3229,"rang":3230,"swee":3231,"reached":3232,"algor":3233,"novel":3234,"aries":3235,"escape":3236,"doors":3237,"ently":3238,"ada":3239,"deb":3240,"tex":3241,"fol":3242,"spare":3243,"emic":3244,"mostly":3245,"careful":3246,"differently":3247,"clock":3248,"giant":3249,"integr":3250,"hearing":3251,"experiences":3252,"chair":3253,"exciting":3254,"classroom":3255,"walls":3256,"square":3257,"symbo":3258,"crowd":3259,"molecu":3260,"random":3261,"discuss":3262,"appreciate":3263,"complicated":3264,"performance":3265,"algorith":3266,"400":3267,"bacter":3268,"fab":3269,"fif":3270,"jan":3271,"kers":3272,"nation":3273,"nations":3274,"pto":3275,"snow":3276,"anci":3277,"atures":3278,"ison":3279,"enor":3280,"alright":3281,"assu":3282,"wild":3283,"admit":3284,"device":3285,"plat":3286,"mathem":3287,"resist":3288,"suic":3289,"civili":3290,"span":3291,"ases":3292,"calcul":3293,"offer":3294,"finished":3295,"corrup":3296,"surround":3297,"strange":3298,"version":3299,"graphy":3300,"wondering":3301,"costs":3302,"promised":3303,"communicate":3304,"buddy":3305,"frame":3306,"possibly":3307,"david":3308,"intelligence":3309,"bird":3310,"bunch":3311,"cil":3312,"dick":3313,"eld":3314,"loud":3315,"pts":3316,"rare":3317,"scar":3318,"sche":3319,"sia":3320,"reven":3321,"isol":3322,"island":3323,"meas":3324,"arms":3325,"ason":3326,"bear":3327,"becoming":3328,"likes":3329,"christ":3330,"fellow":3331,"immu":3332,"degree":3333,"trau":3334,"tie":3335,"context":3336,"agre":3337,"quit":3338,"grat":3339,"blah":3340,"genet":3341,"famous":3342,"court":3343,"brave":3344,"breaking":3345,"fathers":3346,"signal":3347,"regular":3348,"temper":3349,"hurry":3350,"doubt":3351,"distance":3352,"accident":3353,"murph":3354,"individuals":3355,"destroyed":3356,"fundamental":3357,"anxiety":3358,"embarr":3359,"philo":3360,"enormous":3361,"hall":3362,"mun":3363,"rural":3364,"sch":3365,"inc":3366,"itar":3367,"itals":3368,"ale":3369,"ston":3370,"aria":3371,"heal":3372,"accom":3373,"idents":3374,"advan":3375,"aul":3376,"tea":3377,"pleasure":3378,"urance":3379,"tian":3380,"illegal":3381,"grade":3382,"phan":3383,"discover":3384,"commer":3385,"ishing":3386,"series":3387,"oppo":3388,"harder":3389,"struct":3390,"fied":3391,"expensive":3392,"leaves":3393,"professor":3394,"particularly":3395,"transport":3396,"false":3397,"competition":3398,"colleagues":3399,"warrior":3400,"awesome":3401,"pakistan":3402,"300":3403,"bits":3404,"bicy":3405,"filled":3406,"hill":3407,"ture":3408,"ws":3409,"thri":3410,"reve":3411,"asia":3412,"edge":3413,"icing":3414,"acle":3415,"chuck":3416,"contain":3417,"apt":3418,"appoint":3419,"spac":3420,"clin":3421,"rule":3422,"bodys":3423,"older":3424,"surger":3425,"broke":3426,"keeping":3427,"condition":3428,"airport":3429,"production":3430,"examples":3431,"easily":3432,"unique":3433,"grandmother":3434,"environmental":3435,"scientist":3436,"microbes":3437,"satur":3438,"crying":3439,"television":3440,"mobile":3441,"necessary":3442,"arabic":3443,"ancient":3444,"bble":3445,"cue":3446,"iers":3447,"atter":3448,"ening":3449,"mexic":3450,"held":3451,"habit":3452,"note":3453,"lift":3454,"iding":3455,"core":3456,"mot":3457,"depression":3458,"urban":3459,"tiger":3460,"conside":3461,"artic":3462,"sharing":3463,"shift":3464,"whoa":3465,"fake":3466,"pressure":3467,"served":3468,"gious":3469,"limited":3470,"values":3471,"videos":3472,"tempt":3473,"queen":3474,"politics":3475,"picked":3476,"obvious":3477,"bullet":3478,"storm":3479,"caused":3480,"advant":3481,"points":3482,"exercise":3483,"folks":3484,"considered":3485,"bright":3486,"bang":3487,"ome":3488,"sla":3489,"vast":3490,"infra":3491,"theory":3492,"meth":3493,"doz":3494,"ache":3495,"idiot":3496,"ami":3497,"ulous":3498,"artist":3499,"shar":3500,"shout":3501,"bob":3502,"grant":3503,"previ":3504,"trip":3505,"visible":3506,"angry":3507,"setting":3508,"brings":3509,"malaria":3510,"198":3511,"relative":3512,"larger":3513,"testing":3514,"burn":3515,"investig":3516,"investment":3517,"journal":3518,"devices":3519,"source":3520,"oxygen":3521,"bomb":3522,"immune":3523,"fed":3524,"fault":3525,"scan":3526,"sight":3527,"sector":3528,"web":3529,"weird":3530,"liked":3531,"loves":3532,"forgive":3533,"forced":3534,"vert":3535,"nel":3536,"impro":3537,"immigr":3538,"depart":3539,"telo":3540,"ours":3541,"plus":3542,"whom":3543,"acting":3544,"grun":3545,"newsp":3546,"typ":3547,"empathy":3548,"happiness":3549,"blame":3550,"standard":3551,"faith":3552,"supply":3553,"shop":3554,"believed":3555,"solved":3556,"decade":3557,"ception":3558,"facing":3559,"factory":3560,"respond":3561,"sisters":3562,"figured":3563,"mix":3564,"distri":3565,"cultural":3566,"statistics":3567,"sales":3568,"neurons":3569,"industrial":3570,"optim":3571,"institutions":3572,"comfortable":3573,"inspired":3574,"21":3575,"26":3576,"45":3577,"cum":3578,"cute":3579,"gd":3580,"glad":3581,"mber":3582,"nu":3583,"pse":3584,"rat":3585,"infect":3586,"ref":3587,"request":3588,"ita":3589,"meta":3590,"sess":3591,"motiv":3592,"mosqu":3593,"myster":3594,"pos":3595,"consu":3596,"erson":3597,"guar":3598,"berlin":3599,"phili":3600,"speech":3601,"trill":3602,"obje":3603,"capable":3604,"identity":3605,"buildings":3606,"prior":3607,"factors":3608,"published":3609,"signs":3610,"ification":3611,"basis":3612,"bottle":3613,"guns":3614,"birds":3615,"selling":3616,"professional":3617,"responsibility":3618,"spoke":3619,"struggle":3620,"neighborhood":3621,"francis":3622,"invented":3623,"style":3624,"arrested":3625,"hidden":3626,"farmers":3627,"skills":3628,"vehicle":3629,"document":3630,"credit":3631,"bread":3632,"eating":3633,"jay":3634,"kick":3635,"nav":3636,"ost":3637,"pin":3638,"pants":3639,"vous":3640,"inse":3641,"meat":3642,"chose":3643,"neck":3644,"trick":3645,"tight":3646,"consum":3647,"yellow":3648,"arts":3649,"quo":3650,"answers":3651,"akes":3652,"shadow":3653,"content":3654,"flag":3655,"virt":3656,"settle":3657,"valu":3658,"tony":3659,"generations":3660,"related":3661,"temple":3662,"pulled":3663,"levels":3664,"communication":3665,"allows":3666,"collabor":3667,"patterns":3668,"innovation":3669,"popular":3670,"execut":3671,"electricity":3672,"houses":3673,"rahul":3674,"volunte":3675,"agreed":3676,"opposite":3677,"distribut":3678,"cti":3679,"fas":3680,"fli":3681,"gap":3682,"mac":3683,"mama":3684,"rice":3685,"sate":3686,"tun":3687,"tum":3688,"tori":3689,"youtube":3690,"seed":3691,"arily":3692,"lli":3693,"iran":3694,"okja":3695,"actual":3696,"boat":3697,"wered":3698,"everyday":3699,"stock":3700,"guide":3701,"bron":3702,"chee":3703,"former":3704,"lesson":3705,"interview":3706,"shoo":3707,"opin":3708,"instance":3709,"decades":3710,"identify":3711,"balance":3712,"driver":3713,"chain":3714,"smaller":3715,"custom":3716,"languages":3717,"horse":3718,"equal":3719,"entirely":3720,"hospitals":3721,"messages":3722,"empty":3723,"laughs":3724,"creativity":3725,"dependent":3726,"finger":3727,"breathe":3728,"puppy":3729,"galaxies":3730,"religion":3731,"library":3732,"mosquito":3733,"satell":3734,"ather":3735,"cab":3736,"egy":3737,"hen":3738,"ior":3739,"itor":3740,"kitch":3741,"rick":3742,"ssed":3743,"slight":3744,"inct":3745,"eral":3746,"alarm":3747,"noon":3748,"covery":3749,"amp":3750,"anton":3751,"indu":3752,"ives":3753,"follo":3754,"ables":3755,"chocol":3756,"helps":3757,"commander":3758,"logist":3759,"memories":3760,"thoughts":3761,"virgin":3762,"cycle":3763,"harvest":3764,"wedding":3765,"experienced":3766,"falling":3767,"sending":3768,"steps":3769,"mike":3770,"engineers":3771,"stronger":3772,"deeply":3773,"brief":3774,"conversations":3775,"familiar":3776,"carrying":3777,"leadership":3778,"causes":3779,"multiple":3780,"narr":3781,"russians":3782,"significant":3783,"atoms":3784,"original":3785,"architecture":3786,"kaiju":3787,"focused":3788,"script":3789,"mathemat":3790,"az":3791,"cular":3792,"gers":3793,"hann":3794,"ius":3795,"rings":3796,"youth":3797,"alan":3798,"arrow":3799,"vere":3800,"wester":3801,"hest":3802,"goog":3803,"kee":3804,"hook":3805,"trap":3806,"ustr":3807,"odd":3808,"yester":3809,"ulate":3810,"shy":3811,"qual":3812,"fuel":3813,"central":3814,"clou":3815,"lovely":3816,"compon":3817,"compared":3818,"dram":3819,"kidding":3820,"brown":3821,"puzz":3822,"ultimately":3823,"busines":3824,"border":3825,"rooms":3826,"regard":3827,"continent":3828,"horri":3829,"expand":3830,"succeed":3831,"depends":3832,"emplo":3833,"soldiers":3834,"release":3835,"details":3836,"lawyer":3837,"lifes":3838,"nigeria":3839,"bacteria":3840,"chocolate":3841,"businesses":3842,".,":3843,"eh":3844,"lap":3845,"lunch":3846,"ology":3847,"pac":3848,"sd":3849,"sac":3850,"sque":3851,"tat":3852,"vity":3853,"wis":3854,"isra":3855,"mel":3856,"soap":3857,"aches":3858,"ghost":3859,"ady":3860,"users":3861,"button":3862,"contract":3863,"proof":3864,"compe":3865,"ressed":3866,"ila":3867,"whenever":3868,"histor":3869,"hip":3870,"estab":3871,"german":3872,"cric":3873,"heading":3874,"trees":3875,"treated":3876,"flat":3877,"highly":3878,"priya":3879,"leads":3880,"younger":3881,"tests":3882,"danny":3883,"tempor":3884,"organiz":3885,"subst":3886,"banks":3887,"maintain":3888,"villages":3889,"physics":3890,"scientific":3891,"summer":3892,"russia":3893,"oxide":3894,"rupt":3895,"mountains":3896,"locked":3897,"traditional":3898,"gather":3899,"assem":3900,"watched":3901,"judge":3902,"curious":3903,"email":3904,"repeat":3905,"license":3906,"bastard":3907,"consequences":3908,"ebola":3909,"bicycle":3910,"infrastructure":3911,"23":3912,"gross":3913,"ops":3914,"sword":3915,"reck":3916,"replace":3917,"argu":3918,"asy":3919,"holes":3920,"fection":3921,"deer":3922,"degre":3923,"pocket":3924,"convin":3925,"conference":3926,"managed":3927,"proto":3928,"permission":3929,"agers":3930,"igno":3931,"dith":3932,"reduc":3933,"bless":3934,"grass":3935,"aff":3936,"useful":3937,"goodbye":3938,"buried":3939,"spect":3940,"presents":3941,"suppose":3942,"personally":3943,"runs":3944,"vote":3945,"truck":3946,"region":3947,"osity":3948,"released":3949,"citizen":3950,"swan":3951,"dragons":3952,"officer":3953,"weapons":3954,"benefit":3955,"breathing":3956,"survival":3957,"reduce":3958,"associated":3959,"british":3960,"philosoph":3961,"surgery":3962,"degrees":3963,"daught":3964,"fash":3965,"gger":3966,"gang":3967,"lou":3968,"lat":3969,"rough":3970,"accoun":3971,"gos":3972,"ids":3973,"coordin":3974,"cher":3975,"female":3976,"teeth":3977,"celer":3978,"indic":3979,"tail":3980,"rescue":3981,"illy":3982,"dioxide":3983,"grace":3984,"spin":3985,"stole":3986,"bert":3987,"disappe":3988,"aked":3989,"hiv":3990,"shake":3991,"applic":3992,"broad":3993,"techni":3994,"judith":3995,"risks":3996,"transmit":3997,"delhi":3998,"wheel":3999,"direction":4000,"screaming":4001,"balls":4002,"extraordinary":4003,"determin":4004,"tasks":4005,"efficient":4006,"garden":4007,"suicide":4008,"accompl":4009,"advanced":4010,"mexico":4011,"motions":4012,"gdp":4013,"kitchen":4014,"employe":4015,"daughters":4016,"22":4017,"bun":4018,"hig":4019,"lone":4020,"mc":4021,"mult":4022,"tan":4023,"initi":4024,"aled":4025,"section":4026,"arrange":4027,"webs":4028,"whis":4029,"soli":4030,"coal":4031,"chron":4032,"rio":4033,"tire":4034,"complain":4035,"agent":4036,"bother":4037,"aster":4038,"background":4039,"wellbeing":4040,"guard":4041,"prepar":4042,"todays":4043,"cesses":4044,"angle":4045,"evil":4046,"boring":4047,"facebook":4048,"leading":4049,"hunger":4050,"speaker":4051,"bloody":4052,"physic":4053,"brian":4054,"sugar":4055,"princess":4056,"mirand":4057,"majority":4058,"committed":4059,"russian":4060,"graduate":4061,"advantage":4062,"trillion":4063,"narrative":4064,"google":4065,"fashion":4066,"ake":4067,"fru":4068,"gut":4069,"hmm":4070,"ium":4071,"ku":4072,"ky":4073,"kor":4074,"pure":4075,"inlaw":4076,"remote":4077,"tories":4078,"alle":4079,"beach":4080,"roo":4081,"forgot":4082,"ambit":4083,"adult":4084,"usion":4085,"contr":4086,"taste":4087,"artists":4088,"sake":4089,"shiv":4090,"ques":4091,"creates":4092,"distr":4093,"differences":4094,"fund":4095,"opened":4096,"billions":4097,"winning":4098,"barri":4099,"burning":4100,"hypo":4101,"equip":4102,"sorts":4103,"expected":4104,"roads":4105,"recei":4106,"definition":4107,"brilli":4108,"privile":4109,"strike":4110,"vari":4111,"defend":4112,"refugees":4113,"pandemic":4114,"vulnerable":4115,"victims":4116,"knee":4117,"influence":4118,"method":4119,"telome":4120,"fascin":4121,"followed":4122,"western":4123,"35":4124,"bid":4125,"bone":4126,"dur":4127,"kiss":4128,"kni":4129,"lon":4130,"lled":4131,"mn":4132,"mile":4133,"pit":4134,"rab":4135,"uk":4136,"whel":4137,"thy":4138,"inspir":4139,"remark":4140,"iter":4141,"alo":4142,"altern":4143,"orbit":4144,"orphan":4145,"below":4146,"rot":4147,"acceler":4148,"wire":4149,"chur":4150,"advis":4151,"hoping":4152,"mode":4153,"usual":4154,"aud":4155,"pool":4156,"condu":4157,"makers":4158,"pros":4159,"sher":4160,"rage":4161,"seemed":4162,"overwhel":4163,"embr":4164,"asshole":4165,"cheers":4166,"finds":4167,"syri":4168,"dynam":4169,"foundation":4170,"childrens":4171,"nervous":4172,"faced":4173,"elev":4174,"scen":4175,"politic":4176,"superman":4177,"jail":4178,"programs":4179,"graphic":4180,"confidence":4181,"ridic":4182,"planets":4183,"reported":4184,"soldier":4185,"circum":4186,"christian":4187,"pilot":4188,"suspect":4189,"benefits":4190,"slide":4191,"saru":4192,"currently":4193,"rapid":4194,"aunty":4195,"deeper":4196,"iraq":4197,"hungry":4198,"corruption":4199,"bronx":4200,"yesterday":4201,"clouds":4202,"organizations":4203,"knife":4204,"600":4205,"aa":4206,"award":4207,"bie":4208,"ffe":4209,"flies":4210,"ji":4211,"kar":4212,"pap":4213,"switch":4214,"wine":4215,"aning":4216,"alz":4217,"stre":4218,"sem":4219,"weather":4220,"heim":4221,"behave":4222,"chick":4223,"enty":4224,"abilities":4225,"unit":4226,"defe":4227,"plenty":4228,"maker":4229,"ulation":4230,"kings":4231,"agric":4232,"foss":4233,"stolen":4234,"pregn":4235,"mistakes":4236,"cheering":4237,"insurance":4238,"crash":4239,"restaur":4240,"drinking":4241,"funding":4242,"moral":4243,"limit":4244,"begins":4245,"staying":4246,"kenya":4247,"fourth":4248,"199":4249,"viet":4250,"researchers":4251,"ringing":4252,"apping":4253,"ticket":4254,"religious":4255,"deserve":4256,"cooperation":4257,"creatures":4258,"requires":4259,"ugly":4260,"fifth":4261,"spaces":4262,"shiva":4263,"75":4264,"cand":4265,"eco":4266,"file":4267,"ival":4268,"jun":4269,"jok":4270,"kal":4271,"pad":4272,"pher":4273,"paul":4274,"rum":4275,"twit":4276,"yn":4277,"zone":4278,"erik":4279,"tower":4280,"stic":4281,"staff":4282,"sets":4283,"armed":4284,"assed":4285,"aspect":4286,"ashes":4287,"loving":4288,"chin":4289,"amy":4290,"outs":4291,"peter":4292,"august":4293,"ups":4294,"upset":4295,"mann":4296,"express":4297,"ulations":4298,"apply":4299,"kingdom":4300,"rypt":4301,"crew":4302,"iest":4303,"cali":4304,"cloud":4305,"insight":4306,"childhood":4307,"lessons":4308,"dude":4309,"surren":4310,"planes":4311,"sigh":4312,"primary":4313,"dads":4314,"valley":4315,"norm":4316,"voices":4317,"june":4318,"champ":4319,"steel":4320,"venture":4321,"fired":4322,"sentence":4323,"confess":4324,"babe":4325,"explained":4326,"profession":4327,"ronnie":4328,"biological":4329,"darkness":4330,"materials":4331,"survived":4332,"criminal":4333,"fingers":4334,"nurses":4335,"separate":4336,"concerned":4337,"apolog":4338,"scratch":4339,"heaven":4340,"department":4341,"hannah":4342,"brilliant":4343,"cash":4344,"gig":4345,"gment":4346,"krypt":4347,"mum":4348,"nit":4349,"rush":4350,"tack":4351,"theart":4352,"alpha":4353,"lls":4354,"accur":4355,"adminis":4356,"holy":4357,"tee":4358,"tray":4359,"congrat":4360,"wolf":4361,"astron":4362,"wherever":4363,"spring":4364,"creation":4365,"emily":4366,"joined":4367,"choices":4368,"desk":4369,"engaged":4370,"techn":4371,"obst":4372,"facts":4373,"prize":4374,"drift":4375,"produced":4376,"mrs":4377,"fucked":4378,"tivity":4379,"latest":4380,"swear":4381,"status":4382,"employ":4383,"murder":4384,"secretary":4385,"electrical":4386,"sensit":4387,"circle":4388,"loaded":4389,"institution":4390,"properly":4391,"split":4392,"cartoon":4393,"korea":4394,"dimens":4395,"molecules":4396,"surrounded":4397,"granted":4398,"cricket":4399,"mirando":4400,"equipment":4401,"alternative":4402,"alzheim":4403,"bren":4404,"emotions":4405,"gates":4406,"niles":4407,"rs":4408,"vable":4409,"vors":4410,"rema":4411,"recomm":4412,"relie":4413,"represents":4414,"isms":4415,"item":4416,"anderson":4417,"sele":4418,"vegas":4419,"beth":4420,"beep":4421,"dogs":4422,"rome":4423,"acid":4424,"cops":4425,"ament":4426,"geo":4427,"abra":4428,"moves":4429,"unt":4430,"ceive":4431,"urally":4432,"upstairs":4433,"manager":4434,"plans":4435,"reser":4436,"agger":4437,"acts":4438,"igning":4439,"divide":4440,"bleed":4441,"stood":4442,"useless":4443,"bran":4444,"talent":4445,"distract":4446,"longterm":4447,"afternoon":4448,"waves":4449,"shots":4450,"sian":4451,"frid":4452,"france":4453,"solving":4454,"simon":4455,"prime":4456,"northern":4457,"charles":4458,"custo":4459,"naturally":4460,"dropped":4461,"operation":4462,"dealing":4463,"economics":4464,"witness":4465,"flood":4466,"engineer":4467,"jae":4468,"tured":4469,"silent":4470,"projects":4471,"defined":4472,"oceans":4473,"meaningful":4474,"cards":4475,"meetings":4476,"sympto":4477,"affected":4478,"challenging":4479,"offered":4480,"collap":4481,"possibility":4482,"required":4483,"defense":4484,"golden":4485,"heroes":4486,"kilo":4487,"determine":4488,"survey":4489,"jacket":4490,"construction":4491,"knock":4492,"celebrate":4493,"confirmed":4494,"vaccine":4495,"launched":4496,"algorithms":4497,"fabric":4498,"genetic":4499,"mathematics":4500,"website":4501,"twitter":4502,"symptoms":4503,"27":4504,"bite":4505,"cous":4506,"dare":4507,"dign":4508,"dens":4509,"ias":4510,"kat":4511,"pm":4512,"tall":4513,"iny":4514,"init":4515,"remove":4516,"reward":4517,"stro":4518,"noise":4519,"severe":4520,"assum":4521,"dood":4522,"coast":4523,"hob":4524,"neural":4525,"fest":4526,"iff":4527,"anti":4528,"plor":4529,"masters":4530,"excell":4531,"explor":4532,"shr":4533,"illance":4534,"woo":4535,"herself":4536,"needle":4537,"goods":4538,"assign":4539,"mistry":4540,"trial":4541,"laid":4542,"monitor":4543,"carefully":4544,"interact":4545,"drum":4546,"player":4547,"players":4548,"effort":4549,"curse":4550,"clever":4551,"patrick":4552,"hearts":4553,"transl":4554,"searching":4555,"signed":4556,"tested":4557,"profound":4558,"cutting":4559,"teams":4560,"protection":4561,"physically":4562,"sleeping":4563,"bike":4564,"confused":4565,"papers":4566,"anese":4567,"spoken":4568,"universal":4569,"rolling":4570,"sequence":4571,"ghana":4572,"struggling":4573,"require":4574,"smoke":4575,"advance":4576,"surveillance":4577,"prepared":4578,"alien":4579,"barely":4580,"sweetheart":4581,"structures":4582,"philip":4583,"shooting":4584,"alzheimers":4585,"bones":4586,"din":4587,"dust":4588,"dress":4589,"jin":4590,"jam":4591,"mone":4592,"muse":4593,"ole":4594,"omen":4595,"tissue":4596,"reject":4597,"refer":4598,"tol":4599,"sear":4600,"season":4601,"veter":4602,"asa":4603,"hab":4604,"ares":4605,"rom":4606,"chant":4607,"holly":4608,"union":4609,"define":4610,"canada":4611,"ifically":4612,"butter":4613,"poison":4614,"concent":4615,"inder":4616,"shor":4617,"seek":4618,"shel":4619,"overcome":4620,"izon":4621,"cents":4622,"minim":4623,"logists":4624,"intended":4625,"etc":4626,"owner":4627,"plays":4628,"braz":4629,"versity":4630,"imagination":4631,"stayed":4632,"driven":4633,"drivers":4634,"productive":4635,"viewed":4636,"opening":4637,"steady":4638,"barbar":4639,"organized":4640,"traits":4641,"appropri":4642,"mitt":4643,"statement":4644,"radical":4645,"buying":4646,"cognitive":4647,"situations":4648,"violent":4649,"cameras":4650,"invite":4651,"miracle":4652,"option":4653,"delivery":4654,"explore":4655,"belongs":4656,"neighbors":4657,"property":4658,"nurse":4659,"spiritual":4660,"pollution":4661,"religions":4662,"sandw":4663,"demonstr":4664,"manufacturing":4665,"bullshit":4666,"assume":4667,"schedu":4668,"newspaper":4669,"metaph":4670,"administr":4671,"150":4672,"28":4673,"dir":4674,"iency":4675,"jer":4676,"kit":4677,"mim":4678,"mend":4679,"mars":4680,"mice":4681,"punch":4682,"tars":4683,"vital":4684,"vince":4685,"thumb":4686,"injustice":4687,"invisible":4688,"anze":4689,"anthro":4690,"rely":4691,"returned":4692,"recru":4693,"toler":4694,"encies":4695,"encourage":4696,"veget":4697,"icking":4698,"robert":4699,"acles":4700,"ays":4701,"forts":4702,"forgotten":4703,"homo":4704,"user":4705,"autom":4706,"tears":4707,"proced":4708,"comment":4709,"expo":4710,"ilty":4711,"dip":4712,"affair":4713,"wells":4714,"worldwide":4715,"prefer":4716,"precise":4717,"markets":4718,"presence":4719,"studied":4720,"hibit":4721,"estim":4722,"monkey":4723,"lessly":4724,"crush":4725,"plank":4726,"drunk":4727,"mates":4728,"earn":4729,"stral":4730,"blocks":4731,"malay":4732,"rising":4733,"increased":4734,"steve":4735,"walker":4736,"hormon":4737,"darling":4738,"club":4739,"flee":4740,"flower":4741,"frequ":4742,"existence":4743,"satis":4744,"include":4745,"fitz":4746,"budget":4747,"hanging":4748,"telephone":4749,"gravity":4750,"institute":4751,"detect":4752,"susp":4753,"experiments":4754,"woods":4755,"castle":4756,"curiosity":4757,"lawyers":4758,"surprising":4759,"surprised":4760,"thirds":4761,"consciousness":4762,"tension":4763,"japanese":4764,"platform":4765,"commercial":4766,"chuckles":4767,"saturday":4768,"infected":4769,"francisco":4770,"valuable":4771,"convinced":4772,"louis":4773,"highest":4774,"solid":4775,"telomeres":4776,"fossil":4777,"remains":4778,"museum":4779,"\"[":4780,"nt":4781,"nan":4782,"nis":4783,"phere":4784,"rw":4785,"vac":4786,"retire":4787,"remitt":4788,"metal":4789,"weigh":4790,"beast":4791,"icts":4792,"codes":4793,"chimp":4794,"aband":4795,"unknown":4796,"trident":4797,"traged":4798,"perception":4799,"exposed":4800,"shif":4801,"diverse":4802,"stops":4803,"bubble":4804,"disorder":4805,"disappear":4806,"blu":4807,"clar":4808,"clicks":4809,"puts":4810,"carried":4811,"rub":4812,"chemistry":4813,"tooth":4814,"intu":4815,"efforts":4816,"walks":4817,"autism":4818,"holds":4819,"causing":4820,"196":4821,"networks":4822,"2008":4823,"magaz":4824,"mommy":4825,"ternal":4826,"reaching":4827,"score":4828,"occas":4829,"invited":4830,"ancestors":4831,"swing":4832,"accepted":4833,"explos":4834,"approaching":4835,"various":4836,"loyal":4837,"humili":4838,"package":4839,"criminals":4840,"mechanism":4841,"sustainable":4842,"origin":4843,"described":4844,"galaxy":4845,"washington":4846,"management":4847,"punish":4848,"passionate":4849,"constantly":4850,"temperature":4851,"embarrassed":4852,"navig":4853,"slightly":4854,"fruit":4855,"receiving":4856,"remarkable":4857,"church":4858,"circumst":4859,"surrender":4860,"sighs":4861,"dignity":4862,"brazil":4863,"plankton":4864,"chimpanze":4865,"aven":4866,"bally":4867,"fright":4868,"fought":4869,"knot":4870,"pus":4871,"pace":4872,"pump":4873,"panda":4874,"sin":4875,"scal":4876,"swed":4877,"silly":4878,"tick":4879,"va":4880,"wick":4881,"inated":4882,"inject":4883,"reaction":4884,"repair":4885,"islam":4886,"onom":4887,"ensure":4888,"stones":4889,"ario":4890,"heat":4891,"bean":4892,"solo":4893,"rocket":4894,"actor":4895,"rif":4896,"unlike":4897,"nowhere":4898,"deck":4899,"destru":4900,"ura":4901,"upper":4902,"congress":4903,"plate":4904,"mail":4905,"maps":4906,"quid":4907,"astro":4908,"bled":4909,"grid":4910,"empower":4911,"izes":4912,"firm":4913,"phra":4914,"assment":4915,"clark":4916,"ysis":4917,"marke":4918,"counting":4919,"choo":4920,"stands":4921,"minor":4922,"trigger":4923,"helpful":4924,"germany":4925,"desper":4926,"desire":4927,"monster":4928,"sites":4929,"surge":4930,"jection":4931,"colone":4932,"frag":4933,"headed":4934,"movements":4935,"flint":4936,"capture":4937,"warming":4938,"landing":4939,"priest":4940,"drives":4941,"datab":4942,"chase":4943,"burden":4944,"horn":4945,"operations":4946,"climb":4947,"gged":4948,"fleet":4949,"deploy":4950,"silver":4951,"mming":4952,"johnny":4953,"biology":4954,"fields":4955,"drawing":4956,"spreading":4957,"fortunate":4958,"suffer":4959,"fixed":4960,"aids":4961,"creature":4962,"pushing":4963,"flowers":4964,"combination":4965,"nutr":4966,"jacob":4967,"terrorist":4968,"fantastic":4969,"zoom":4970,"diagnosis":4971,"introduce":4972,"pounds":4973,"spanish":4974,"previous":4975,"quote":4976,"israel":4977,"papa":4978,"sweden":4979,".]":4980,"cass":4981,"ckets":4982,"ctivity":4983,"dumb":4984,"lun":4985,"mers":4986,"nah":4987,"pper":4988,"vant":4989,"via":4990,"yard":4991,"thus":4992,"thick":4993,"theater":4994,"attract":4995,"attempt":4996,"toward":4997,"ala":4998,"andre":4999,"stret":5000,"sees":5001,"wet":5002,"height":5003,"dome":5004,"acking":5005,"lover":5006,"cope":5007,"forces":5008,"geor":5009,"hol":5010,"....":5011,"imper":5012,"austral":5013,"thered":5014,"combat":5015,"exchange":5016,"ressing":5017,"resses":5018,"resili":5019,"artific":5020,"apparent":5021,"sail":5022,"ively":5023,"wol":5024,"dio":5025,"guilty":5026,"disgust":5027,"prescri":5028,"torrance":5029,"tribe":5030,"crap":5031,"opens":5032,"surely":5033,"visited":5034,"breast":5035,"intel":5036,"caes":5037,"facility":5038,"billy":5039,"hopefully":5040,"bond":5041,"horizon":5042,"batter":5043,"zeus":5044,"protected":5045,"magical":5046,"classic":5047,"grandmothers":5048,"passing":5049,"societies":5050,"glory":5051,"dedic":5052,"hairava":5053,"impacts":5054,"football":5055,"innocent":5056,"connections":5057,"immediate":5058,"devast":5059,"clip":5060,"franck":5061,"photographs":5062,"campus":5063,"necessarily":5064,"refugee":5065,"clusion":5066,"swimming":5067,"quarter":5068,"ella":5069,"reflect":5070,"duty":5071,"civiliz":5072,"article":5073,"slaves":5074,"dozen":5075,"tumor":5076,"cheese":5077,"opinion":5078,"techniques":5079,"scenario":5080,"ridiculous":5081,"krypton":5082,"congratulations":5083,"hormones":5084,"circumstances":5085,"49":5086,"aer":5087,"blog":5088,"fan":5089,"hits":5090,"jen":5091,"kim":5092,"khan":5093,"ored":5094,"pent":5095,"pant":5096,"smar":5097,"tes":5098,"tong":5099,"ull":5100,"uary":5101,"vas":5102,"thur":5103,"inve":5104,"encry":5105,"aling":5106,"stig":5107,"stable":5108,"leap":5109,"aside":5110,"belly":5111,"icon":5112,"notion":5113,"rocks":5114,"coin":5115,"ril":5116,"abad":5117,"abuse":5118,"nels":5119,"mov":5120,"units":5121,"features":5122,"tires":5123,"conver":5124,"conven":5125,"confront":5126,"protest":5127,"prophe":5128,"indus":5129,"ext":5130,"shield":5131,"agon":5132,"whoever":5133,"sparrow":5134,"ousing":5135,"guest":5136,"epide":5137,"dish":5138,"hug":5139,"joe":5140,"joke":5141,"intention":5142,"estate":5143,"asks":5144,"intervent":5145,"shocked":5146,"babys":5147,"colon":5148,"2020":5149,"waited":5150,"treating":5151,"tremend":5152,"farmer":5153,"importantly":5154,"nights":5155,"harley":5156,"hardly":5157,"transfer":5158,"globe":5159,"signals":5160,"hymen":5161,"drown":5162,"scul":5163,"2006":5164,"falls":5165,"weekend":5166,"consist":5167,"occup":5168,"records":5169,"cultures":5170,"greek":5171,"stark":5172,"trading":5173,"tradition":5174,"cooperate":5175,"assess":5176,"elimin":5177,"combined":5178,"landscape":5179,"awareness":5180,"significantly":5181,"survivors":5182,"reduction":5183,"describe":5184,"mentioned":5185,"affordable":5186,"corporate":5187,"linked":5188,"swim":5189,"therapy":5190,"therapies":5191,"savings":5192,"increasingly":5193,"objective":5194,"mosquitoes":5195,"egypt":5196,"sdgs":5197,"wisdom":5198,"employees":5199,"koran":5200,"elevator":5201,"pregnant":5202,"restaurant":5203,"brendan":5204,"dirty":5205,"abandon":5206,"investor":5207,"bum":5208,"cort":5209,"caut":5210,"cution":5211,"dc":5212,"dor":5213,"fancy":5214,"gation":5215,"nap":5216,"rates":5217,"ske":5218,"sides":5219,"twent":5220,"zod":5221,"thesis":5222,"oul":5223,"ato":5224,"ern":5225,"toy":5226,"enem":5227,"enomen":5228,"staring":5229,"argue":5230,"bered":5231,"sole":5232,"lio":5233,"forth":5234,"entered":5235,"advo":5236,"unbelie":5237,"decre":5238,"plement":5239,"trapped":5240,"powered":5241,"convince":5242,"apes":5243,"april":5244,"shine":5245,"sharm":5246,"shirt":5247,"illness":5248,"ideal":5249,"aston":5250,"diversity":5251,"essential":5252,"chances":5253,"prm":5254,"phenomen":5255,"discrimin":5256,"discovery":5257,"blan":5258,"offices":5259,"click":5260,"classes":5261,"chest":5262,"intim":5263,"intense":5264,"desc":5265,"handsome":5266,"shore":5267,"believes":5268,"frustr":5269,"2010":5270,"mindful":5271,"install":5272,"obama":5273,"observ":5274,"angers":5275,"richer":5276,"parad":5277,"parking":5278,"attend":5279,"imagined":5280,"muscles":5281,"generate":5282,"struck":5283,"polic":5284,"medium":5285,"educated":5286,"educational":5287,"bedroom":5288,"environments":5289,"equality":5290,"potentially":5291,"director":5292,"flex":5293,"writer":5294,"secrets":5295,"besides":5296,"groans":5297,"traveled":5298,"pulling":5299,"medicines":5300,"communications":5301,"electron":5302,"feeding":5303,"feedback":5304,"crossed":5305,"official":5306,"pencil":5307,"specifically":5308,"clients":5309,"raising":5310,"provided":5311,"providing":5312,"bella":5313,"transpare":5314,"instructions":5315,"adopt":5316,"throat":5317,"tracking":5318,"hiding":5319,"colleague":5320,"anticip":5321,"troops":5322,"unex":5323,"route":5324,"genesis":5325,"principles":5326,"analyze":5327,"resistance":5328,"shouting":5329,"mystery":5330,"distribution":5331,"satellite":5332,"hippo":5333,"argument":5334,"accounts":5335,"determined":5336,"chronic":5337,"preparing":5338,"politicians":5339,"normally":5340,"friday":5341,"excellent":5342,"sandwich":5343,"metaphor":5344,"colonel":5345,"movies":5346,"sculpt":5347,"enemies":5348,"55":5349,"brow":5350,"bene":5351,"fis":5352,"hated":5353,"jing":5354,"nder":5355,"nasa":5356,"ow":5357,"thom":5358,"inhal":5359,"recover":5360,"ert":5361,"meal":5362,"leban":5363,"sey":5364,"hemis":5365,"hepha":5366,"asha":5367,"beer":5368,"betray":5369,"edon":5370,"hack":5371,"acqu":5372,"lyn":5373,"goti":5374,"chatter":5375,"hollow":5376,"negoti":5377,"motor":5378,"impress":5379,"teles":5380,"conce":5381,"tape":5382,"exists":5383,"istion":5384,"dile":5385,"amelie":5386,"prince":5387,"prices":5388,"brut":5389,"tali":5390,"phon":5391,"bugs":5392,"assault":5393,"disappoint":5394,"disaster":5395,"cheap":5396,"insist":5397,"lav":5398,"lake":5399,"gene":5400,"server":5401,"vibr":5402,"internal":5403,"drone":5404,"drones":5405,"brook":5406,"2015":5407,"closing":5408,"stranger":5409,"eval":5410,"attitude":5411,"womens":5412,"airplane":5413,"generally":5414,"charity":5415,"boyfriend":5416,"bills":5417,"deadly":5418,"speaks":5419,"addition":5420,"hyper":5421,"nake":5422,"fallen":5423,"pulse":5424,"trusted":5425,"freak":5426,"expecting":5427,"attacked":5428,"industries":5429,"relevant":5430,"60s":5431,"palest":5432,"devil":5433,"waters":5434,"elias":5435,"european":5436,"awful":5437,"effectively":5438,"detail":5439,"nesses":5440,"nuts":5441,"honestly":5442,"quarters":5443,"thirty":5444,"sensors":5445,"routine":5446,"participants":5447,"contribute":5448,"bathroom":5449,"elder":5450,"traumatic":5451,"transportation":5452,"bobby":5453,"session":5454,"consumers":5455,"customers":5456,"temporary":5457,"contrast":5458,"prosper":5459,"dynamic":5460,"obstacles":5461,"sensitive":5462,"tragedy":5463,"occasion":5464,"policies":5465,"hemisphere":5466,"hephaistion":5467,"29":5468,"ears":5469,"fare":5470,"fate":5471,"gon":5472,"housing":5473,"lis":5474,"lts":5475,"mant":5476,"nick":5477,"nia":5478,"obe":5479,"ritu":5480,"sno":5481,"slo":5482,"snake":5483,"vy":5484,"wings":5485,"tha":5486,"thin":5487,"incent":5488,"ana":5489,"rever":5490,"erra":5491,"stal":5492,"beating":5493,"whist":5494,"escap":5495,"ica":5496,"rope":5497,"loser":5498,"chasing":5499,"ambul":5500,"absor":5501,"unable":5502,"pee":5503,"fet":5504,"debt":5505,"antib":5506,"pled":5507,"termin":5508,"trace":5509,"tricks":5510,"poo":5511,"convict":5512,"comic":5513,"comics":5514,"ula":5515,"wayne":5516,"diet":5517,"everybodys":5518,"bles":5519,"pride":5520,"centu":5521,"centers":5522,"marg":5523,"council":5524,"helic":5525,"aka":5526,"shoulder":5527,"childs":5528,"genius":5529,"serving":5530,"coron":5531,"interface":5532,"colors":5533,"sessed":5534,"kills":5535,"flash":5536,"capita":5537,"walshy":5538,"expert":5539,"begun":5540,"producing":5541,"juven":5542,"hunting":5543,"delic":5544,"delay":5545,"chaos":5546,"eleph":5547,"election":5548,"wheels":5549,"futura":5550,"drove":5551,"breakfast":5552,"particles":5553,"organic":5554,"deaths":5555,"metro":5556,"eaten":5557,"supported":5558,"perfectly":5559,"difficul":5560,"confident":5561,"groaning":5562,"traveling":5563,"murdered":5564,"reports":5565,"worthy":5566,"spending":5567,"options":5568,"evolved":5569,"affects":5570,"detection":5571,"detector":5572,"eliza":5573,"forests":5574,"democratic":5575,"index":5576,"psychological":5577,"heavi":5578,"vulnerability":5579,"declared":5580,"japan":5581,"symbol":5582,"scary":5583,"revenge":5584,"itarian":5585,"grunting":5586,"typical":5587,"typically":5588,"consumer":5589,"guaran":5590,"insects":5591,"squee":5592,"accomplish":5593,"lonely":5594,"appropriate":5595,"fitzpatrick":5596,"retirement":5597,"marketing":5598,"artificial":5599,"encryption":5600,"tremendous":5601,"beneath":5602,"rituals":5603,"elizabeth":5604,"33":5605,"47":5606,"ape":5607,"bars":5608,"bass":5609,"bhairava":5610,"cave":5611,"cache":5612,"dk":5613,"dump":5614,"dressed":5615,"eve":5616,"ely":5617,"eigh":5618,"fus":5619,"gory":5620,"kis":5621,"mumb":5622,"piss":5623,"rit":5624,"rors":5625,"tay":5626,"tab":5627,"wars":5628,"tham":5629,"react":5630,"regre":5631,"ati":5632,"atically":5633,"encounter":5634,"itution":5635,"ordered":5636,"nose":5637,"leep":5638,"lecture":5639,"ashed":5640,"cow":5641,"cock":5642,"abstr":5643,"adapt":5644,"holi":5645,"neath":5646,"unlikely":5647,"feyn":5648,"willi":5649,"tric":5650,"yourselves":5651,"promo":5652,"processes":5653,"indist":5654,"perman":5655,"apple":5656,"safer":5657,"ilit":5658,"agency":5659,"sue":5660,"suck":5661,"suits":5662,"raw":5663,"inevit":5664,"foo":5665,"dia":5666,"divor":5667,"whereas":5668,"stopping":5669,"worker":5670,"brice":5671,"tless":5672,"lifetime":5673,"carly":5674,"underground":5675,"underneath":5676,"checking":5677,"realistic":5678,"engers":5679,"england":5680,"icted":5681,"friendly":5682,"ulture":5683,"captured":5684,"warn":5685,"aircraft":5686,"percentage":5687,"healthier":5688,"technological":5689,"pected":5690,"africans":5691,"elect":5692,"burg":5693,"added":5694,"southern":5695,"paint":5696,"reasonable":5697,"photography":5698,"earths":5699,"economies":5700,"classical":5701,"hitting":5702,"ibility":5703,"mmm":5704,"existed":5705,"prisoners":5706,"recording":5707,"koo":5708,"belonging":5709,"wasting":5710,"analysis":5711,"slip":5712,"achieved":5713,"entertain":5714,"jumped":5715,"falcon":5716,"instrument":5717,"represented":5718,"graduated":5719,"pirate":5720,"documents":5721,"confirm":5722,"introduced":5723,"pills":5724,"announced":5725,"continued":5726,"debate":5727,"symbols":5728,"measures":5729,"christmas":5730,"immigrants":5731,"macedon":5732,"henry":5733,"component":5734,"dramatic":5735,"horrible":5736,"establish":5737,"ignore":5738,"district":5739,"mnkoo":5740,"chicken":5741,"relief":5742,"jaeger":5743,"remittances":5744,"onomous":5745,"destruction":5746,"phrase":5747,"nutrition":5748,"caesar":5749,"tongue":5750,"skelet":5751,"sharmila":5752,"unexpected":5753,"centuries":5754,"helicop":5755,"mumbai":5756,"taylor":5757,"cig":5758,"gies":5759,"kward":5760,"leng":5761,"nin":5762,"nons":5763,"oly":5764,"rational":5765,"swit":5766,"twi":5767,"tank":5768,"vid":5769,"wk":5770,"wand":5771,"thand":5772,"reform":5773,"remem":5774,"removed":5775,"ised":5776,"toxic":5777,"encing":5778,"stab":5779,"stack":5780,"leon":5781,"argent":5782,"arrang":5783,"asleep":5784,"beloved":5785,"hae":5786,"hael":5787,"dot":5788,"dots":5789,"acad":5790,"golf":5791,"lia":5792,"lois":5793,"outcome":5794,"outbreak":5795,"adjust":5796,"nest":5797,"nets":5798,"authen":5799,"worn":5800,"somewhat":5801,"promote":5802,"tage":5803,"export":5804,"excess":5805,"extin":5806,"external":5807,"yep":5808,"boston":5809,"sheet":5810,"everythings":5811,"gray":5812,"crete":5813,"prick":5814,"tale":5815,"lifestyle":5816,"marks":5817,"cheer":5818,"stub":5819,"ptions":5820,"homeless":5821,"vio":5822,"finance":5823,"interrup":5824,"talks":5825,"dufres":5826,"compare":5827,"planned":5828,"smith":5829,"smiling":5830,"oba":5831,"capability":5832,"cert":5833,"identified":5834,"attached":5835,"importance":5836,"muscle":5837,"muslim":5838,"grows":5839,"cake":5840,"july":5841,"juice":5842,"lane":5843,"transition":5844,"transmission":5845,"chap":5846,"univer":5847,"speakers":5848,"craw":5849,"bonds":5850,"painful":5851,"hydr":5852,"horses":5853,"aimed":5854,"equival":5855,"passengers":5856,"figures":5857,"flesh":5858,"appears":5859,"passes":5860,"attacks":5861,"statue":5862,"locations":5863,"majest":5864,"legit":5865,"agreement":5866,"possibilities":5867,"bags":5868,"critic":5869,"throwing":5870,"innovations":5871,"precious":5872,"awkward":5873,"separated":5874,"neuroscience":5875,"fundamentally":5876,"titan":5877,"myths":5878,"stealing":5879,"boundaries":5880,"claims":5881,"category":5882,"january":5883,"incident":5884,"guardi":5885,"virtual":5886,"philosophy":5887,"latin":5888,"ambitious":5889,"privilege":5890,"rapidly":5891,"agriculture":5892,"professionals":5893,"density":5894,"exposure":5895,"wolves":5896,"intellect":5897,"epidemic":5898,"unbelievable":5899,"indistinct":5900,"length":5901,"48":5902,"bay":5903,"bage":5904,"cs":5905,"cough":5906,"dent":5907,"dum":5908,"gur":5909,"ilet":5910,"jon":5911,"obey":5912,"oog":5913,"pause":5914,"patch":5915,"sling":5916,"tone":5917,"uv":5918,"vard":5919,"inch":5920,"inform":5921,"infin":5922,"anno":5923,"attribut":5924,"enable":5925,"encour":5926,"allies":5927,"alphon":5928,"stan":5929,"sten":5930,"stations":5931,"stake":5932,"arse":5933,"weed":5934,"hai":5935,"hay":5936,"soviet":5937,"doc":5938,"wives":5939,"wigg":5940,"loop":5941,"chat":5942,"chic":5943,"chlor":5944,"chung":5945,"ads":5946,"ador":5947,"advert":5948,"hoo":5949,"hopes":5950,"mod":5951,"peak":5952,"fewer":5953,"implic":5954,"implement":5955,"delive":5956,"urge":5957,"tile":5958,"tied":5959,"mankind":5960,"pla":5961,"proport":5962,"odds":5963,"commission":5964,"ague":5965,"wanting":5966,"cia":5967,"spark":5968,"letting":5969,"amed":5970,"stomach":5971,"cream":5972,"pharm":5973,"bug":5974,"disrup":5975,"spectr":5976,"joint":5977,"partners":5978,"monday":5979,"wrap":5980,"sita":5981,"pathetic":5982,"meanwhile":5983,"restr":5984,"handed":5985,"corp":5986,"interaction":5987,"shops":5988,"sierra":5989,"engines":5990,"20th":5991,"strangers":5992,"girlfriend":5993,"cleared":5994,"experts":5995,"sorbon":5996,"viruses":5997,"sett":5998,"wondered":5999,"transformation":6000,"regis":6001,"hydro":6002,"50s":6003,"fires":6004,"hormone":6005,"2009":6006,"topic":6007,"probability":6008,"positions":6009,"magnet":6010,"equity":6011,"presidential":6012,"closely":6013,"drago":6014,"distur":6015,"glasses":6016,"applied":6017,"scope":6018,"radar":6019,"tickets":6020,"recorded":6021,"located":6022,"prints":6023,"protecting":6024,"invas":6025,"arrive":6026,"variety":6027,"judgment":6028,"resource":6029,"70s":6030,"snap":6031,"mobili":6032,"robbie":6033,"apartment":6034,"neurogenesis":6035,"80s":6036,"jimmy":6037,"victori":6038,"90s":6039,"aunt":6040,"performing":6041,"vehicles":6042,"title":6043,"efficiency":6044,"printed":6045,"vaccines":6046,"wealthy":6047,"laboratory":6048,"frankly":6049,"temperatures":6050,"clinical":6051,"dozens":6052,"sharp":6053,"volunteers":6054,"flip":6055,"sacrif":6056,"reducing":6057,"roughly":6058,"roots":6059,"barrier":6060,"embrace":6061,"technical":6062,"recommend":6063,"initial":6064,"magazine":6065,"solomon":6066,"australia":6067,"civilization":6068,"taliban":6069,"evalu":6070,"ambulance":6071,"cachet":6072,"regret":6073,"remembered":6074,"dufresne":6075,"delivered":6076,"spectrum":6077,"sorbonne":6078,"sacrifice":6079,"athe":6080,"bc":6081,"bia":6082,"bial":6083,"bapt":6084,"dict":6085,"ec":6086,"fs":6087,"ghe":6088,"gans":6089,"ix":6090,"jar":6091,"mam":6092,"oo":6093,"pd":6094,"ration":6095,"rhy":6096,"tto":6097,"tren":6098,"uel":6099,"vour":6100,"zan":6101,"rep":6102,"reput":6103,"republic":6104,"ata":6105,"atl":6106,"ises":6107,"tocin":6108,"toilet":6109,"enger":6110,"itus":6111,"stam":6112,"stability":6113,"lean":6114,"armor":6115,"belt":6116,"icient":6117,"arest":6118,"dose":6119,"doaa":6120,"ros":6121,"acters":6122,"acular":6123,"co2":6124,"coc":6125,"covers":6126,"fornia":6127,"abol":6128,"adam":6129,"neut":6130,"mood":6131,"modif":6132,"und":6133,"unclear":6134,"peers":6135,"imens":6136,"degrad":6137,"poe":6138,"tip":6139,"conqu":6140,"convent":6141,"tag":6142,"tap":6143,"resur":6144,"rescu":6145,"ulated":6146,"ultra":6147,"ille":6148,"shal":6149,"aggress":6150,"boom":6151,"rens":6152,"derabad":6153,"guitar":6154,"brush":6155,"fuels":6156,"assass":6157,"disci":6158,"blade":6159,"joes":6160,"favour":6161,"preser":6162,"presidents":6163,"trials":6164,"drought":6165,"engaging":6166,"ictions":6167,"2014":6168,"2016":6169,"closes":6170,"vised":6171,"functions":6172,"warned":6173,"parli":6174,"cleitus":6175,"borders":6176,"stays":6177,"harvard":6178,"voted":6179,"transformed":6180,"characters":6181,"experiencing":6182,"globally":6183,"stein":6184,"mercy":6185,"basket":6186,"fuckin":6187,"hyderabad":6188,"fortune":6189,"dropping":6190,"designs":6191,"designers":6192,"michael":6193,"breakthrough":6194,"particle":6195,"screams":6196,"sunday":6197,"appeared":6198,"sexy":6199,"touched":6200,"stressful":6201,"sports":6202,"failing":6203,"connecting":6204,"boxes":6205,"predic":6206,"capitalism":6207,"revolutionary":6208,"hiccup":6209,"increases":6210,"victor":6211,"pirates":6212,"repeated":6213,"sources":6214,"constructed":6215,"oxytocin":6216,"authority":6217,"clusive":6218,"liberal":6219,"songs":6220,"assistant":6221,"principle":6222,"molecule":6223,"revenue":6224,"previously":6225,"mixed":6226,"optimism":6227,"refused":6228,"motivated":6229,"executive":6230,"seeds":6231,"components":6232,"puzzles":6233,"laptop":6234,"prototype":6235,"application":6236,"durga":6237,"inspiration":6238,"sheriff":6239,"overwhelming":6240,"stream":6241,"california":6242,"items":6243,"customer":6244,"shrink":6245,"administration":6246,"automated":6247,"andrew":6248,"apparently":6249,"dedicated":6250,"mindfulness":6251,"hippocampus":6252,"sculpture":6253,"lebanon":6254,"impressive":6255,"squeeze":6256,"feynman":6257,"cigare":6258,"authentic":6259,"stubborn":6260,"violet":6261,"alphonse":6262,"chunghae":6263,"ultraviolet":6264,"31":6265,"37":6266,"cable":6267,"eg":6268,"fred":6269,"fits":6270,"gam":6271,"hm":6272,"hans":6273,"ipped":6274,"jum":6275,"jah":6276,"jang":6277,"koba":6278,"lg":6279,"lum":6280,"lished":6281,"nd":6282,"naked":6283,"pis":6284,"ptem":6285,"rant":6286,"rama":6287,"tends":6288,"ume":6289,"uma":6290,"wreck":6291,"zip":6292,"tho":6293,"thra":6294,"inian":6295,"infant":6296,"theme":6297,"rem":6298,"rev":6299,"replaced":6300,"iste":6301,"alous":6302,"orient":6303,"sticks":6304,"septem":6305,"notes":6306,"widow":6307,"gotham":6308,"liar":6309,"lips":6310,"lihood":6311,"forgiven":6312,"rip":6313,"abai":6314,"adventure":6315,"dem":6316,"ceo":6317,"tering":6318,"trash":6319,"tier":6320,"conclusion":6321,"pling":6322,"prop":6323,"propo":6324,"proven":6325,"perceive":6326,"comments":6327,"explan":6328,"extend":6329,"ateful":6330,"illes":6331,"agencies":6332,"suffe":6333,"bold":6334,"boats":6335,"endor":6336,"veness":6337,"blew":6338,"grateful":6339,"stored":6340,"newborn":6341,"overall":6342,"berg":6343,"mentor":6344,"offs":6345,"caring":6346,"miser":6347,"pressing":6348,"turkey":6349,"genome":6350,"mont":6351,"shower":6352,"corals":6353,"interro":6354,"shopping":6355,"earned":6356,"2012":6357,"cloth":6358,"breach":6359,"treasure":6360,"landed":6361,"cyber":6362,"limits":6363,"italy":6364,"italian":6365,"harassment":6366,"hunt":6367,"charlie":6368,"elsewhere":6369,"pretend":6370,"dani":6371,"dancing":6372,"globalization":6373,"educate":6374,"drey":6375,"operating":6376,"designer":6377,"breaks":6378,"excite":6379,"magn":6380,"drawn":6381,"screens":6382,"approx":6383,"madi":6384,"films":6385,"armies":6386,"royal":6387,"radi":6388,"existing":6389,"squad":6390,"octo":6391,"alexand":6392,"practical":6393,"activities":6394,"allowing":6395,"grave":6396,"mirror":6397,"softly":6398,"axis":6399,"rolls":6400,"crops":6401,"challenged":6402,"tracks":6403,"recognition":6404,"twist":6405,"suspic":6406,"yearolds":6407,"fishing":6408,"enjoying":6409,"sarah":6410,"smoking":6411,"blowing":6412,"cooking":6413,"cooked":6414,"narrow":6415,"filling":6416,"concern":6417,"thrown":6418,"uganda":6419,"architect":6420,"corporation":6421,"corporations":6422,"scrap":6423,"paintings":6424,"focusing":6425,"laser":6426,"ellen":6427,"diagnosed":6428,"assistance":6429,"bruce":6430,"cartoons":6431,"beliefs":6432,"isolated":6433,"trauma":6434,"grunts":6435,"insect":6436,"settlement":6437,"collaboration":6438,"ctives":6439,"satellites":6440,"assembly":6441,"reduced":6442,"disappeared":6443,"fascinating":6444,"conduct":6445,"apologize":6446,"tackle":6447,"kilometers":6448,"stroke":6449,"searched":6450,"shelter":6451,"diplo":6452,"clarity":6453,"punishment":6454,"database":6455,"investors":6456,"twenty":6457,"heavily":6458,"nonsense":6459,"guardian":6460,"reputation":6461,"september":6462,"suffered":6463,"3d":6464,"bin":6465,"bac":6466,"bies":6467,"cmon":6468,"cats":6469,"dys":6470,"echo":6471,"fiction":6472,"gus":6473,"jury":6474,"kh":6475,"oi":6476,"ooh":6477,"pting":6478,"pages":6479,"rade":6480,"sne":6481,"skept":6482,"tam":6483,"tread":6484,"zen":6485,"infl":6486,"infection":6487,"injection":6488,"reo":6489,"review":6490,"reverse":6491,"replic":6492,"alco":6493,"alice":6494,"altru":6495,"select":6496,"vey":6497,"rover":6498,"liquid":6499,"idal":6500,"cot":6501,"coach":6502,"ching":6503,"chor":6504,"entering":6505,"outer":6506,"outta":6507,"adap":6508,"neo":6509,"neu":6510,"moses":6511,"unde":6512,"fears":6513,"iment":6514,"dece":6515,"tear":6516,"pless":6517,"urgent":6518,"pow":6519,"powers":6520,"someday":6521,"managers":6522,"proved":6523,"expression":6524,"yelling":6525,"ultural":6526,"sage":6527,"sahar":6528,"bored":6529,"inequality":6530,"ppy":6531,"tsun":6532,"creep":6533,"achilles":6534,"channels":6535,"firing":6536,"disorders":6537,"centi":6538,"blank":6539,"vessel":6540,"marshal":6541,"chosen":6542,"turing":6543,"logic":6544,"kindness":6545,"supp":6546,"cares":6547,"memor":6548,"jee":6549,"jewel":6550,"frau":6551,"fraud":6552,"ensus":6553,"friendship":6554,"understands":6555,"instantly":6556,"obsessed":6557,"killer":6558,"highway":6559,"airplanes":6560,"cycl":6561,"ballo":6562,"imagin":6563,"dried":6564,"hardest":6565,"collection":6566,"facial":6567,"facilities":6568,"charged":6569,"element":6570,"elements":6571,"addressing":6572,"finest":6573,"skull":6574,"drew":6575,"operate":6576,"2005":6577,"sooner":6578,"equally":6579,"grandfather":6580,"placing":6581,"paste":6582,"figuring":6583,"supporting":6584,"consult":6585,"scores":6586,"treatments":6587,"targets":6588,"largely":6589,"marker":6590,"posted":6591,"straw":6592,"greely":6593,"circles":6594,"gasps":6595,"fairly":6596,"strip":6597,"peaceful":6598,"nonprofit":6599,"officers":6600,"magician":6601,"slave":6602,"amongst":6603,"widely":6604,"cruel":6605,"decisionmaking":6606,"pollin":6607,"remaining":6608,"sustained":6609,"intelligent":6610,"sophistic":6611,"authorities":6612,"mortality":6613,"knees":6614,"picking":6615,"chemicals":6616,"laundry":6617,"subjects":6618,"discussion":6619,"thrive":6620,"clinic":6621,"slavery":6622,"federal":6623,"nucle":6624,"priority":6625,"reckon":6626,"fascinated":6627,"orphanage":6628,"syrian":6629,"chinas":6630,"accurate":6631,"astronaut":6632,"abraham":6633,"bleeding":6634,"collapse":6635,"schedule":6636,"procedure":6637,"estimated":6638,"malaysian":6639,"domestic":6640,"intervention":6641,"ashamed":6642,"incentives":6643,"abstract":6644,"diabet":6645,"divorce":6646,"equivalent":6647,"oogway":6648,"parliament":6649,"lgbt":6650,"forgiveness":6651,"dreyfus":6652,"800":6653,"bis":6654,"bust":6655,"cad":6656,"cine":6657,"dm":6658,"dv":6659,"fence":6660,"gant":6661,"ghed":6662,"hh":6663,"jas":6664,"kins":6665,"lately":6666,"mma":6667,"ncy":6668,"obes":6669,"pour":6670,"rine":6671,"sig":6672,"swo":6673,"smu":6674,"sits":6675,"twin":6676,"wrest":6677,"thief":6678,"incar":6679,"intri":6680,"independ":6681,"independent":6682,"rein":6683,"recall":6684,"returning":6685,"ising":6686,"enab":6687,"encoun":6688,"enlight":6689,"aly":6690,"sting":6691,"stad":6692,"stun":6693,"lex":6694,"leone":6695,"heh":6696,"hears":6697,"edward":6698,"haha":6699,"socalled":6700,"domain":6701,"goa":6702,"goli":6703,"liver":6704,"loans":6705,"loose":6706,"coat":6707,"forbid":6708,"chro":6709,"geous":6710,"abs":6711,"ading":6712,"hop":6713,"fecti":6714,"decent":6715,"depressed":6716,"ifer":6717,"cel":6718,"cere":6719,"herent":6720,"pleas":6721,"pole":6722,"pockets":6723,"tial":6724,"consent":6725,"percept":6726,"agents":6727,"illustr":6728,"bollo":6729,"quin":6730,"rail":6731,"raven":6732,"endless":6733,"shepher":6734,"asty":6735,"newton":6736,"guards":6737,"teller":6738,"bris":6739,"downstairs":6740,"phy":6741,"blast":6742,"preced":6743,"marine":6744,"counsel":6745,"selfish":6746,"insane":6747,"hired":6748,"logically":6749,"lawn":6750,"monsters":6751,"sities":6752,"serge":6753,"compat":6754,"jealous":6755,"believing":6756,"socio":6757,"2030":6758,"mindset":6759,"mighty":6760,"funds":6761,"persons":6762,"flour":6763,"gipsy":6764,"runner":6765,"evac":6766,"attan":6767,"autonomous":6768,"valent":6769,"missile":6770,"missiles":6771,"generated":6772,"productivity":6773,"collected":6774,"listened":6775,"delta":6776,"amaz":6777,"questioning":6778,"publish":6779,"brotherinlaw":6780,"burned":6781,"additional":6782,"addiction":6783,"merchant":6784,"souls":6785,"photograp":6786,"profits":6787,"researcher":6788,"publicly":6789,"2007":6790,"doub":6791,"porter":6792,"hitler":6793,"views":6794,"flew":6795,"distant":6796,"invested":6797,"investments":6798,"summit":6799,"checked":6800,"marked":6801,"bench":6802,"dawn":6803,"practicing":6804,"sugars":6805,"activate":6806,"failures":6807,"touching":6808,"milk":6809,"literature":6810,"legend":6811,"pilots":6812,"crop":6813,"gorgeous":6814,"ethnic":6815,"entrepreneu":6816,"penn":6817,"persist":6818,"compassionate":6819,"slum":6820,"complexity":6821,"taxi":6822,"flows":6823,"separation":6824,"conflicts":6825,"strengthen":6826,"concerns":6827,"periods":6828,"mechanical":6829,"execution":6830,"emails":6831,"inspire":6832,"pointing":6833,"terrorism":6834,"warriors":6835,"partnership":6836,"mortg":6837,"participate":6838,"folding":6839,"bruno":6840,"announce":6841,"dutch":6842,"divid":6843,"divided":6844,"collectively":6845,"korean":6846,"schol":6847,"revealed":6848,"mysterious":6849,"templeton":6850,"opinions":6851,"egyp":6852,"dramatically":6853,"puzzle":6854,"regardless":6855,"tattoo":6856,"historical":6857,"established":6858,"applications":6859,"barriers":6860,"defeat":6861,"joking":6862,"aspects":6863,"confession":6864,"dimensions":6865,"cousins":6866,"veterans":6867,"anthropo":6868,"intuitive":6869,"chimpanzee":6870,"islamic":6871,"surgeon":6872,"george":6873,"resilience":6874,"smarter":6875,"guests":6876,"caution":6877,"transparency":6878,"dilemma":6879,"helicopter":6880,"majesty":6881,"intellectual":6882,"baptiste":6883,"imensional":6884,"excitement":6885,"october":6886,"alcohol":6887,"underest":6888,"balloon":6889,"sophisticated":6890,"obesity":6891,"goliath":6892,"entrepreneurial":6893,"32":6894,"34":6895,"52":6896,"65":6897,"95":6898,"ayou":6899,"avi":6900,"apers":6901,"bby":6902,"bak":6903,"bible":6904,"ccer":6905,"dess":6906,"dense":6907,"fes":6908,"gand":6909,"gall":6910,"glim":6911,"iop":6912,"itors":6913,"jane":6914,"kent":6915,"kong":6916,"kyo":6917,"lers":6918,"lump":6919,"mri":6920,"pard":6921,"pitch":6922,"rust":6923,"sally":6924,"tact":6925,"ud":6926,"vuma":6927,"wage":6928,"wages":6929,"yd":6930,"thie":6931,"inven":6932,"inju":6933,"anony":6934,"erals":6935,"organs":6936,"stim":6937,"stink":6938,"stann":6939,"leaf":6940,"leys":6941,"ara":6942,"arin":6943,"bees":6944,"behalf":6945,"haun":6946,"soccer":6947,"roger":6948,"actors":6949,"aye":6950,"cobra":6951,"chart":6952,"verbal":6953,"gee":6954,"abroad":6955,"uncomfortable":6956,"pees":6957,"fever":6958,"trai":6959,"trunk":6960,"urgency":6961,"pod":6962,"poet":6963,"tians":6964,"conclu":6965,"manh":6966,"manner":6967,"promotion":6968,"proceed":6969,"tai":6970,"exhal":6971,"extension":6972,"ulating":6973,"shir":6974,"shining":6975,"illiter":6976,"seeking":6977,"inet":6978,"spat":6979,"spider":6980,"backs":6981,"elses":6982,"umbs":6983,"tyler":6984,"embed":6985,"embass":6986,"tales":6987,"offering":6988,"clint":6989,"spell":6990,"marath":6991,"greed":6992,"cheaper":6993,"insult":6994,"minus":6995,"ignor":6996,"inten":6997,"despair":6998,"mono":6999,"afterwards":7000,"homework":7001,"wrapped":7002,"owned":7003,"coral":7004,"interrupt":7005,"shoe":7006,"compound":7007,"colum":7008,"earl":7009,"2050":7010,"2017":7011,"2013":7012,"lightning":7013,"string":7014,"curve":7015,"caps":7016,"warning":7017,"identical":7018,"morse":7019,"morality":7020,"nightm":7021,"begging":7022,"drill":7023,"crimes":7024,"complement":7025,"pays":7026,"payment":7027,"polis":7028,"polar":7029,"chamber":7030,"larry":7031,"momentum":7032,"uniform":7033,"burns":7034,"fier":7035,"gging":7036,"hurts":7037,"hurting":7038,"2001":7039,"2003":7040,"proteins":7041,"sends":7042,"banking":7043,"equation":7044,"cambod":7045,"closest":7046,"screech":7047,"sunlight":7048,"enetr":7049,"interestingly":7050,"luckily":7051,"seventh":7052,"salt":7053,"honored":7054,"empire":7055,"audio":7056,"accum":7057,"microbial":7058,"richard":7059,"threw":7060,"eastern":7061,"demographic":7062,"respected":7063,"sanitary":7064,"legis":7065,"emerging":7066,"rers":7067,"pale":7068,"officials":7069,"detective":7070,"ethiop":7071,"struggles":7072,"donna":7073,"client":7074,"storms":7075,"amounts":7076,"smoo":7077,"threatening":7078,"lining":7079,"taxes":7080,"suggests":7081,"multiply":7082,"crucial":7083,"accountability":7084,"apollo":7085,"prayers":7086,"improvements":7087,"synthetic":7088,"terrorists":7089,"maxim":7090,"timing":7091,"mortal":7092,"teenagers":7093,"bowl":7094,"occurred":7095,"framework":7096,"rarely":7097,"bullets":7098,"investigation":7099,"immigrant":7100,"newspapers":7101,"objectives":7102,"cabinet":7103,"qualities":7104,"compete":7105,"historic":7106,"bunker":7107,"arrangements":7108,"physicist":7109,"embrac":7110,"jungh":7111,"institutional":7112,"beeping":7113,"doodling":7114,"exploring":7115,"romantic":7116,"hollywood":7117,"affairs":7118,"navigate":7119,"disgusting":7120,"batteries":7121,"decrease":7122,"discrimination":7123,"frustrated":7124,"concepts":7125,"elderly":7126,"difficulty":7127,"permanent":7128,"argentina":7129,"interrupted":7130,"wiggin":7131,"chicago":7132,"magnetic":7133,"ghetto":7134,"rhyth":7135,"resurre":7136,"discipl":7137,"daniel":7138,"bollocks":7139,"ayoub":7140,"120":7141,"250":7142,"38":7143,"700":7144,"awake":7145,"bind":7146,"cage":7147,"dirt":7148,"egg":7149,"ecli":7150,"gul":7151,"ime":7152,"jet":7153,"kaver":7154,"lc":7155,"luc":7156,"mall":7157,"nun":7158,"ngos":7159,"nasty":7160,"pion":7161,"pink":7162,"piz":7163,"ras":7164,"rank":7165,"sink":7166,"swal":7167,"tz":7168,"vation":7169,"vents":7170,"ville":7171,"yan":7172,"yum":7173,"zi":7174,"zard":7175,"thal":7176,"ints":7177,"injury":7178,"theories":7179,"redi":7180,"returns":7181,"recovery":7182,"attor":7183,"attem":7184,"eric":7185,"tops":7186,"ingu":7187,"ingredi":7188,"alled":7189,"orle":7190,"hei":7191,"aswat":7192,"aspir":7193,"bee":7194,"lla":7195,"haust":7196,"habits":7197,"sob":7198,"doo":7199,"coma":7200,"uten":7201,"chip":7202,"ented":7203,"amate":7204,"riot":7205,"abort":7206,"adays":7207,"nowadays":7208,"fees":7209,"deals":7210,"delight":7211,"trag":7212,"oked":7213,"conserv":7214,"concrete":7215,"managing":7216,"mainten":7217,"indians":7218,"performed":7219,"tails":7220,"exhaust":7221,"apps":7222,"shu":7223,"agend":7224,"illusion":7225,"boars":7226,"quake":7227,"ravi":7228,"wom":7229,"diam":7230,"sson":7231,"spon":7232,"lets":7233,"letty":7234,"aint":7235,"elite":7236,"ola":7237,"newly":7238,"workplace":7239,"overnight":7240,"bucks":7241,"bully":7242,"disagree":7243,"blings":7244,"blaring":7245,"claimed":7246,"premi":7247,"carina":7248,"ruger":7249,"rupees":7250,"mistaken":7251,"portu":7252,"studio":7253,"aved":7254,"throne":7255,"label":7256,"crus":7257,"interviewed":7258,"oldest":7259,"jec":7260,"mattered":7261,"socially":7262,"headline":7263,"pleased":7264,"simulation":7265,"obli":7266,"observe":7267,"millen":7268,"angles":7269,"parmen":7270,"bush":7271,"versus":7272,"healthcare":7273,"viral":7274,"10th":7275,"household":7276,"hardware":7277,"cured":7278,"cuba":7279,"governor":7280,"trucks":7281,"pond":7282,"chains":7283,"chased":7284,"governance":7285,"elected":7286,"hopeless":7287,"bono":7288,"regent":7289,"fucker":7290,"scum":7291,"osaur":7292,"organize":7293,"organisms":7294,"quered":7295,"grandpa":7296,"portraits":7297,"trajec":7298,"screw":7299,"copes":7300,"promising":7301,"investing":7302,"glac":7303,"destiny":7304,"scot":7305,"accessible":7306,"successfully":7307,"shortly":7308,"biases":7309,"swedish":7310,"emphas":7311,"bail":7312,"grady":7313,"microscope":7314,"worrying":7315,"reporting":7316,"activists":7317,"threed":7318,"threats":7319,"drinks":7320,"planted":7321,"mount":7322,"footsteps":7323,"printing":7324,"deserves":7325,"terrified":7326,"legacy":7327,"exception":7328,"deliber":7329,"detected":7330,"penny":7331,"targeted":7332,"raises":7333,"saraswat":7334,"packed":7335,"reminder":7336,"sadly":7337,"combine":7338,"civility":7339,"basement":7340,"accord":7341,"adoles":7342,"mechanisms":7343,"garage":7344,"garbage":7345,"predictable":7346,"actively":7347,"iotics":7348,"pandu":7349,"grief":7350,"constant":7351,"regulations":7352,"categor":7353,"algorithm":7354,"isolation":7355,"appointment":7356,"relatively":7357,"journalist":7358,"improving":7359,"refuse":7360,"consume":7361,"shadows":7362,"volunteer":7363,"substant":7364,"protocol":7365,"ignored":7366,"spectacular":7367,"syria":7368,"candid":7369,"cousin":7370,"minimum":7371,"vacation":7372,"loyalty":7373,"pushed":7374,"choosing":7375,"stigma":7376,"advocate":7377,"phenomenon":7378,"intimid":7379,"paradig":7380,"thomas":7381,"brutal":7382,"disappointed":7383,"lavender":7384,"prosperity":7385,"antibiotics":7386,"guarantee":7387,"electro":7388,"skeleton":7389,"academic":7390,"extinction":7391,"invasion":7392,"conquer":7393,"explanation":7394,"miserable":7395,"approximately":7396,"radiation":7397,"tsunami":7398,"nucleus":7399,"diabetes":7400,"incarcer":7401,"ceremon":7402,"shepherd":7403,"glimpse":7404,"stannis":7405,"manhattan":7406,"embassy":7407,"clinton":7408,"fierce":7409,"legisl":7410,"eclipse":7411,"amateur":7412,"maintenance":7413,"saraswati":7414,"2000":7415,"61":7416,"ais":7417,"bber":7418,"cers":7419,"cav":7420,"dd":7421,"einste":7422,"fusion":7423,"gif":7424,"jade":7425,"kin":7426,"kam":7427,"kol":7428,"lasse":7429,"mour":7430,"mie":7431,"oe":7432,"rats":7433,"sant":7434,"sack":7435,"sday":7436,"slower":7437,"twee":7438,"twel":7439,"uine":7440,"theless":7441,"retired":7442,"atric":7443,"error":7444,"onstage":7445,"enforce":7446,"orange":7447,"stum":7448,"stated":7449,"nove":7450,"melan":7451,"lee":7452,"leston":7453,"seats":7454,"arct":7455,"heli":7456,"asth":7457,"esh":7458,"haiti":7459,"rose":7460,"roid":7461,"root":7462,"wipe":7463,"wifes":7464,"goat":7465,"lims":7466,"iders":7467,"idance":7468,"idio":7469,"coke":7470,"coop":7471,"utical":7472,"chill":7473,"amor":7474,"abhim":7475,"aded":7476,"iring":7477,"irus":7478,"irring":7479,"nearest":7480,"mosome":7481,"moms":7482,"uncertain":7483,"unusual":7484,"unfortunate":7485,"immen":7486,"impressed":7487,"traction":7488,"poly":7489,"pops":7490,"tives":7491,"convey":7492,"conquered":7493,"mako":7494,"proposition":7495,"indias":7496,"persu":7497,"exhibit":7498,"reson":7499,"resto":7500,"resign":7501,"sailing":7502,"frozen":7503,"ilan":7504,"bog":7505,"woke":7506,"daytoday":7507,"fox":7508,"diver":7509,"division":7510,"dialo":7511,"anyu":7512,"vene":7513,"spit":7514,"backwards":7515,"aceutical":7516,"guidance":7517,"litter":7518,"empowered":7519,"pran":7520,"brag":7521,"happily":7522,"download":7523,"buz":7524,"assing":7525,"distor":7526,"calend":7527,"offense":7528,"spear":7529,"cargo":7530,"rude":7531,"adequ":7532,"shoulders":7533,"estimate":7534,"labe":7535,"designing":7536,"genuine":7537,"crater":7538,"suppor":7539,"cared":7540,"cord":7541,"corners":7542,"cortex":7543,"shock":7544,"shocking":7545,"compli":7546,"jeff":7547,"sial":7548,"sium":7549,"2011":7550,"clothing":7551,"ultimate":7552,"funeral":7553,"curren":7554,"curric":7555,"paralle":7556,"identities":7557,"warden":7558,"avirus":7559,"storytelling":7560,"blown":7561,"numb":7562,"musical":7563,"muslims":7564,"harry":7565,"harbor":7566,"countrys":7567,"exams":7568,"1980s":7569,"gym":7570,"translate":7571,"secondly":7572,"charleston":7573,"openly":7574,"stereo":7575,"rels":7576,"lucy":7577,"futures":7578,"fighters":7579,"responses":7580,"soup":7581,"painted":7582,"bassem":7583,"fuckers":7584,"nathan":7585,"climbing":7586,"scout":7587,"safely":7588,"prisons":7589,"nicely":7590,"sixth":7591,"grandma":7592,"successes":7593,"mainly":7594,"controlled":7595,"gunshot":7596,"distingu":7597,"madame":7598,"covering":7599,"consensus":7600,"expectancy":7601,"laughed":7602,"annual":7603,"purse":7604,"pursue":7605,"practices":7606,"includes":7607,"included":7608,"populations":7609,"locate":7610,"aneously":7611,"reliable":7612,"bankrupt":7613,"budd":7614,"senses":7615,"literacy":7616,"sample":7617,"samples":7618,"mandel":7619,"angel":7620,"evolve":7621,"assets":7622,"cattle":7623,"catastro":7624,"meantime":7625,"enjoyed":7626,"perimeter":7627,"threatened":7628,"blows":7629,"commitment":7630,"retto":7631,"reminds":7632,"bridges":7633,"seattle":7634,"robotic":7635,"robotics":7636,"invention":7637,"tractor":7638,"consciously":7639,"diagram":7640,"remained":7641,"nessed":7642,"victory":7643,"improvement":7644,"anxious":7645,"molecular":7646,"characteristics":7647,"lords":7648,"exercis":7649,"manufacture":7650,"wounds":7651,"fabulous":7652,"calculus":7653,"reveal":7654,"contained":7655,"jaye":7656,"kicked":7657,"virtually":7658,"iranian":7659,"pacific":7660,"substance":7661,"whisper":7662,"narratives":7663,"overwhelmed":7664,"agricultural":7665,"insights":7666,"champion":7667,"acidification":7668,"hobbs":7669,"exploration":7670,"dinosaur":7671,"shorter":7672,"suspended":7673,"rwanda":7674,"frightened":7675,"fragile":7676,"imperial":7677,"devastating":7678,"flexible":7679,"fisher":7680,"poorest":7681,"coronavirus":7682,"delicious":7683,"elephant":7684,"metropolis":7685,"elysium":7686,"williams":7687,"twilight":7688,"chapter":7689,"universities":7690,"chloro":7691,"proportion":7692,"pharmaceutical":7693,"settled":7694,"victoria":7695,"poetry":7696,"preserve":7697,"hanson":7698,"intrigu":7699,"chromosome":7700,"marathon":7701,"junghwa":7702,"orleans":7703,"parmenion":7704,"twelve":7705,"november":7706,"abhimanyu":7707,"72":7708,"78":7709,"bic":7710,"bure":7711,"cart":7712,"dah":7713,"dread":7714,"eu":7715,"fon":7716,"fying":7717,"hut":7718,"hilar":7719,"iro":7720,"ience":7721,"iphone":7722,"jose":7723,"junk":7724,"kn":7725,"kr":7726,"lend":7727,"pity":7728,"plot":7729,"pens":7730,"penetr":7731,"rul":7732,"rag":7733,"sid":7734,"ully":7735,"wan":7736,"wen":7737,"wend":7738,"wank":7739,"yu":7740,"yed":7741,"thon":7742,"thony":7743,"thumbs":7744,"rell":7745,"reci":7746,"resolve":7747,"resolution":7748,"rehab":7749,"toast":7750,"enha":7751,"enrich":7752,"envy":7753,"align":7754,"nobodys":7755,"metry":7756,"melt":7757,"lever":7758,"aris":7759,"ardi":7760,"arian":7761,"asian":7762,"ico":7763,"icial":7764,"doms":7765,"acum":7766,"accent":7767,"aya":7768,"gore":7769,"locks":7770,"cos":7771,"utter":7772,"forty":7773,"forcing":7774,"chery":7775,"entrance":7776,"gear":7777,"outcomes":7778,"unity":7779,"pear":7780,"femin":7781,"febru":7782,"deport":7783,"canad":7784,"buttons":7785,"worries":7786,"trump":7787,"poker":7788,"update":7789,"contrad":7790,"sometime":7791,"pler":7792,"probe":7793,"provo":7794,"peror":7795,"perse":7796,"persian":7797,"residents":7798,"ulum":7799,"ulting":7800,"agbog":7801,"rape":7802,"seeming":7803,"sheep":7804,"inee":7805,"ineph":7806,"anytime":7807,"gran":7808,"ameter":7809,"umm":7810,"guilt":7811,"ansas":7812,"emperor":7813,"epic":7814,"epineph":7815,"talents":7816,"berus":7817,"mens":7818,"blues":7819,"clon":7820,"startup":7821,"specul":7822,"cartil":7823,"carib":7824,"ruled":7825,"maria":7826,"marily":7827,"mini":7828,"mining":7829,"realm":7830,"monkeys":7831,"careers":7832,"handwashing":7833,"owners":7834,"interacting":7835,"shares":7836,"shapes":7837,"dub":7838,"colm":7839,"contam":7840,"controver":7841,"singular":7842,"matches":7843,"cessed":7844,"20s":7845,"headlines":7846,"instant":7847,"stron":7848,"breed":7849,"personality":7850,"treas":7851,"flor":7852,"cerberus":7853,"parked":7854,"autistic":7855,"nerve":7856,"blosh":7857,"balan":7858,"malcolm":7859,"holders":7860,"vow":7861,"monthly":7862,"cafe":7863,"lanes":7864,"payload":7865,"transc":7866,"facilit":7867,"charges":7868,"winner":7869,"relate":7870,"wheat":7871,"lux":7872,"burst":7873,"fighter":7874,"responding":7875,"fiber":7876,"computing":7877,"walkers":7878,"dreamed":7879,"exped":7880,"expans":7881,"rolled":7882,"wonderstone":7883,"protein":7884,"subtle":7885,"economists":7886,"equals":7887,"camps":7888,"mija":7889,"follows":7890,"trait":7891,"pathology":7892,"dreaming":7893,"copenha":7894,"coverage":7895,"glue":7896,"tutor":7897,"filter":7898,"alongside":7899,"truths":7900,"sweat":7901,"practically":7902,"fitting":7903,"oxford":7904,"digit":7905,"greece":7906,"electrons":7907,"lockdown":7908,"territory":7909,"traditions":7910,"cameron":7911,"gravit":7912,"psychi":7913,"emerge":7914,"codex":7915,"pix":7916,"mandarin":7917,"acceptable":7918,"directions":7919,"angeles":7920,"emotionally":7921,"recognized":7922,"financially":7923,"gentleman":7924,"depending":7925,"elijah":7926,"struggled":7927,"donal":7928,"properties":7929,"slides":7930,"innovative":7931,"caste":7932,"humor":7933,"reminded":7934,"similarly":7935,"crossing":7936,"robust":7937,"accountable":7938,"instruments":7939,"psychology":7940,"psychologist":7941,"ttes":7942,"panic":7943,"cision":7944,"predicted":7945,"functional":7946,"lectures":7947,"philanthro":7948,"fools":7949,"fantasy":7950,"regulation":7951,"nigerian":7952,"pillars":7953,"gardens":7954,"duties":7955,"contribution":7956,"collecting":7957,"engagement":7958,"harmful":7959,"domino":7960,"texas":7961,"integrated":7962,"chairs":7963,"admitted":7964,"calculate":7965,"ptsd":7966,"gratitude":7967,"healing":7968,"notebook":7969,"banglad":7970,"improved":7971,"motivation":7972,"documentary":7973,"antonio":7974,"briefcase":7975,"keefe":7976,"qualified":7977,"sdg":7978,"philosophers":7979,"coordinates":7980,"indicators":7981,"employee":7982,"hypothesis":7983,"conducted":7984,"suspected":7985,"astronom":7986,"technically":7987,"selected":7988,"festival":7989,"woojing":7990,"referred":7991,"demonstrated":7992,"mimic":7993,"vegetables":7994,"satisfact":7995,"panting":7996,"thursday":7997,"eliminate":7998,"astonishing":7999,"palestinian":8000,"escaped":8001,"conviction":8002,"inevitable":8003,"atlantic":8004,"eggs":8005,"proposal":8006,"suspicious":8007,"astronauts":8008,"smugg":8009,"encountered":8010,"sergeant":8011,"evacu":8012,"amazon":8013,"egyptian":8014,"pardon":8015,"exhales":8016,"ethiopia":8017,"gulf":8018,"kaveri":8019,"swallow":8020,"sobbing":8021,"agenda":8022,"bullying":8023,"asthma":8024,"immense":8025,"curriculum":8026,"parallel":8027,"wendy":8028,"february":8029,"agbogblosh":8030,"epinephrine":8031,"cartilage":8032,"copenhagen":8033,"36":8034,"42":8035,"51":8036,"64":8037,"97":8038,"ail":8039,"athan":8040,"aire":8041,"bump":8042,"cade":8043,"dive":8044,"dave":8045,"dash":8046,"fist":8047,"fans":8048,"gic":8049,"gab":8050,"gag":8051,"hates":8052,"iq":8053,"jor":8054,"juni":8055,"khal":8056,"kansas":8057,"lm":8058,"mist":8059,"oke":8060,"oma":8061,"oak":8062,"ological":8063,"rh":8064,"rated":8065,"sic":8066,"uous":8067,"wins":8068,"yield":8069,"thunder":8070,"informed":8071,"infecti":8072,"inherent":8073,"anom":8074,"anchor":8075,"reference":8076,"reaches":8077,"reactor":8078,"rejuven":8079,"reporter":8080,"ongoing":8081,"tof":8082,"toll":8083,"totem":8084,"tokyo":8085,"toretto":8086,"enses":8087,"enna":8088,"itable":8089,"ales":8090,"alli":8091,"alai":8092,"alert":8093,"stages":8094,"nope":8095,"memo":8096,"leak":8097,"league":8098,"secular":8099,"ari":8100,"arr":8101,"ardo":8102,"weep":8103,"besto":8104,"beds":8105,"ede":8106,"rod":8107,"roles":8108,"acon":8109,"acade":8110,"gosh":8111,"lip":8112,"ida":8113,"cokes":8114,"coward":8115,"chit":8116,"chal":8117,"amber":8118,"ria":8119,"rig":8120,"output":8121,"adding":8122,"hoped":8123,"neys":8124,"unlock":8125,"unintended":8126,"pest":8127,"decor":8128,"tery":8129,"terry":8130,"poses":8131,"poster":8132,"conta":8133,"confron":8134,"contains":8135,"contemporary":8136,"manip":8137,"maid":8138,"prose":8139,"compromise":8140,"compromised":8141,"comrade":8142,"residence":8143,"sav":8144,"illa":8145,"sums":8146,"subur":8147,"mentally":8148,"shee":8149,"shelf":8150,"herak":8151,"morel":8152,"theirs":8153,"venus":8154,"reds":8155,"spray":8156,"elon":8157,"storage":8158,"goodness":8159,"007":8160,"makeup":8161,"emit":8162,"channel":8163,"pron":8164,"printer":8165,"brace":8166,"tles":8167,"fue":8168,"downtown":8169,"display":8170,"offline":8171,"omar":8172,"preh":8173,"carri":8174,"marvel":8175,"martha":8176,"josh":8177,"helen":8178,"helpless":8179,"aki":8180,"standardi":8181,"minerals":8182,"trips":8183,"triangle":8184,"hire":8185,"hier":8186,"formics":8187,"thrust":8188,"intent":8189,"intimate":8190,"lieuten":8191,"homeland":8192,"vika":8193,"supre":8194,"lesb":8195,"interconnected":8196,"shaped":8197,"compar":8198,"lowincome":8199,"bitter":8200,"instinct":8201,"bravo":8202,"visiting":8203,"simult":8204,"fling":8205,"parties":8206,"runway":8207,"founded":8208,"wallet":8209,"cellular":8210,"bloom":8211,"ffled":8212,"roommate":8213,"familys":8214,"remembering":8215,"badly":8216,"cried":8217,"factories":8218,"viewer":8219,"lingu":8220,"signature":8221,"citys":8222,"connects":8223,"luke":8224,"otic":8225,"ilized":8226,"danish":8227,"babylon":8228,"regions":8229,"skip":8230,"gesture":8231,"fastest":8232,"ventil":8233,"trains":8234,"beautifully":8235,"freezing":8236,"hindu":8237,"subway":8238,"subsahar":8239,"darren":8240,"darwin":8241,"metic":8242,"portrait":8243,"followers":8244,"potent":8245,"potato":8246,"oppon":8247,"physio":8248,"processing":8249,"directed":8250,"approaches":8251,"distress":8252,"writers":8253,"promises":8254,"posture":8255,"sweep":8256,"cultiv":8257,"squirt":8258,"statistic":8259,"honking":8260,"paperwork":8261,"grocer":8262,"towns":8263,"strain":8264,"cleaning":8265,"senior":8266,"grazing":8267,"gasping":8268,"striking":8269,"christians":8270,"husbands":8271,"spots":8272,"emerged":8273,"greenhouse":8274,"palm":8275,"teaches":8276,"exceptional":8277,"officially":8278,"welcomed":8279,"twins":8280,"belonged":8281,"tables":8282,"behaviors":8283,"analog":8284,"strategies":8285,"humming":8286,"threaten":8287,"committee":8288,"flowing":8289,"province":8290,"pelled":8291,"awak":8292,"baseball":8293,"mouths":8294,"migrants":8295,"casual":8296,"pollen":8297,"shaws":8298,"ironically":8299,"preventing":8300,"graduation":8301,"demands":8302,"messy":8303,"pigs":8304,"architects":8305,"measurement":8306,"mutation":8307,"therapist":8308,"layer":8309,"racing":8310,"boost":8311,"barefoot":8312,"teenage":8313,"correctly":8314,"bastards":8315,"consequence":8316,"announcer":8317,"manufactured":8318,"passports":8319,"phew":8320,"evolutionary":8321,"elders":8322,"lifted":8323,"1989":8324,"relatives":8325,"journalists":8326,"optimistic":8327,"sessions":8328,"philipp":8329,"consumption":8330,"executed":8331,"compelling":8332,"gathering":8333,"disappears":8334,"technique":8335,"tanks":8336,"privileged":8337,"variations":8338,"rabbits":8339,"thyroid":8340,"inspiring":8341,"accelerate":8342,"rumbling":8343,"ceived":8344,"assumptions":8345,"assignment":8346,"rejected":8347,"barbara":8348,"jerk":8349,"recruit":8350,"tolerance":8351,"fleeing":8352,"frequently":8353,"shifu":8354,"shifted":8355,"explosion":8356,"chimpanzees":8357,"desperate":8358,"attracted":8359,"prophet":8360,"abandoned":8361,"installation":8362,"betrayed":8363,"telescope":8364,"telescopes":8365,"lisa":8366,"ritual":8367,"leonardo":8368,"arranged":8369,"legitimate":8370,"jonathan":8371,"encouraging":8372,"undant":8373,"rescued":8374,"breakthroughs":8375,"propag":8376,"supplies":8377,"independence":8378,"compatible":8379,"mortgage":8380,"bakery":8381,"gandhi":8382,"embedded":8383,"pione":8384,"pizza":8385,"womb":8386,"premium":8387,"deliberately":8388,"paradigm":8389,"einstein":8390,"dialogue":8391,"buzzing":8392,"acumen":8393,"canadian":8394,"seemingly":8395,"caribbean":8396,"contaminated":8397,"strongest":8398,"agbogbloshie":8399,"infectious":8400,"academy":8401,"contagious":8402,"herakles":8403,"subsaharan":8404,"1st":8405,"43":8406,"58":8407,"85":8408,"]\"":8409,"awards":8410,"bg":8411,"bout":8412,"boun":8413,"bfr":8414,"bago":8415,"cation":8416,"cath":8417,"cunt":8418,"dge":8419,"eag":8420,"fled":8421,"gle":8422,"gau":8423,"gart":8424,"gina":8425,"kant":8426,"kang":8427,"kwon":8428,"lous":8429,"lank":8430,"lined":8431,"mask":8432,"nad":8433,"oven":8434,"ogy":8435,"pies":8436,"pier":8437,"sap":8438,"shad":8439,"slog":8440,"sket":8441,"tent":8442,"tissues":8443,"ua":8444,"udo":8445,"wok":8446,"yer":8447,"yup":8448,"yang":8449,"yards":8450,"zes":8451,"ths":8452,"thread":8453,"inth":8454,"incoming":8455,"inclusive":8456,"theast":8457,"reen":8458,"retain":8459,"recovered":8460,"reactions":8461,"reception":8462,"iso":8463,"issa":8464,"islands":8465,"itis":8466,"alfred":8467,"stit":8468,"stur":8469,"metric":8470,"seas":8471,"seam":8472,"sealed":8473,"veil":8474,"hesit":8475,"asi":8476,"asset":8477,"beard":8478,"whip":8479,"whirring":8480,"eddie":8481,"escort":8482,"sopa":8483,"somal":8484,"roe":8485,"rode":8486,"wides":8487,"loan":8488,"idering":8489,"coco":8490,"coded":8491,"forgetting":8492,"entities":8493,"amanda":8494,"absur":8495,"adm":8496,"neat":8497,"nect":8498,"unite":8499,"petra":8500,"imit":8501,"imperfect":8502,"impression":8503,"immun":8504,"deed":8505,"devi":8506,"depri":8507,"defic":8508,"celled":8509,"trous":8510,"ustrate":8511,"polio":8512,"contem":8513,"plu":8514,"maize":8515,"propose":8516,"prochloro":8517,"ctu":8518,"expose":8519,"resid":8520,"respir":8521,"shat":8522,"bos":8523,"raz":8524,"wore":8525,"forens":8526,"essence":8527,"himm":8528,"spar":8529,"spite":8530,"spons":8531,"spends":8532,"umph":8533,"stores":8534,"aching":8535,"epr":8536,"brick":8537,"berk":8538,"berry":8539,"buck":8540,"dishes":8541,"caly":8542,"offers":8543,"clust":8544,"clicking":8545,"pread":8546,"countless":8547,"readers":8548,"chop":8549,"mister":8550,"misunderstanding":8551,"akilan":8552,"standards":8553,"undercover":8554,"cheated":8555,"checks":8556,"partly":8557,"pressu":8558,"torn":8559,"torture":8560,"mineral":8561,"tribes":8562,"triumph":8563,"forming":8564,"formula":8565,"intact":8566,"geno":8567,"genoc":8568,"cratic":8569,"handful":8570,"handshake":8571,"duck":8572,"jews":8573,"controlling":8574,"opposed":8575,"meditation":8576,"fraction":8577,"mature":8578,"broker":8579,"headquarters":8580,"installed":8581,"clown":8582,"camel":8583,"visions":8584,"obtain":8585,"treason":8586,"cursed":8587,"capsu":8588,"parale":8589,"moron":8590,"athlet":8591,"walsh":8592,"farther":8593,"farrell":8594,"ffs":8595,"cycles":8596,"imaging":8597,"musu":8598,"norms":8599,"missus":8600,"missions":8601,"americas":8602,"linear":8603,"patent":8604,"generator":8605,"fourthirds":8606,"pointed":8607,"completed":8608,"190":8609,"19th":8610,"rises":8611,"youngest":8612,"secondary":8613,"cuck":8614,"factor":8615,"chable":8616,"relay":8617,"publishing":8618,"sounded":8619,"lugg":8620,"bury":8621,"addle":8622,"addressed":8623,"deny":8624,"bonzo":8625,"halfway":8626,"freeze":8627,"operated":8628,"scouts":8629,"2002":8630,"30s":8631,"banning":8632,"equipped":8633,"ranger":8634,"pasted":8635,"metabol":8636,"witnesses":8637,"witnessed":8638,"trail":8639,"controls":8640,"issued":8641,"screwed":8642,"tommy":8643,"distances":8644,"animation":8645,"warehouse":8646,"considering":8647,"planetary":8648,"glor":8649,"expectations":8650,"silicon":8651,"shortterm":8652,"posts":8653,"posttraumatic":8654,"statist":8655,"honour":8656,"vanish":8657,"neuron":8658,"spirits":8659,"pulls":8660,"petition":8661,"greeting":8662,"greeks":8663,"textbook":8664,"fluid":8665,"releasing":8666,"gathered":8667,"grain":8668,"invitation":8669,"progressive":8670,"seawater":8671,"battles":8672,"crown":8673,"spreads":8674,"evolving":8675,"devils":8676,"sufficient":8677,"arriving":8678,"beatrice":8679,"involve":8680,"involves":8681,"wasted":8682,"pym":8683,"sadness":8684,"suggesting":8685,"blocked":8686,"raped":8687,"jumping":8688,"davide":8689,"instruction":8690,"behavioral":8691,"tillery":8692,"traced":8693,"fuhrers":8694,"panels":8695,"chips":8696,"demanding":8697,"functioning":8698,"quietly":8699,"prayer":8700,"surprises":8701,"authoritarian":8702,"raleigh":8703,"knocking":8704,"knocked":8705,"titles":8706,"hostages":8707,"alike":8708,"racism":8709,"constitution":8710,"declare":8711,"smells":8712,"britain":8713,"gains":8714,"eboshi":8715,"novels":8716,"civilian":8717,"corrupt":8718,"measured":8719,"regularly":8720,"commerce":8721,"structural":8722,"habitat":8723,"21st":8724,"infections":8725,"documented":8726,"tunnel":8727,"interviews":8728,"virginia":8729,"keeper":8730,"expanding":8731,"tatsu":8732,"israeli":8733,"spinning":8734,"accomplished":8735,"tanzan":8736,"initiative":8737,"whispers":8738,"physicists":8739,"rabbit":8740,"politician":8741,"crashing":8742,"1998":8743,"vietnam":8744,"ecosystem":8745,"expressions":8746,"recommended":8747,"selection":8748,"reserve":8749,"branch":8750,"initially":8751,"assumption":8752,"doodle":8753,"assigned":8754,"butterflies":8755,"scheduled":8756,"precisely":8757,"bubbles":8758,"bluepr":8759,"toothless":8760,"humiliation":8761,"humiliated":8762,"originally":8763,"empowerment":8764,"cassie":8765,"devastated":8766,"convenience":8767,"extended":8768,"drowned":8769,"assessment":8770,"descend":8771,"electronic":8772,"inhaler":8773,"brooks":8774,"brooklyn":8775,"occasionally":8776,"whistling":8777,"holiday":8778,"promoting":8779,"footage":8780,"wandering":8781,"titanic":8782,"dentist":8783,"infinite":8784,"advertising":8785,"implications":8786,"restrictions":8787,"coccus":8788,"neutral":8789,"assassin":8790,"cigarettes":8791,"pissed":8792,"powder":8793,"jewelry":8794,"wrestling":8795,"stadium":8796,"absence":8797,"pleasant":8798,"perceptions":8799,"bristol":8800,"scholar":8801,"thieves":8802,"injured":8803,"nightmare":8804,"smooth":8805,"resurrection":8806,"lucas":8807,"attorney":8808,"tragic":8809,"crushed":8810,"millenni":8811,"threedimensional":8812,"candidates":8813,"enforcement":8814,"crateros":8815,"chromosomes":8816,"thongo":8817,"cheryl":8818,"transcend":8819,"bangladesh":8820,"satisfaction":8821,"junior":8822,"sicily":8823,"alliance":8824,"lieutenant":8825,"lesbian":8826,"simultaneously":8827,"philippines":8828,"widespread":8829,"absurd":8830,"nectar":8831,"prochlorococcus":8832,"747":8833,"aha":8834,"aus":8835,"athen":8836,"bli":8837,"bour":8838,"bart":8839,"beng":8840,"blight":8841,"dic":8842,"dagger":8843,"ek":8844,"eret":8845,"gum":8846,"gie":8847,"gla":8848,"hers":8849,"hence":8850,"ido":8851,"jami":8852,"kare":8853,"knit":8854,"kdk":8855,"lb":8856,"lace":8857,"lens":8858,"liness":8859,"oath":8860,"pau":8861,"pian":8862,"praise":8863,"rack":8864,"sion":8865,"shave":8866,"sri":8867,"sau":8868,"swell":8869,"tte":8870,"vag":8871,"vain":8872,"vault":8873,"wander":8874,"yay":8875,"zel":8876,"zom":8877,"zzy":8878,"thors":8879,"incomplete":8880,"inches":8881,"anut":8882,"recon":8883,"renew":8884,"reign":8885,"reset":8886,"retreat":8887,"reforms":8888,"atar":8889,"ishes":8890,"toys":8891,"envelo":8892,"enthus":8893,"itaka":8894,"alge":8895,"orche":8896,"stain":8897,"noah":8898,"nobel":8899,"lein":8900,"seated":8901,"seals":8902,"sections":8903,"artillery":8904,"asp":8905,"asma":8906,"ashy":8907,"asbesto":8908,"bears":8909,"behold":8910,"beats":8911,"beheading":8912,"edmun":8913,"esy":8914,"escal":8915,"essed":8916,"arer":8917,"noticing":8918,"roman":8919,"rowed":8920,"acies":8921,"acious":8922,"acknowled":8923,"acknowledge":8924,"wil":8925,"wires":8926,"wiped":8927,"loo":8928,"lovers":8929,"cosmo":8930,"coinc":8931,"chile":8932,"kevin":8933,"amen":8934,"ambig":8935,"ambi":8936,"geome":8937,"riz":8938,"rific":8939,"ripped":8940,"abrac":8941,"adic":8942,"adren":8943,"adel":8944,"advent":8945,"nepal":8946,"nephew":8947,"mos":8948,"unhappy":8949,"unconscious":8950,"myst":8951,"peer":8952,"peanut":8953,"imated":8954,"deci":8955,"teens":8956,"ifi":8957,"ceiling":8958,"worm":8959,"tram":8960,"poem":8961,"poop":8962,"tips":8963,"convert":8964,"mani":8965,"plug":8966,"plasma":8967,"mage":8968,"induc":8969,"perspec":8970,"compreh":8971,"exclu":8972,"explic":8973,"extract":8974,"rescent":8975,"yells":8976,"yelts":8977,"kingdoms":8978,"shank":8979,"illustrate":8980,"sucks":8981,"bogo":8982,"rak":8983,"diameter":8984,"blessed":8985,"spy":8986,"spill":8987,"elabor":8988,"guine":8989,"answered":8990,"typing":8991,"empath":8992,"phia":8993,"bucket":8994,"buffe":8995,"disrupt":8996,"centre":8997,"icked":8998,"clue":8999,"mule":9000,"muffled":9001,"prejud":9002,"precision":9003,"carries":9004,"cardio":9005,"counts":9006,"fax":9007,"underwater":9008,"chess":9009,"cheating":9010,"chester":9011,"commonly":9012,"selfinterest":9013,"hio":9014,"formal":9015,"realizing":9016,"intend":9017,"lazy":9018,"lagos":9019,"differenti":9020,"waking":9021,"wailing":9022,"serves":9023,"paired":9024,"corn":9025,"interpol":9026,"shakes":9027,"duke":9028,"shores":9029,"jean":9030,"siren":9031,"oped":9032,"opard":9033,"kidn":9034,"matt":9035,"courses":9036,"smalle":9037,"instin":9038,"brake":9039,"bravery":9040,"strings":9041,"technic":9042,"visibility":9043,"observed":9044,"millers":9045,"funded":9046,"capabilities":9047,"warrant":9048,"parado":9049,"ression":9050,"tense":9051,"livelihood":9052,"attach":9053,"borrow":9054,"cellphone":9055,"primarily":9056,"daddys":9057,"valid":9058,"void":9059,"voting":9060,"generous":9061,"generosity":9062,"monthold":9063,"lannis":9064,"hungar":9065,"hearted":9066,"transplant":9067,"cub":9068,"policing":9069,"chases":9070,"lings":9071,"phobia":9072,"lads":9073,"fights":9074,"hopeful":9075,"responded":9076,"merito":9077,"ski":9078,"skies":9079,"ivory":9080,"continents":9081,"natures":9082,"frontal":9083,"profile":9084,"earthquake":9085,"drops":9086,"climbed":9087,"miche":9088,"scav":9089,"cuts":9090,"breaker":9091,"hurric":9092,"ashitaka":9093,"2004":9094,"midnight":9095,"organizing":9096,"magically":9097,"sentiment":9098,"darius":9099,"superbugs":9100,"coup":9101,"couch":9102,"pasting":9103,"passenger":9104,"grounds":9105,"grounded":9106,"trainee":9107,"slept":9108,"madness":9109,"presented":9110,"engineered":9111,"tub":9112,"appy":9113,"appeal":9114,"gently":9115,"bias":9116,"sale":9117,"uhhuh":9118,"recep":9119,"defining":9120,"vancou":9121,"vanished":9122,"gradually":9123,"riddle":9124,"murde":9125,"secretly":9126,"medication":9127,"hoodie":9128,"footprint":9129,"milady":9130,"privacy":9131,"typeface":9132,"circul":9133,"plicity":9134,"greenland":9135,"pipe":9136,"pipa":9137,"roller":9138,"capitalist":9139,"windmill":9140,"tracked":9141,"bulb":9142,"crises":9143,"ethical":9144,"watts":9145,"analogy":9146,"casting":9147,"flights":9148,"fellas":9149,"snakes":9150,"cookie":9151,"photographers":9152,"suggestion":9153,"hammer":9154,"patience":9155,"weakness":9156,"robb":9157,"roofs":9158,"lamp":9159,"16th":9160,"honesty":9161,"migration":9162,"commands":9163,"catching":9164,"apocaly":9165,"copying":9166,"panel":9167,"detailed":9168,"brands":9169,"contacts":9170,"fatal":9171,"phase":9172,"nicole":9173,"mutant":9174,"liberia":9175,"rays":9176,"participating":9177,"achievement":9178,"reflection":9179,"occurring":9180,"gained":9181,"profitable":9182,"cracks":9183,"dimin":9184,"sweetie":9185,"texts":9186,"integration":9187,"integrate":9188,"integrity":9189,"embarrassing":9190,"hills":9191,"thrilled":9192,"saturn":9193,"attering":9194,"improvis":9195,"requested":9196,"fingerprints":9197,"briefly":9198,"replacement":9199,"convincing":9200,"gangs":9201,"transmitting":9202,"efficiently":9203,"complaints":9204,"preparation":9205,"distraction":9206,"limitations":9207,"calibr":9208,"scratching":9209,"accuracy":9210,"cartoonists":9211,"dimension":9212,"beeps":9213,"flooded":9214,"collapsed":9215,"monitoring":9216,"toljan":9217,"concentrate":9218,"concentration":9219,"procedures":9220,"estimates":9221,"knots":9222,"desperately":9223,"deployed":9224,"lungs":9225,"stretch":9226,"convenient":9227,"colonial":9228,"consistent":9229,"blankets":9230,"intimacy":9231,"paradise":9232,"anticipate":9233,"hackers":9234,"negotiate":9235,"insisted":9236,"obese":9237,"absorb":9238,"fetch":9239,"margare":9240,"eighth":9241,"holidays":9242,"macedonia":9243,"olymp":9244,"switched":9245,"certific":9246,"indistinctly":9247,"annoying":9248,"dictator":9249,"pdf":9250,"trends":9251,"degradation":9252,"aggressive":9253,"basketball":9254,"interrogation":9255,"binary":9256,"neoliberal":9257,"centimeters":9258,"cinema":9259,"enlighten":9260,"valentine":9261,"slums":9262,"dividend":9263,"anonymous":9264,"illiterate":9265,"spatial":9266,"diamond":9267,"helium":9268,"calendar":9269,"adequate":9270,"mandela":9271,"bureau":9272,"wanker":9273,"pearl":9274,"luxury":9275,"gravitational":9276,"chalk":9277,"sheets":9278,"supreme":9279,"propaganda":9280,"lousy":9281,"somalia":9282,"himmler":9283,"sponsor":9284,"capsule":9285,"luggage":9286,"tanzania":9287,"algebra":9288,"edmunds":9289,"adrenal":9290,"perspectives":9291,"smallest":9292,"paradox":9293,"hungarian":9294,"56":9295,"66":9296,"92":9297,"98":9298,"900":9299,"aqu":9300,"aving":9301,"bish":9302,"bhar":9303,"bilities":9304,"cof":9305,"cence":9306,"candy":9307,"cdc":9308,"dles":9309,"dbc":9310,"eager":9311,"foun":9312,"fts":9313,"fla":9314,"fury":9315,"foul":9316,"gical":9317,"gps":9318,"gins":9319,"hw":9320,"hany":9321,"hong":9322,"hatch":9323,"jess":9324,"kab":9325,"kush":9326,"lion":9327,"lions":9328,"lang":9329,"lapping":9330,"mau":9331,"nn":9332,"nort":9333,"ogen":9334,"ohio":9335,"pile":9336,"pals":9337,"poul":9338,"rally":9339,"sr":9340,"slaughter":9341,"saudi":9342,"sthand":9343,"td":9344,"tac":9345,"tary":9346,"tender":9347,"xford":9348,"thres":9349,"inqu":9350,"inher":9351,"incl":9352,"inos":9353,"incivility":9354,"ani":9355,"anes":9356,"anne":9357,"anna":9358,"thed":9359,"theo":9360,"rene":9361,"rebuild":9362,"reply":9363,"removing":9364,"retail":9365,"redem":9366,"isa":9367,"erup":9368,"towel":9369,"torial":9370,"toplankton":9371,"inge":9372,"ena":9373,"enhan":9374,"alry":9375,"orin":9376,"stare":9377,"stagger":9378,"noone":9379,"noble":9380,"mere":9381,"merely":9382,"lethal":9383,"ofkeefe":9384,"wears":9385,"weary":9386,"beam":9387,"beans":9388,"beacon":9389,"whale":9390,"whales":9391,"ller":9392,"haig":9393,"haped":9394,"icu":9395,"soils":9396,"rogen":9397,"ropes":9398,"romance":9399,"acute":9400,"acinth":9401,"wid":9402,"wired":9403,"wield":9404,"lime":9405,"loe":9406,"lored":9407,"lowest":9408,"cocon":9409,"vern":9410,"amin":9411,"gestu":9412,"geance":9413,"rivers":9414,"rifle":9415,"abundant":9416,"adds":9417,"admir":9418,"homic":9419,"homie":9420,"irs":9421,"modu":9422,"motive":9423,"uncles":9424,"unpreced":9425,"unfolding":9426,"usa":9427,"pets":9428,"immer":9429,"det":9430,"dement":9431,"detain":9432,"deton":9433,"degeneration":9434,"devoted":9435,"austri":9436,"augment":9437,"tej":9438,"thermal":9439,"worship":9440,"trin":9441,"urai":9442,"pots":9443,"tiles":9444,"tigress":9445,"oking":9446,"okko":9447,"upside":9448,"connor":9449,"constra":9450,"condem":9451,"manual":9452,"plates":9453,"proje":9454,"proposed":9455,"inda":9456,"perm":9457,"perfection":9458,"tast":9459,"tapping":9460,"expon":9461,"expressed":9462,"ulary":9463,"shang":9464,"igen":9465,"suf":9466,"sured":9467,"boar":9468,"ineff":9469,"dial":9470,"digest":9471,"thinkers":9472,"vengeance":9473,"grind":9474,"gotcha":9475,"spi":9476,"spr":9477,"iceland":9478,"affir":9479,"affection":9480,"elf":9481,"reef":9482,"overlook":9483,"overdose":9484,"overlapping":9485,"epi":9486,"brad":9487,"bricks":9488,"izar":9489,"firsthand":9490,"happier":9491,"bery":9492,"berries":9493,"phine":9494,"assholes":9495,"disability":9496,"dismissed":9497,"displaced":9498,"twothirds":9499,"centered":9500,"menu":9501,"calam":9502,"blur":9503,"offshore":9504,"clan":9505,"mud":9506,"muham":9507,"prevents":9508,"carlos":9509,"rug":9510,"ruth":9511,"ruin":9512,"margin":9513,"akh":9514,"underlying":9515,"foremost":9516,"mayor":9517,"tortured":9518,"turb":9519,"turbul":9520,"mines":9521,"nevertheless":9522,"tribal":9523,"ferences":9524,"realities":9525,"lotas":9526,"desires":9527,"monu":9528,"ette":9529,"waving":9530,"serpent":9531,"lessness":9532,"crum":9533,"cracy":9534,"crashed":9535,"kinder":9536,"caregi":9537,"thankful":9538,"handled":9539,"interpret":9540,"jewish":9541,"siblings":9542,"colony":9543,"medit":9544,"singh":9545,"singer":9546,"courts":9547,"iped":9548,"lloyd":9549,"strand":9550,"visa":9551,"simplicity":9552,"milli":9553,"miller":9554,"curtain":9555,"flick":9556,"capito":9557,"tennes":9558,"eva":9559,"attended":9560,"versions":9561,"farai":9562,"virgins":9563,"begg":9564,"malign":9565,"patr":9566,"hedge":9567,"vocal":9568,"vocab":9569,"hardship":9570,"1999":9571,"ctors":9572,"charm":9573,"fulltime":9574,"steak":9575,"relent":9576,"barking":9577,"volcan":9578,"volume":9579,"connectivity":9580,"luis":9581,"luthor":9582,"futile":9583,"addresses":9584,"merry":9585,"merase":9586,"fucks":9587,"hyp":9588,"hyacinth":9589,"skilled":9590,"photosyn":9591,"messed":9592,"horror":9593,"horns":9594,"operates":9595,"expense":9596,"aires":9597,"aiah":9598,"baton":9599,"protective":9600,"midst":9601,"organism":9602,"dealers":9603,"submit":9604,"economically":9605,"queens":9606,"grandparents":9607,"superior":9608,"mithra":9609,"weekly":9610,"weekends":9611,"doorbell":9612,"paths":9613,"gunfire":9614,"approval":9615,"approached":9616,"distin":9617,"distinct":9618,"flock":9619,"copic":9620,"copies":9621,"answering":9622,"presentation":9623,"consists":9624,"couples":9625,"tubes":9626,"applies":9627,"sexually":9628,"silenced":9629,"scoo":9630,"projected":9631,"graphs":9632,"passage":9633,"radically":9634,"existential":9635,"squir":9636,"static":9637,"marketplace":9638,"honors":9639,"vana":9640,"baxford":9641,"grades":9642,"riding":9643,"explaining":9644,"activation":9645,"activated":9646,"petrol":9647,"kerabai":9648,"locally":9649,"digging":9650,"nearby":9651,"individually":9652,"fluctu":9653,"impacted":9654,"bankers":9655,"locker":9656,"senate":9657,"starving":9658,"terribly":9659,"hugely":9660,"gaza":9661,"graff":9662,"drawings":9663,"responsibilities":9664,"ministry":9665,"frames":9666,"samurai":9667,"loads":9668,"loading":9669,"furnit":9670,"troubled":9671,"sympathy":9672,"smartphone":9673,"winds":9674,"goro":9675,"arrives":9676,"boards":9677,"dependency":9678,"receives":9679,"donor":9680,"thorough":9681,"developmental":9682,"consideration":9683,"ifying":9684,"humility":9685,"cookies":9686,"25th":9687,"earliest":9688,"apology":9689,"significance":9690,"gargant":9691,"mascul":9692,"atomic":9693,"prediction":9694,"sticky":9695,"suitable":9696,"messenger":9697,"execute":9698,"mploy":9699,"guese":9700,"construct":9701,"tours":9702,"tourist":9703,"philadel":9704,"links":9705,"avoiding":9706,"celebrated":9707,"pandas":9708,"unemploy":9709,"laying":9710,"sensor":9711,"philotas":9712,"association":9713,"decline":9714,"influenced":9715,"desertification":9716,"deepest":9717,"splashy":9718,"transforming":9719,"occurs":9720,"massively":9721,"niece":9722,"wounded":9723,"continuous":9724,"relaxed":9725,"analyzed":9726,"chairman":9727,"squares":9728,"fifteen":9729,"mathematic":9730,"suicidal":9731,"surrounding":9732,"fellows":9733,"genetics":9734,"genetically":9735,"embarrassment":9736,"hallway":9737,"incidents":9738,"pakistani":9739,"containing":9740,"surgeries":9741,"investigate":9742,"vertical":9743,"nelson":9744,"telomerase":9745,"ratio":9746,"requesting":9747,"priorit":9748,"neighborhoods":9749,"distributed":9750,"formerly":9751,"virginity":9752,"keegan":9753,"packing":9754,"ghosts":9755,"contracts":9756,"asylum":9757,"broadband":9758,"initiated":9759,"riots":9760,"bothering":9761,"ambition":9762,"methods":9763,"duration":9764,"advised":9765,"ridicu":9766,"karl":9767,"defeated":9768,"restaurants":9769,"candles":9770,"jokes":9771,"heavens":9772,"gigg":9773,"tackling":9774,"employment":9775,"geography":9776,"jaegers":9777,"translation":9778,"translated":9779,"profoundly":9780,"veteran":9781,"tolerant":9782,"homosexual":9783,"worldwide747":9784,"malaysia":9785,"frequent":9786,"satisfied":9787,"rubber":9788,"explosives":9789,"scales":9790,"empowering":9791,"minority":9792,"databases":9793,"resilient":9794,"prescription":9795,"battery":9796,"extent":9797,"advoc":9798,"observation":9799,"chattering":9800,"slope":9801,"expertise":9802,"elephants":9803,"kissing":9804,"kisses":9805,"cowboy":9806,"entertainment":9807,"excessive":9808,"coughing":9809,"adorable":9810,"registered":9811,"mobilize":9812,"evaluation":9813,"republican":9814,"rosie":9815,"modified":9816,"conventional":9817,"gambling":9818,"thood":9819,"alexanders":9820,"altruism":9821,"december":9822,"creepy":9823,"imaginable":9824,"dvd":9825,"phytoplankton":9826,"photographer":9827,"kongstr":9828,"tactics":9829,"traitor":9830,"shirts":9831,"greedy":9832,"cambodia":9833,"screeching":9834,"maximum":9835,"rhythm":9836,"ingredients":9837,"portuguese":9838,"trajectory":9839,"categories":9840,"electrodes":9841,"incarcerated":9842,"cavalry":9843,"gifts":9844,"idiots":9845,"buddh":9846,"intrigued":9847,"joseph":9848,"pronoun":9849,"standardized":9850,"hierarch":9851,"comparison":9852,"bagoas":9853,"garten":9854,"kantabai":9855,"lanka":9856,"admire":9857,"trousers":9858,"genocide":9859,"glorious":9860,"greetings":9861,"glazing":9862,"reconci":9863,"yeltsin":9864,"guinea":9865,"hurricane":9866,"vancouver":9867,"certificate":9868,"norton":9869,"poulain":9870,"redemption":9871,"staggering":9872,"coconut":9873,"gestures":9874,"unprecedented":9875,"okkoto":9876,"muhammad":9877,"capitol":9878,"tennessee":9879,"vocabulary":9880,"philadelphia":9881,"worldwide7477":9882,"\"..":9883,"0l":9884,"57":9885,"94":9886,"911":9887,"ao":9888,"bend":9889,"bizar":9890,"cen":9891,"diction":9892,"eyed":9893,"fting":9894,"g8":9895,"gli":9896,"glove":9897,"gals":9898,"gary":9899,"gzero":9900,"gases":9901,"gastro":9902,"hc":9903,"jab":9904,"jig":9905,"jama":9906,"jason":9907,"kan":9908,"klan":9909,"kicking":9910,"lind":9911,"mia":9912,"nab":9913,"nate":9914,"nys":9915,"nifer":9916,"och":9917,"pti":9918,"qa":9919,"rl":9920,"rof":9921,"rating":9922,"scopic":9923,"tide":9924,"tang":9925,"tues":9926,"ux":9927,"uber":9928,"umes":9929,"vig":9930,"winst":9931,"xy":9932,"yr":9933,"yas":9934,"zart":9935,"zones":9936,"ini":9937,"inspe":9938,"input":9939,"inations":9940,"inland":9941,"intru":9942,"infil":9943,"inery":9944,"inhabit":9945,"inhibit":9946,"inmates":9947,"thet":9948,"ouch":9949,"oured":9950,"ream":9951,"remo":9952,"reich":9953,"refri":9954,"regi":9955,"reunited":9956,"relies":9957,"rebel":9958,"ermo":9959,"eradic":9960,"onia":9961,"toes":9962,"toyo":9963,"ende":9964,"enchant":9965,"aland":9966,"alter":9967,"album":9968,"ora":9969,"orph":9970,"stasy":9971,"nov":9972,"noises":9973,"meals":9974,"meera":9975,"lef":9976,"leine":9977,"seth":9978,"aro":9979,"arians":9980,"arthur":9981,"veling":9982,"weld":9983,"heating":9984,"heath":9985,"assure":9986,"beside":9987,"beware":9988,"essex":9989,"haul":9990,"hamil":9991,"hazard":9992,"iche":9993,"iches":9994,"soles":9995,"sopher":9996,"arelect":9997,"robe":9998,"roast":9999,"roose":10000,"rockets":10001,"acti":10002,"wik":10003,"ghi":10004,"lid":10005,"loses":10006,"losis":10007,"costu":10008,"cosm":10009,"forbes":10010,"chir":10011,"charts":10012,"entit":10013,"entry":10014,"vering":10015,"verified":10016,"amys":10017,"ammon":10018,"rie":10019,"rix":10020,"rified":10021,"outfit":10022,"outrage":10023,"aby":10024,"abled":10025,"abnormal":10026,"addis":10027,"neil":10028,"moist":10029,"moira":10030,"untou":10031,"washed":10032,"usive":10033,"pecu":10034,"fee":10035,"fel":10036,"feast":10037,"aurus":10038,"authors":10039,"tet":10040,"teas":10041,"canvas":10042,"iful":10043,"butt":10044,"cemeter":10045,"antman":10046,"antarct":10047,"plea":10048,"urine":10049,"contri":10050,"contest":10051,"conspir":10052,"conceived":10053,"plast":10054,"mainst":10055,"prover":10056,"proger":10057,"probes":10058,"likelihood":10059,"comers":10060,"composition":10061,"exile":10062,"exclusive":10063,"resort":10064,"uls":10065,"shh":10066,"shark":10067,"shiny":10068,"agne":10069,"agloe":10070,"whoo":10071,"bothered":10072,"quex":10073,"quiz":10074,"rains":10075,"endurance":10076,"dime":10077,"dience":10078,"diarr":10079,"herring":10080,"hermann":10081,"derive":10082,"redis":10083,"grit":10084,"spher":10085,"backup":10086,"backyard":10087,"olsens":10088,"stoick":10089,"credi":10090,"creator":10091,"reefs":10092,"brass":10093,"bercu":10094,"phal":10095,"buys":10096,"buff":10097,"disse":10098,"discre":10099,"discard":10100,"mentors":10101,"blas":10102,"blades":10103,"clay":10104,"clut":10105,"mujin":10106,"carni":10107,"ruined":10108,"reader":10109,"misunderstand":10110,"akin":10111,"forehead":10112,"portal":10113,"hips":10114,"hijack":10115,"logged":10116,"logistics":10117,"lotus":10118,"lottery":10119,"vito":10120,"viable":10121,"cram":10122,"kindly":10123,"fined":10124,"suppress":10125,"showroom":10126,"handy":10127,"handling":10128,"handwriting":10129,"correspond":10130,"interactions":10131,"interfaces":10132,"intervene":10133,"shah":10134,"shocks":10135,"suring":10136,"surgical":10137,"compens":10138,"jeans":10139,"madeleine":10140,"sible":10141,"drun":10142,"drama":10143,"fried":10144,"singapo":10145,"famine":10146,"solarelect":10147,"earning":10148,"lighting":10149,"puff":10150,"tech49":10151,"visually":10152,"visitors":10153,"killings":10154,"fungi":10155,"paras":10156,"goddess":10157,"borrowed":10158,"farms":10159,"listed":10160,"tedsters":10161,"storyteller":10162,"blocking":10163,"limb":10164,"atively":10165,"malnutrition":10166,"iotic":10167,"harper":10168,"harsh":10169,"harmon":10170,"harmed":10171,"patri":10172,"tonede":10173,"generating":10174,"generates":10175,"197":10176,"1960":10177,"1945":10178,"1950s":10179,"1970s":10180,"sawyer":10181,"heartbeat":10182,"womans":10183,"datase":10184,"chariot":10185,"openness":10186,"stepped":10187,"relat":10188,"relations":10189,"barn":10190,"elections":10191,"interests":10192,"shitty":10193,"shitting":10194,"burgl":10195,"ilize":10196,"addicted":10197,"craving":10198,"denver":10199,"denmark":10200,"regional":10201,"reggie":10202,"machinery":10203,"ggers":10204,"ggie":10205,"foods":10206,"protects":10207,"sentences":10208,"ranking":10209,"politically":10210,"darcy":10211,"supervised":10212,"quicker":10213,"passive":10214,"passions":10215,"miami":10216,"societal":10217,"porn":10218,"draft":10219,"clubs":10220,"villain":10221,"oppression":10222,"pathogen":10223,"scream":10224,"floating":10225,"mitig":10226,"eats":10227,"waller":10228,"covert":10229,"guessing":10230,"tubercu":10231,"destination":10232,"silk":10233,"strongly":10234,"fertil":10235,"labs":10236,"decisive":10237,"mmhmm":10238,"shipped":10239,"bikes":10240,"sweater":10241,"confusing":10242,"davis":10243,"groo":10244,"microsoft":10245,"travels":10246,"riders":10247,"murders":10248,"prisoner":10249,"cleaner":10250,"starve":10251,"telephones":10252,"gae":10253,"worthless":10254,"circu":10255,"grape":10256,"sanitation":10257,"draws":10258,"strikes":10259,"striker":10260,"mirrors":10261,"llywood":10262,"feeds":10263,"rounds":10264,"acceptance":10265,"palace":10266,"palermo":10267,"destroying":10268,"zerland":10269,"exceptions":10270,"suffers":10271,"exploitation":10272,"arrival":10273,"beaten":10274,"boarding":10275,"ethno":10276,"africanamerican":10277,"neighboring":10278,"targeting":10279,"critics":10280,"slice":10281,"democrat":10282,"democracies":10283,"wooden":10284,"achieving":10285,"innovators":10286,"ninety":10287,"pyram":10288,"itudes":10289,"skinny":10290,"humble":10291,"staircase":10292,"provides":10293,"suggested":10294,"enterprise":10295,"naray":10296,"bells":10297,"mobility":10298,"mouthpart":10299,"representing":10300,"representative":10301,"severance":10302,"traces":10303,"visualize":10304,"puppies":10305,"copyright":10306,"competitive":10307,"sustainability":10308,"crows":10309,"crowds":10310,"prevention":10311,"branded":10312,"praying":10313,"scram":10314,"lify":10315,"bombs":10316,"parkin":10317,"punched":10318,"mythology":10319,"celebration":10320,"celebrating":10321,"launching":10322,"ellens":10323,"trop":10324,"diagnose":10325,"grip":10326,"layers":10327,"introduction":10328,"marching":10329,"participation":10330,"reflected":10331,"pillar":10332,"libraries":10333,"deemed":10334,"folds":10335,"hatto":10336,"contributed":10337,"transformative":10338,"dividing":10339,"ranging":10340,"debts":10341,"platforms":10342,"loudly":10343,"measur":10344,"courtesy":10345,"accidentally":10346,"philosopher":10347,"healed":10348,"advances":10349,"thrill":10350,"chuckling":10351,"settings":10352,"scanning":10353,"immigration":10354,"valued":10355,"gaps":10356,"tunnels":10357,"mosquitos":10358,"mathematical":10359,"arrows":10360,"hooked":10361,"regarding":10362,"horrific":10363,"expanded":10364,"sacred":10365,"melissa":10366,"historically":10367,"assemble":10368,"blessing":10369,"coordination":10370,"coordinate":10371,"disappearing":10372,"loneliness":10373,"arrangement":10374,"guts":10375,"contrary":10376,"variation":10377,"prosthetic":10378,"dynamics":10379,"behaved":10380,"pregnancy":10381,"candle":10382,"ecology":10383,"outsider":10384,"champagne":10385,"apologies":10386,"gigantic":10387,"nitrogen":10388,"obstacle":10389,"distracting":10390,"assuming":10391,"coastal":10392,"translates":10393,"minimize":10394,"barbarian":10395,"vegetable":10396,"surprisingly":10397,"weighs":10398,"intuition":10399,"magazines":10400,"avenge":10401,"avenue":10402,"frightening":10403,"ticktat":10404,"injected":10405,"thickness":10406,"heights":10407,"jennifer":10408,"pentagon":10409,"vascular":10410,"protesters":10411,"interventions":10412,"occupied":10413,"cortisol":10414,"transparent":10415,"anticipated":10416,"vibrating":10417,"mantis":10418,"nickname":10419,"obedience":10420,"whistle":10421,"antibiotic":10422,"terminated":10423,"delicate":10424,"delayed":10425,"guarante":10426,"william":10427,"burglar":10428,"switzerland":10429,"adjustments":10430,"criticism":10431,"incidentally":10432,"guru":10433,"attribute":10434,"encouraged":10435,"hayley":10436,"implemented":10437,"disruption":10438,"ecstasy":10439,"cocac":10440,"cigarette":10441,"magnitude":10442,"skeptical":10443,"treadmill":10444,"pollinators":10445,"swoop":10446,"forbidden":10447,"embracing":10448,"exhausted":10449,"emphasize":10450,"substantial":10451,"ceremony":10452,"aisle":10453,"tweets":10454,"uncertainty":10455,"distorted":10456,"supportive":10457,"exercises":10458,"krish":10459,"controversial":10460,"florida":10461,"balanced":10462,"expansion":10463,"confronted":10464,"linguistic":10465,"opponents":10466,"physiology":10467,"grocery":10468,"cathol":10469,"slogan":10470,"cocoa":10471,"respiratory":10472,"razor":10473,"cluster":10474,"genomes":10475,"paralegals":10476,"athletes":10477,"cuckoo":10478,"metabolism":10479,"statistical":10480,"tatsuhei":10481,"blueprint":10482,"bartender":10483,"sauce":10484,"enthusi":10485,"asbestos":10486,"decipher":10487,"induced":10488,"explicit":10489,"elaborate":10490,"receptors":10491,"margaret":10492,"cofound":10493,"threshold":10494,"width":10495,"homicide":10496,"dementia":10497,"detonate":10498,"caregivers":10499,"furniture":10500,"kongstrup":10501,"tuesday":10502,"winston":10503,"infiltr":10504,"refriger":10505,"toyota":10506,"orphans":10507,"hamilton":10508,"ammonia":10509,"peculiar":10510,"cemetery":10511,"mainstream":10512,"progeria":10513,"diarrhea":10514,"mujinju":10515,"singapore":10516,"tonedeaf":10517,"tuberculosis":10518,"\",":10519,"1000":10520,"360":10521,"67":10522,"68":10523,"],":10524,"aes":10525,"airl":10526,"bb":10527,"bm":10528,"cc":10529,"cco":10530,"cled":10531,"cys":10532,"dion":10533,"dated":10534,"ddle":10535,"dasse":10536,"dung":10537,"dresses":10538,"ese":10539,"ees":10540,"eous":10541,"eternal":10542,"fay":10543,"fag":10544,"fame":10545,"fict":10546,"fides":10547,"gw":10548,"gir":10549,"gren":10550,"glow":10551,"glu":10552,"hp":10553,"hs":10554,"hars":10555,"ige":10556,"ilot":10557,"iens":10558,"ique":10559,"iveness":10560,"iatric":10561,"jc":10562,"jord":10563,"kha":10564,"kur":10565,"kig":10566,"ml":10567,"mt":10568,"nag":10569,"nago":10570,"nino":10571,"oon":10572,"oct":10573,"oph":10574,"oval":10575,"oton":10576,"pne":10577,"pil":10578,"rho":10579,"raging":10580,"snot":10581,"sul":10582,"sie":10583,"scent":10584,"tus":10585,"tits":10586,"uum":10587,"ubi":10588,"uba":10589,"vs":10590,"yak":10591,"thu":10592,"inau":10593,"inum":10594,"infir":10595,"inational":10596,"inclus":10597,"invisibility":10598,"annum":10599,"anthony":10600,"outof":10601,"remi":10602,"rebuilt":10603,"retin":10604,"reinvent":10605,"resem":10606,"replacing":10607,"remorse":10608,"isha":10609,"errors":10610,"tos":10611,"tox":10612,"enzy":10613,"enables":10614,"encoded":10615,"ensuring":10616,"alt":10617,"alab":10618,"altering":10619,"algae":10620,"andal":10621,"orch":10622,"stamp":10623,"node":10624,"nothings":10625,"nomad":10626,"notori":10627,"metr":10628,"lemy":10629,"seal":10630,"arro":10631,"velt":10632,"weig":10633,"weet":10634,"hem":10635,"heter":10636,"heil":10637,"hedr":10638,"asge":10639,"beef":10640,"whim":10641,"eda":10642,"edges":10643,"editor":10644,"llah":10645,"hail":10646,"icip":10647,"soo":10648,"sore":10649,"sored":10650,"sober":10651,"sovere":10652,"notions":10653,"dol":10654,"dock":10655,"docking":10656,"dothra":10657,"robes":10658,"rogue":10659,"accompany":10660,"accessed":10661,"wider":10662,"goss":10663,"goose":10664,"lier":10665,"liest":10666,"lize":10667,"liability":10668,"logo":10669,"cows":10670,"colored":10671,"uted":10672,"forgan":10673,"chu":10674,"chim":10675,"chol":10676,"chants":10677,"verge":10678,"kelly":10679,"amane":10680,"geys":10681,"gevity":10682,"rival":10683,"outlook":10684,"outstanding":10685,"hore":10686,"hollo":10687,"hostage":10688,"irresponsible":10689,"irrit":10690,"irsson":10691,"nether":10692,"modest":10693,"motors":10694,"unstable":10695,"aller":10696,"pec":10697,"petri":10698,"feas":10699,"feature":10700,"feather":10701,"imprison":10702,"deforest":10703,"auction":10704,"cany":10705,"canary":10706,"ifier":10707,"cepti":10708,"ource":10709,"antis":10710,"antenna":10711,"tera":10712,"terrain":10713,"trance":10714,"oko":10715,"okrs":10716,"conting":10717,"someplace":10718,"manages":10719,"manners":10720,"manns":10721,"manchester":10722,"plum":10723,"prohibit":10724,"percus":10725,"permit":10726,"justices":10727,"taker":10728,"tagged":10729,"exceed":10730,"exagger":10731,"exclaims":10732,"extraction":10733,"resident":10734,"artwork":10735,"artistic":10736,"frown":10737,"frogs":10738,"agram":10739,"acted":10740,"sued":10741,"suite":10742,"subor":10743,"sufi":10744,"bore":10745,"bobo":10746,"boot":10747,"bosn":10748,"bollywood":10749,"rained":10750,"shells":10751,"righteous":10752,"beck":10753,"asters":10754,"foster":10755,"dias":10756,"diac":10757,"diving":10758,"arsen":10759,"rence":10760,"redes":10761,"grump":10762,"histories":10763,"iceberg":10764,"olu":10765,"stool":10766,"wellknown":10767,"ageism":10768,"newcastle":10769,"workforce":10770,"workshops":10771,"tyres":10772,"tyson":10773,"override":10774,"selfe":10775,"selforgan":10776,"bride":10777,"firms":10778,"bern":10779,"lifelong":10780,"downloaded":10781,"disconnected":10782,"disabled":10783,"evenings":10784,"twodegree":10785,"calories":10786,"hub":10787,"omics":10788,"cler":10789,"clapping":10790,"firstly":10791,"ysus":10792,"cardiac":10793,"ruining":10794,"joins":10795,"ahh":10796,"sonny":10797,"readily":10798,"chow":10799,"misinformation":10800,"misunderstood":10801,"grey":10802,"fails":10803,"underrepresented":10804,"chef":10805,"cheat":10806,"adev":10807,"turk":10808,"selfdriving":10809,"miners":10810,"triple":10811,"realization":10812,"intensive":10813,"gencies":10814,"aska":10815,"ishma":10816,"hometown":10817,"wrink":10818,"sermon":10819,"fulfill":10820,"crane":10821,"cracking":10822,"finner":10823,"thankfully":10824,"showers":10825,"cession":10826,"intern":10827,"interfe":10828,"intersection":10829,"dug":10830,"surfaces":10831,"siber":10832,"sirens":10833,"drank":10834,"opio":10835,"yearning":10836,"fract":10837,"framing":10838,"lowcost":10839,"xton":10840,"mato":10841,"matthe":10842,"matsu":10843,"matrix":10844,"ension":10845,"lastly":10846,"smiles":10847,"2018":10848,"lighter":10849,"strict":10850,"strato":10851,"girlfriends":10852,"vism":10853,"visits":10854,"simp":10855,"obsc":10856,"obsession":10857,"greatly":10858,"personnel":10859,"rico":10860,"capit":10861,"heywood":10862,"parade":10863,"parker":10864,"parole":10865,"gio":10866,"stems":10867,"runners":10868,"decides":10869,"tennis":10870,"schooling":10871,"moro":10872,"livestock":10873,"attending":10874,"systemic":10875,"motherfucker":10876,"avo":10877,"learns":10878,"learner":10879,"learners":10880,"builds":10881,"boris":10882,"faruv":10883,"teddy":10884,"nerd":10885,"nerdy":10886,"ffing":10887,"prie":10888,"imagery":10889,"imagining":10890,"males":10891,"malala":10892,"valleys":10893,"voy":10894,"generals":10895,"generative":10896,"fourdegree":10897,"examine":10898,"produces":10899,"1940":10900,"1970":10901,"1960s":10902,"1990s":10903,"julia":10904,"hunters":10905,"transgender":10906,"charging":10907,"pretending":10908,"cham":10909,"amaze":10910,"amazed":10911,"steep":10912,"barbec":10913,"iously":10914,"phoen":10915,"phobic":10916,"deadshot":10917,"luther":10918,"burger":10919,"southeast":10920,"denying":10921,"ificent":10922,"bonus":10923,"hygi":10924,"fastforward":10925,"hindi":10926,"scoffs":10927,"bats":10928,"batman":10929,"zealand":10930,"energ":10931,"idedown":10932,"subsid":10933,"economist":10934,"banana":10935,"equations":10936,"equator":10937,"galile":10938,"grandchildren":10939,"superhero":10940,"fireworks":10941,"pork":10942,"portray":10943,"dravid":10944,"viewing":10945,"simplest":10946,"sunny":10947,"sunshine":10948,"coping":10949,"writes":10950,"minecraft":10951,"picks":10952,"pickand":10953,"frey":10954,"15th":10955,"jake":10956,"damned":10957,"125":10958,"12th":10959,"tune":10960,"tuous":10961,"expectation":10962,"billiondollar":10963,"poorly":10964,"silas":10965,"anni":10966,"graphics":10967,"targary":10968,"shipping":10969,"posters":10970,"postcard":10971,"statues":10972,"confessed":10973,"purple":10974,"audiences":10975,"accidents":10976,"spiral":10977,"microscopic":10978,"rides":10979,"rushed":10980,"crystal":10981,"eighty":10982,"risky":10983,"sofa":10984,"sofus":10985,"cooler":10986,"communicating":10987,"biologically":10988,"mounted":10989,"violin":10990,"violated":10991,"textbooks":10992,"deserts":10993,"territories":10994,"respectful":10995,"circus":10996,"sanja":10997,"sanjay":10998,"invade":10999,"inviting":11000,"fairy":11001,"crook":11002,"nonviolence":11003,"nonviolent":11004,"angels":11005,"capitalists":11006,"aboard":11007,"exploit":11008,"ethics":11009,"judah":11010,"judged":11011,"africanamericans":11012,"behaviour":11013,"donation":11014,"donate":11015,"defending":11016,"throws":11017,"rainy":11018,"rainfall":11019,"dropout":11020,"courageous":11021,"beneficial":11022,"franz":11023,"rocked":11024,"taxpay":11025,"photographing":11026,"nursing":11027,"nurture":11028,"rapist":11029,"joining":11030,"robbery":11031,"lamlam":11032,"davin":11033,"davina":11034,"concert":11035,"moderate":11036,"colorful":11037,"migrant":11038,"neuroscientist":11039,"casino":11040,"competent":11041,"sustaining":11042,"masa":11043,"irony":11044,"ironic":11045,"suitcase":11046,"messing":11047,"tradeoff":11048,"tradeoffs":11049,"auntie":11050,"appearance":11051,"247":11052,"atmospher":11053,"clusively":11054,"foolish":11055,"mutual":11056,"liberation":11057,"punished":11058,"hosting":11059,"discussed":11060,"traff":11061,"grie":11062,"races":11063,"sensory":11064,"routes":11065,"associate":11066,"achievements":11067,"bridgework":11068,"campaigns":11069,"losers":11070,"willingness":11071,"demonstrate":11072,"teenager":11073,"belts":11074,"grownups":11075,"leness":11076,"hatred":11077,"scripts":11078,"grabbed":11079,"principal":11080,"bathrooms":11081,"gaining":11082,"spotted":11083,"automatic":11084,"divine":11085,"continuing":11086,"dominant":11087,"voluntary":11088,"analyst":11089,"analyzing":11090,"rangers":11091,"novelty":11092,"classrooms":11093,"discussions":11094,"fifty":11095,"ptolemy":11096,"assumed":11097,"wildfire":11098,"resistant":11099,"civilians":11100,"calculations":11101,"revenues":11102,"measuring":11103,"municip":11104,"accommod":11105,"discovering":11106,"bicycles":11107,"reveals":11108,"containers":11109,"spacex":11110,"articulate":11111,"temptation":11112,"bangles":11113,"1986":11114,"investigating":11115,"websites":11116,"trillions":11117,"virtue":11118,"settlements":11119,"cheek":11120,"identifying":11121,"continental":11122,"sacrific":11123,"temporal":11124,"blessings":11125,"grassland":11126,"grassroots":11127,"accounted":11128,"cherno":11129,"cherry":11130,"transmitters":11131,"mcdonal":11132,"multinational":11133,"physician":11134,"fashioned":11135,"kuch":11136,"telomere":11137,"longevity":11138,"orphanages":11139,"advisor":11140,"pools":11141,"scenes":11142,"suspects":11143,"upsidedown":11144,"mummy":11145,"sensitivity":11146,"distracted":11147,"distractions":11148,"drums":11149,"jinx":11150,"butterfly":11151,"ownership":11152,"demonstration":11153,"mimicking":11154,"recruits":11155,"homophobia":11156,"crushing":11157,"vacuum":11158,"priests":11159,"jacobs":11160,"cassander":11161,"horizontal":11162,"kryptonian":11163,"smartest":11164,"converted":11165,"prophecy":11166,"intentional":11167,"transferred":11168,"hymens":11169,"observations":11170,"electronics":11171,"adopted":11172,"browser":11173,"acquired":11174,"palestine":11175,"mantle":11176,"reverb":11177,"escaping":11178,"juveniles":11179,"difficulties":11180,"detectors":11181,"carlyle":11182,"entertaining":11183,"macedonian":11184,"ninth":11185,"arranging":11186,"certified":11187,"universes":11188,"crawl":11189,"crawling":11190,"legitim":11191,"attributes":11192,"stenz":11193,"commissioned":11194,"restricted":11195,"disturb":11196,"convention":11197,"steiners":11198,"infantry":11199,"tamil":11200,"cotton":11201,"centimeter":11202,"vessels":11203,"cycling":11204,"busted":11205,"pouring":11206,"reinforce":11207,"enabled":11208,"enabling":11209,"counselor":11210,"photographed":11211,"doubts":11212,"underestimate":11213,"underestimated":11214,"aviation":11215,"gallons":11216,"rusty":11217,"udhaig":11218,"haunted":11219,"conclude":11220,"attempts":11221,"attempting":11222,"glacier":11223,"scotland":11224,"legislation":11225,"restore":11226,"currency":11227,"stereotypes":11228,"distinguish":11229,"catastrophe":11230,"whispering":11231,"recipe":11232,"persecution":11233,"clonie":11234,"treasury":11235,"philanthropy":11236,"evacuate":11237,"weeping":11238,"carrier":11239,"intentions":11240,"eagle":11241,"piercing":11242,"sapiens":11243,"woken":11244,"isode":11245,"immunity":11246,"deprived":11247,"walshys":11248,"millennium":11249,"piano":11250,"swelling":11251,"acknowledging":11252,"ambiguous":11253,"geometry":11254,"comprehensive":11255,"cardiovascular":11256,"murderer":11257,"enlightenment":11258,"adrenaline":11259,"aquifer":11260,"maureen":11261,"renewed":11262,"austria":11263,"shanghai":11264,"calamity":11265,"kindergarten":11266,"distinction":11267,"karlsson":11268,"bizarre":11269,"qaeda":11270,"heathrow":11271,"roosevelt":11272,"activism":11273,"chirping":11274,"addison":11275,"antarctica":11276,"contribu":11277,"conspiracy":11278,"plastics":11279,"carnival":11280,"parasite":11281,"patriarch":11282,"fertility":11283,"ethnosphere":11284,"narayama":11285,"parkinsons":11286,"guaranteed":11287,"cocacola":11288,"catholic":11289,"dionysus":11290,"fictional":11291,"harsha":11292,"kigali":11293,"pneum":11294,"infirmary":11295,"inclusiveness":11296,"hedron":11297,"asgeirsson":11298,"sovereign":11299,"dothraki":11300,"cholera":11301,"amaneh":11302,"netherlands":11303,"bosnia":11304,"finnerty":11305,"stratosphere":11306,"obscure":11307,"faruvc":11308,"mcdonalds":11309,"\"...":11310,"130":11311,"170":11312,"41":11313,"44":11314,"62":11315,"82":11316,"await":11317,"bil":11318,"bree":11319,"baked":11320,"cg":11321,"cens":11322,"cils":11323,"cakes":11324,"cables":11325,"dho":11326,"dil":11327,"dice":11328,"dough":11329,"dates":11330,"dared":11331,"dining":11332,"ean":11333,"ego":11334,"eure":11335,"etern":11336,"fused":11337,"files":11338,"faint":11339,"ggy":11340,"ghest":11341,"hend":11342,"hiring":11343,"iye":11344,"iah":11345,"jup":11346,"jill":11347,"jave":11348,"jones":11349,"jung":11350,"javed":11351,"kum":11352,"knight":11353,"kruger":11354,"lac":11355,"lars":11356,"lameric":11357,"linking":11358,"lvan":11359,"lakes":11360,"mity":11361,"nc":11362,"nour":11363,"naught":11364,"oy":11365,"ore":11366,"opos":11367,"ologist":11368,"odoo":11369,"pc":11370,"pate":11371,"pess":11372,"phel":11373,"piles":11374,"rha":11375,"rut":11376,"rists":11377,"siz":11378,"scor":11379,"swar":11380,"signing":11381,"sizes":11382,"sperm":11383,"tb":11384,"tg":11385,"tink":11386,"t20":11387,"trol":11388,"tshirts":11389,"uke":11390,"ulls":11391,"ww":11392,"wre":11393,"wret":11394,"xray":11395,"yle":11396,"zlo":11397,"zim":11398,"zap":11399,"inn":11400,"info":11401,"infr":11402,"incur":11403,"infer":11404,"injustices":11405,"rey":11406,"renow":11407,"rede":11408,"reass":11409,"retri":11410,"reliving":11411,"rewards":11412,"rewind":11413,"rebell":11414,"reproduce":11415,"reacting":11416,"resolved":11417,"recycle":11418,"reilly":11419,"attrac":11420,"iser":11421,"isher":11422,"isite":11423,"erous":11424,"toss":11425,"towers":11426,"enh":11427,"endo":11428,"itute":11429,"ald":11430,"alities":11431,"alley":11432,"alarms":11433,"albert":11434,"altos":11435,"alaska":11436,"andan":11437,"orn":11438,"orann":11439,"stir":11440,"steven":11441,"stinking":11442,"stressed":11443,"stares":11444,"nomin":11445,"nosoph":11446,"meso":11447,"melo":11448,"mester":11449,"lest":11450,"lete":11451,"lester":11452,"leash":11453,"sew":11454,"seize":11455,"seoul":11456,"arh":11457,"arth":11458,"arra":11459,"arith":11460,"heir":11461,"heap":11462,"asper":11463,"bei":11464,"beers":11465,"bedro":11466,"beams":11467,"beads":11468,"llen":11469,"eski":11470,"hav":11471,"haw":11472,"som":11473,"soever":11474,"socks":11475,"soda":11476,"doses":11477,"doctr":11478,"acres":11479,"acher":11480,"acrome":11481,"gol":11482,"gov":11483,"lified":11484,"livia":11485,"lobby":11486,"idity":11487,"cov":11488,"coated":11489,"coating":11490,"coding":11491,"covid":11492,"chen":11493,"chord":11494,"choking":11495,"entin":11496,"enters":11497,"entials":11498,"kepler":11499,"amit":11500,"gey":11501,"rious":11502,"rients":11503,"abused":11504,"absent":11505,"adri":11506,"admission":11507,"adabra":11508,"irrational":11509,"nered":11510,"mosa":11511,"moby":11512,"moons":11513,"molas":11514,"moaning":11515,"undo":11516,"unlimited":11517,"unpredictable":11518,"unimaginable":11519,"oneself":11520,"allah":11521,"whatsoever":11522,"usal":11523,"usage":11524,"ussan":11525,"peas":11526,"peel":11527,"peach":11528,"pective":11529,"feared":11530,"immers":11531,"withstand":11532,"dez":11533,"deaf":11534,"devis":11535,"devo":11536,"deposit":11537,"tels":11538,"canal":11539,"cement":11540,"cease":11541,"antide":11542,"worms":11543,"trist":11544,"tracy":11545,"popped":11546,"tili":11547,"tiest":11548,"tigers":11549,"tipper":11550,"upwards":11551,"conform":11552,"confined":11553,"manic":11554,"manson":11555,"manila":11556,"plun":11557,"mah":11558,"mapping":11559,"maggie":11560,"protests":11561,"proprie":11562,"indigen":11563,"ody":11564,"odes":11565,"compart":11566,"composed":11567,"compose":11568,"compressed":11569,"justin":11570,"exit":11571,"exqu":11572,"exclusively":11573,"restor":11574,"respective":11575,"ulates":11576,"ulously":11577,"artis":11578,"artif":11579,"apor":11580,"savi":11581,"sahab":11582,"agues":11583,"wholeness":11584,"suing":11585,"sucking":11586,"bol":11587,"....\"":11588,"quentin":11589,"rav":11590,"enders":11591,"endure":11592,"shea":11593,"sheer":11594,"shephel":11595,"becket":11596,"becca":11597,"daylight":11598,"anyones":11599,"thinker":11600,"thane":11601,"spain":11602,"spinal":11603,"histori":11604,"needless":11605,"affe":11606,"backed":11607,"umn":11608,"hash":11609,"tsi":11610,"newcomers":11611,"gues":11612,"guiding":11613,"achute":11614,"overhead":11615,"episode":11616,"prone":11617,"brane":11618,"izer":11619,"fuzzy":11620,"displace":11621,"discour":11622,"disadvant":11623,"dissolved":11624,"dispos":11625,"disobey":11626,"dispatch":11627,"disasters":11628,"blon":11629,"blend":11630,"blink":11631,"blond":11632,"bliss":11633,"huang":11634,"hugs":11635,"clap":11636,"muck":11637,"startups":11638,"prey":11639,"premis":11640,"prestig":11641,"prefrontal":11642,"marking":11643,"marian":11644,"marines":11645,"marched":11646,"county":11647,"chopart":11648,"chopper":11649,"helmet":11650,"greg":11651,"undergo":11652,"forefront":11653,"ports":11654,"portation":11655,"chemo":11656,"chewing":11657,"preschool":11658,"torch":11659,"insite":11660,"insign":11661,"insula":11662,"longed":11663,"triage":11664,"triangles":11665,"triggers":11666,"logging":11667,"realise":11668,"laus":11669,"mond":11670,"monte":11671,"humanize":11672,"wrist":11673,"waist":11674,"servers":11675,"fulfilled":11676,"vivid":11677,"crunch":11678,"caretaker":11679,"handcu":11680,"owns":11681,"membrane":11682,"leslie":11683,"interference":11684,"shack":11685,"ducks":11686,"dufay":11687,"shook":11688,"jets":11689,"thoughtful":11690,"sip":11691,"silos":11692,"columb":11693,"medal":11694,"sings":11695,"lows":11696,"famously":11697,"matically":11698,"ensl":11699,"brocco":11700,"2019":11701,"headache":11702,"minded":11703,"mindwandering":11704,"cloak":11705,"clocks":11706,"pub":11707,"camels":11708,"visuals":11709,"sidewalk":11710,"simpler":11711,"greatness":11712,"killers":11713,"fundra":11714,"fungus":11715,"angular":11716,"cura":11717,"curves":11718,"flank":11719,"captivity":11720,"warfare":11721,"paran":11722,"parag":11723,"parks":11724,"parachute":11725,"giussan":11726,"communist":11727,"decay":11728,"identification":11729,"foundations":11730,"mori":11731,"morgan":11732,"mortem":11733,"attacking":11734,"waltz":11735,"conditional":11736,"highways":11737,"highquality":11738,"farming":11739,"autumn":11740,"nerves":11741,"archive":11742,"waterways":11743,"cybor":11744,"cycled":11745,"limbs":11746,"primit":11747,"mala":11748,"hari":11749,"haram":11750,"harms":11751,"intest":11752,"kenema":11753,"voters":11754,"voodoo":11755,"tonys":11756,"generously":11757,"examining":11758,"producer":11759,"producers":11760,"caves":11761,"cries":11762,"1950":11763,"1990":11764,"1930s":11765,"wonders":11766,"halt":11767,"wednes":11768,"damp":11769,"damaged":11770,"transactions":11771,"secondhand":11772,"charter":11773,"charcoal":11774,"ctively":11775,"gloves":11776,"winwin":11777,"winners":11778,"steam":11779,"stealth":11780,"millionaire":11781,"publisher":11782,"barks":11783,"barrel":11784,"volumes":11785,"teachings":11786,"lara":11787,"larges":11788,"whee":11789,"ladder":11790,"mediate":11791,"luci":11792,"burdens":11793,"otine":11794,"ilizing":11795,"dances":11796,"craz":11797,"pains":11798,"musician":11799,"hybrid":11800,"ivan":11801,"computational":11802,"educators":11803,"nails":11804,"freely":11805,"drome":11806,"operator":11807,"grapes":11808,"microw":11809,"researching":11810,"scam":11811,"scars":11812,"osaurus":11813,"breakdown":11814,"excuses":11815,"excites":11816,"ailed":11817,"governmental":11818,"hells":11819,"stephen":11820,"sentenced":11821,"queue":11822,"banned":11823,"ranks":11824,"ranean":11825,"politely":11826,"galy":11827,"classified":11828,"supermarket":11829,"bott":11830,"pora":11831,"followup":11832,"witten":11833,"witches":11834,"doorstep":11835,"pathways":11836,"ibly":11837,"approve":11838,"spacetime":11839,"shareholders":11840,"flytrap":11841,"floats":11842,"floored":11843,"floyd":11844,"copied":11845,"costa":11846,"glance":11847,"fearless":11848,"filters":11849,"filthy":11850,"summar":11851,"sells":11852,"silently":11853,"treats":11854,"labo":11855,"toughest":11856,"tariq":11857,"roadblock":11858,"biom":11859,"postcards":11860,"companion":11861,"confusion":11862,"uhm":11863,"locals":11864,"locality":11865,"hospitality":11866,"purchase":11867,"defines":11868,"accused":11869,"graded":11870,"microphone":11871,"cleaned":11872,"personalized":11873,"risked":11874,"sisterinlaw":11875,"shutting":11876,"professors":11877,"nik":11878,"18th":11879,"banker":11880,"sensing":11881,"releases":11882,"telecommunications":11883,"teleportation":11884,"ramas":11885,"graves":11886,"troubling":11887,"plication":11888,"legally":11889,"mastery":11890,"framed":11891,"emerges":11892,"ginger":11893,"swann":11894,"cros":11895,"extremes":11896,"favorites":11897,"catches":11898,"watson":11899,"watches":11900,"revolutions":11901,"recognizing":11902,"recognizes":11903,"collis":11904,"collar":11905,"involving":11906,"suscepti":11907,"magicians":11908,"donated":11909,"donkey":11910,"freedoms":11911,"cliff":11912,"criter":11913,"rainbow":11914,"heroin":11915,"strategic":11916,"benefited":11917,"packaging":11918,"kipp":11919,"rocky":11920,"snare":11921,"snack":11922,"combining":11923,"suggestions":11924,"entrepreneurship":11925,"multiplayer":11926,"multiplication":11927,"positively":11928,"awfully":11929,"doubled":11930,"weaker":11931,"robin":11932,"rooftops":11933,"necessity":11934,"deterior":11935,"tribute":11936,"cruc":11937,"bases":11938,"priceless":11939,"colorado":11940,"migrated":11941,"representation":11942,"neurological":11943,"tractors":11944,"psychopath":11945,"psychologists":11946,"arabia":11947,"shawshank":11948,"mechanically":11949,"garment":11950,"ironworks":11951,"preventable":11952,"enemys":11953,"ontology":11954,"neglect":11955,"nutrients":11956,"description":11957,"describing":11958,"repeating":11959,"constructive":11960,"emission":11961,"lifting":11962,"resulted":11963,"syndrome":11964,"screening":11965,"dryer":11966,"nicer":11967,"measurements":11968,"experimental":11969,"laszlo":11970,"mutations":11971,"liberty":11972,"quarant":11973,"embark":11974,"boundary":11975,"confirms":11976,"foreigners":11977,"grimage":11978,"racial":11979,"sensation":11980,"regulating":11981,"booth":11982,"influences":11983,"claiming":11984,"wavelength":11985,"demons":11986,"launches":11987,"announcing":11988,"winterfell":11989,"bullied":11990,"owes":11991,"continuously":11992,"crackling":11993,"texting":11994,"bacterial":11995,"assured":11996,"civilized":11997,"calculated":11998,"quitous":11999,"hallorann":12000,"phantom":12001,"hillbilly":12002,"infrastructures":12003,"investigated":12004,"scans":12005,"salesman":12006,"industrialized":12007,"cumul":12008,"metast":12009,"priorities":12010,"jaya":12011,"consuming":12012,"collaborate":12013,"fasc":12014,"flir":12015,"tunis":12016,"tumors":12017,"guidelines":12018,"interviewing":12019,"driverless":12020,"slightest":12021,"ampamp":12022,"harvesting":12023,"hooker":12024,"qualify":12025,"competing":12026,"cricke":12027,"temporarily":12028,"assembled":12029,"237":12030,"accounting":12031,"indicate":12032,"spinosaurus":12033,"broader":12034,"transmitter":12035,"transmitted":12036,"determining":12037,"multit":12038,"multid":12039,"initiating":12040,"rioters":12041,"complaining":12042,"bothers":12043,"backgrounds":12044,"kuwait":12045,"remotely":12046,"rooted":12047,"variable":12048,"variables":12049,"longest":12050,"pitched":12051,"remarkably":12052,"orbiting":12053,"acceleration":12054,"advise":12055,"chickens":12056,"limitless":12057,"spaceship":12058,"junge":12059,"champions":12060,"kryptons":12061,"rushing":12062,"employer":12063,"cartoonist":12064,"dimensional":12065,"reserved":12066,"talented":12067,"kilometer":12068,"surveyed":12069,"kata":12070,"jammed":12071,"referring":12072,"searches":12073,"poisoned":12074,"shortest":12075,"administrators":12076,"mimics":12077,"thumbwrestling":12078,"recruited":12079,"tolerate":12080,"frequency":12081,"fitzpatr":12082,"suspension":12083,"remittance":12084,"beasts":12085,"ballys":12086,"injecting":12087,"repairs":12088,"minorities":12089,"surgeons":12090,"deployment":12091,"attempted":12092,"opensource":12093,"aero":12094,"aerial":12095,"panties":12096,"iconic":12097,"confrontation":12098,"prophets":12099,"babysit":12100,"astonished":12101,"attendance":12102,"browse":12103,"acquire":12104,"acquaint":12105,"negotiations":12106,"vibrant":12107,"thirtythree":12108,"prosperous":12109,"mantra":12110,"terminal":12111,"margins":12112,"marginal":12113,"dumping":12114,"promoted":12115,"inevitably":12116,"mmmhmm":12117,"confirmation":12118,"academ":12119,"extinct":12120,"hydrant":12121,"stanford":12122,"hydrogen":12123,"disturbed":12124,"disturbing":12125,"trend":12126,"replied":12127,"stamps":12128,"favourite":12129,"repeatedly":12130,"revati":12131,"orientation":12132,"perceived":12133,"endorse":12134,"montreal":12135,"magnificent":12136,"conducting":12137,"bachel":12138,"sneak":12139,"skeptic":12140,"altruistic":12141,"adapted":12142,"memorial":12143,"cadill":12144,"signe":12145,"flourish":12146,"ethnicity":12147,"strengthening":12148,"announcement":12149,"dividends":12150,"inventor":12151,"concluded":12152,"shirtless":12153,"complementar":12154,"cambodian":12155,"accumulating":12156,"embraced":12157,"rascal":12158,"delighted":12159,"conservation":12160,"obligation":12161,"kolkata":12162,"mourn":12163,"sacked":12164,"stumbled":12165,"melanin":12166,"pranav":12167,"labeled":12168,"labels":12169,"jefferson":12170,"gymnosoph":12171,"dinosaurs":12172,"hilarious":12173,"penetration":12174,"ruling":12175,"alignment":12176,"meltdown":12177,"leverage":12178,"aristo":12179,"deported":12180,"speculation":12181,"dubai":12182,"breeding":12183,"facilitate":12184,"expeditions":12185,"psychiat":12186,"psychiatric":12187,"yields":12188,"rejuvenation":12189,"lipids":12190,"savage":12191,"suburbs":12192,"marvelous":12193,"ventilation":12194,"potatoes":12195,"hummingbird":12196,"hesitate":12197,"deeds":12198,"residual":12199,"forensic":12200,"pressures":12201,"athens":12202,"blih":12203,"bengta":12204,"karen":12205,"vaginal":12206,"coincidence":12207,"abracadabra":12208,"adventures":12209,"wormhole":12210,"manifest":12211,"excluded":12212,"buffet":12213,"prejudice":12214,"kidnapped":12215,"scavs":12216,"fountain":12217,"inherit":12218,"inclined":12219,"theoret":12220,"immersed":12221,"augmented":12222,"constrained":12223,"grinding":12224,"turbulence":12225,"monument":12226,"ipedia":12227,"millimeter":12228,"malignant":12229,"mithrav":12230,"fluctuations":12231,"graffiti":12232,"unemployment":12233,"buddhist":12234,"dictionary":12235,"wikipedia":12236,"cosmic":12237,"credibility":12238,"discarded":12239,"drunken":12240,"solarelectrified":12241,"dataset":12242,"measurable":12243,"aesthetic":12244,"jordan":12245,"pilgrimage":12246,"ubiquitous":12247,"inaugur":12248,"alabama":12249,"weighed":12250,"gossip":12251,"holloway":12252,"deforestation":12253,"diaspora":12254,"bernard":12255,"ishmael":12256,"matthew":12257,"avoided":12258,"dravidian":12259,"davinia":12260,"atmospheric":12261,"legitimacy":12262,"pneumonia":12263,"eureka":12264,"eternity":12265,"iyeza":12266,"lamericain":12267,"pessim":12268,"trolley":12269,"rebellion":12270,"bedrock":12271,"acromegaly":12272,"covid19":12273,"molasses":12274,"antidepress":12275,"indigenous":12276,"savior":12277,"shephelah":12278,"prestigious":12279,"dufayel":12280,"broccoli":12281,"giussani":12282,"primitive":12283,"deteriorate":12284,"fitzpatricks":12285,"110":12286,"140":12287,"2nd":12288,"39":12289,"4am":12290,"59":12291,"650":12292,"750":12293,"83":12294,"86":12295,"830":12296,"aah":12297,"awa":12298,"azo":12299,"bile":12300,"bask":12301,"batt":12302,"bhan":12303,"bunk":12304,"bours":12305,"bhai":12306,"bjor":12307,"boko":12308,"cd":12309,"cau":12310,"cite":12311,"chel":12312,"cater":12313,"cative":12314,"ckey":12315,"dit":12316,"das":12317,"dab":12318,"dun":12319,"dink":12320,"dwell":12321,"dding":12322,"dney":12323,"dging":12324,"dantonio":12325,"een":12326,"eclip":12327,"fid":12328,"fart":12329,"fers":12330,"fond":12331,"ffective":12332,"fmri":12333,"gm":12334,"gis":12335,"gad":12336,"gill":12337,"gia":12338,"g20":12339,"gaut":12340,"groom":12341,"gden":12342,"hd":12343,"hr":12344,"hil":12345,"hight":12346,"iac":12347,"iors":12348,"iju":12349,"ika":12350,"ipod":12351,"jit":12352,"jad":12353,"jus":12354,"jars":12355,"jol":12356,"jom":12357,"jams":12358,"kk":12359,"km":12360,"kil":12361,"kits":12362,"kicks":12363,"kung":12364,"klaus":12365,"lur":12366,"lag":12367,"lhc":12368,"mild":12369,"mba":12370,"mpi":12371,"ng":12372,"nip":12373,"nba":12374,"ota":12375,"pam":12376,"pend":12377,"pum":12378,"pins":12379,"pint":12380,"plots":12381,"rd":12382,"rations":12383,"sive":12384,"sars":12385,"sins":12386,"sank":12387,"swords":12388,"scape":12389,"smyth":12390,"swarm":12391,"sasha":12392,"saddle":12393,"troy":12394,"tweet":12395,"uho":12396,"uct":12397,"vod":12398,"vary":12399,"vendor":12400,"waf":12401,"wished":12402,"wakes":12403,"xi":12404,"xx":12405,"yne":12406,"yass":12407,"yah":12408,"zab":12409,"thar":12410,"inity":12411,"insure":12412,"insecure":12413,"incorpor":12414,"inchief":12415,"inclusion":12416,"inappropriate":12417,"intric":12418,"inrobb":12419,"insured":12420,"anu":12421,"ania":12422,"anatom":12423,"theus":12424,"thedr":12425,"theft":12426,"rethink":12427,"recur":12428,"recreate":12429,"reconsider":12430,"recharge":12431,"reactive":12432,"rejection":12433,"reconstructed":12434,"resettlement":12435,"rehears":12436,"repetition":12437,"recycled":12438,"atro":12439,"atile":12440,"attain":12441,"attered":12442,"isn":12443,"isy":12444,"isis":12445,"isation":12446,"isaiah":12447,"isodes":12448,"erto":12449,"onomy":12450,"tobac":12451,"todd":12452,"eni":12453,"enthr":12454,"enbro":12455,"encodes":12456,"itated":12457,"alas":12458,"alqaeda":12459,"stall":12460,"stag":12461,"stitch":12462,"stitution":12463,"stige":12464,"metheus":12465,"leah":12466,"legged":12467,"leopard":12468,"seism":12469,"sevent":12470,"sebast":12471,"secured":12472,"argh":12473,"arche":12474,"arav":12475,"arthy":12476,"ofneil":12477,"vet":12478,"vela":12479,"hex":12480,"hehe":12481,"heck":12482,"heated":12483,"asive":12484,"ashi":12485,"ashore":12486,"beak":12487,"behead":12488,"whack":12489,"haunt":12490,"hauser":12491,"ici":12492,"iccation":12493,"solit":12494,"sobs":12495,"doom":12496,"doyle":12497,"rober":12498,"romill":12499,"rovia":12500,"aco":12501,"accra":12502,"accus":12503,"accompan":12504,"acron":12505,"goe":12506,"goats":12507,"lok":12508,"loom":12509,"coy":12510,"cocks":12511,"utonomous":12512,"forge":12513,"forci":12514,"chy":12515,"chers":12516,"chard":12517,"entity":12518,"verne":12519,"verte":12520,"amput":12521,"amster":12522,"gears":12523,"gelein":12524,"rim":12525,"ripe":12526,"ribs":12527,"rized":12528,"rigged":12529,"rigation":12530,"outfits":12531,"holoc":12532,"hovering":12533,"irrelevant":12534,"irrigation":12535,"nev":12536,"nearch":12537,"newest":12538,"mock":12539,"mocking":12540,"unks":12541,"unfair":12542,"unfamiliar":12543,"unidentified":12544,"onetime":12545,"allright":12546,"uss":12547,"usible":12548,"pep":12549,"pete":12550,"pered":12551,"peps":12552,"pepper":12553,"fecal":12554,"females":12555,"fegelein":12556,"impul":12557,"immaterial":12558,"impulse":12559,"immortal":12560,"impec":12561,"deau":12562,"depress":12563,"depriv":12564,"devised":12565,"delete":12566,"tease":12567,"teem":12568,"cannon":12569,"cancel":12570,"cancelled":12571,"ifies":12572,"antthony":12573,"therape":12574,"urdu":12575,"pope":12576,"poland":12577,"pography":12578,"tia":12579,"titors":12580,"thereafter":12581,"upgrade":12582,"uprising":12583,"cony":12584,"cones":12585,"congo":12586,"consp":12587,"contractor":12588,"allyship":12589,"manmade":12590,"mangoes":12591,"maneu":12592,"plural":12593,"pluck":12594,"gettin":12595,"mao":12596,"mapped":12597,"proli":12598,"prope":12599,"proton":12600,"protons":12601,"processed":12602,"prostit":12603,"prostitution":12604,"prometheus":12605,"odys":12606,"likewise":12607,"perpe":12608,"perry":12609,"cton":12610,"comfor":12611,"compelled":12612,"tawa":12613,"tapes":12614,"tagger":12615,"exchanged":12616,"exhilar":12617,"yell":12618,"ulin":12619,"ultr":12620,"apu":12621,"saints":12622,"frog":12623,"ilin":12624,"shin":12625,"agen":12626,"whorem":12627,"illnesses":12628,"igrade":12629,"sucked":12630,"suzan":12631,"bolt":12632,"mentions":12633,"qui":12634,"quity":12635,"raj":12636,"raine":12637,"timeline":12638,"endlessly":12639,"ideology":12640,"rightly":12641,"rightful":12642,"ineffective":12643,"bystand":12644,"aste":12645,"lookout":12646,"fog":12647,"dibs":12648,"diaper":12649,"herd":12650,"cials":12651,"essay":12652,"essays":12653,"renly":12654,"rendez":12655,"gruel":12656,"spor":12657,"spouse":12658,"spying":12659,"spiders":12660,"needing":12661,"backward":12662,"eling":12663,"elvis":12664,"agerelated":12665,"crev":12666,"creek":12667,"guill":12668,"guided":12669,"workplaces":12670,"workshop":12671,"worldview":12672,"goodwill":12673,"tyr":12674,"liters":12675,"overlooked":12676,"overweight":12677,"tellers":12678,"embod":12679,"embody":12680,"emmet":12681,"brink":12682,"izers":12683,"berty":12684,"phd":12685,"phany":12686,"buzz":12687,"disput":12688,"discourse":12689,"disney":12690,"discharge":12691,"disregard":12692,"disabilities":12693,"centric":12694,"centigrade":12695,"calcut":12696,"blical":12697,"hud":12698,"hull":12699,"omin":12700,"omic":12701,"clash":12702,"firstgeneration":12703,"mug":12704,"prestige":12705,"carver":12706,"rue":12707,"rukh":12708,"marie":12709,"marcus":12710,"marina":12711,"martial":12712,"betting":12713,"ahy":12714,"counted":12715,"reads":12716,"misa":12717,"misses":12718,"aks":12719,"favors":12720,"favela":12721,"forecast":12722,"portfo":12723,"portland":12724,"commons":12725,"presses":12726,"ateral":12727,"iaz":12728,"iautonomous":12729,"selfhelp":12730,"pted":12731,"ptic":12732,"insulin":12733,"minent":12734,"intens":12735,"intends":12736,"rows":12737,"germans":12738,"descent":12739,"desiccation":12740,"ishment":12741,"monrovia":12742,"humanitarian":12743,"afterward":12744,"sylvan":12745,"sydney":12746,"serial":12747,"seroton":12748,"paxton":12749,"finances":12750,"supper":12751,"restrain":12752,"turner":12753,"handker":12754,"interactive":12755,"internation":12756,"interior":12757,"oldfashioned":12758,"shaking":12759,"shaft":12760,"shamans":12761,"shaky":12762,"dual":12763,"dudes":12764,"shoel":12765,"surplus":12766,"jective":12767,"sians":12768,"sikh":12769,"babwe":12770,"coln":12771,"opy":12772,"opposition":12773,"kidney":12774,"solves":12775,"matty":12776,"matched":12777,"problematic":12778,"courty":12779,"ireland":12780,"lasted":12781,"brogden":12782,"braun":12783,"pud":12784,"puerto":12785,"puberty":12786,"namely":12787,"simulate":12788,"simulations":12789,"waitress":12790,"millman":12791,"cury":12792,"riches":12793,"richest":12794,"flame":12795,"flung":12796,"flashes":12797,"captains":12798,"capturing":12799,"warheads":12800,"parth":12801,"giants":12802,"rung":12803,"founder":12804,"founders":12805,"morphine":12806,"lander":12807,"systematic":12808,"motherfuckers":12809,"imported":12810,"builders":12811,"membership":12812,"virtuous":12813,"sette":12814,"waterfront":12815,"bald":12816,"balcony":12817,"households":12818,"patrol":12819,"kettle":12820,"voke":12821,"examined":12822,"cathedr":12823,"crip":12824,"1900":12825,"1980":12826,"juda":12827,"hunted":12828,"heartbreaking":12829,"transaction":12830,"cuban":12831,"cedes":12832,"polish":12833,"velocity":12834,"charis":12835,"charming":12836,"charitable":12837,"chai":12838,"chaotic":12839,"questioned":12840,"stell":12841,"steward":12842,"steering":12843,"developers":12844,"barack":12845,"barrels":12846,"eleven":12847,"testify":12848,"dane":12849,"merit":12850,"merchants":12851,"mercury":12852,"mercedes":12853,"cush":12854,"denial":12855,"denied":12856,"bonded":12857,"basics":12858,"diesel":12859,"musicians":12860,"skins":12861,"skirt":12862,"5050":12863,"clearing":12864,"naz":12865,"nailed":12866,"nairo":12867,"bloodstream":12868,"opera":12869,"operational":12870,"microf":12871,"expend":12872,"scis":12873,"ordering":12874,"osene":12875,"vestas":12876,"midt":12877,"midwife":12878,"sincerely":12879,"magne":12880,"safest":12881,"dealt":12882,"subsequ":12883,"subjective":12884,"banner":12885,"ranadev":12886,"cambridge":12887,"classifier":12888,"darker":12889,"sorted":12890,"supervis":12891,"superpower":12892,"firefighter":12893,"mik":12894,"mixt":12895,"mimosa":12896,"metabo":12897,"porch":12898,"hitman":12899,"witz":12900,"villa":12901,"villagers":12902,"processor":12903,"pathway":12904,"slee":12905,"hospice":12906,"sundays":12907,"sunrise":12908,"sunita":12909,"approved":12910,"companys":12911,"copper":12912,"costing":12913,"scientifically":12914,"policeman":12915,"supports":12916,"programmed":12917,"bands":12918,"filing":12919,"appealing":12920,"summary":12921,"blacks":12922,"fertili":12923,"daughterinlaw":12924,"nationality":12925,"mmhm":12926,"joyful":12927,"ticking":12928,"biased":12929,"bipolar":12930,"biblical":12931,"posting":12932,"postsecret":12933,"cultur":12934,"salam":12935,"honks":12936,"pursuit":12937,"purposes":12938,"bathe":12939,"microseconds":12940,"brig":12941,"travelling":12942,"ridge":12943,"crypto":12944,"populated":12945,"eightyearold":12946,"recorder":12947,"explains":12948,"fitted":12949,"fitness":12950,"meets":12951,"kerosene":12952,"dangerously":12953,"birthplace":12954,"birthdays":12955,"slowing":12956,"planting":12957,"hairs":12958,"biotechnology":12959,"biologist":12960,"biologists":12961,"wishin":12962,"aneous":12963,"violation":12964,"fluent":12965,"buddies":12966,"cardboard":12967,"senile":12968,"senator":12969,"starks":12970,"starboard":12971,"deserved":12972,"terrifying":12973,"northwest":12974,"gaze":12975,"worthiness":12976,"circular":12977,"sanct":12978,"invites":12979,"fairness":12980,"responsibly":12981,"supposedly":12982,"strips":12983,"stripped":12984,"ministers":12985,"mirac":12986,"spoon":12987,"spokes":12988,"toolkit":12989,"samuel":12990,"emergencies":12991,"normality":12992,"optic":12993,"optical":12994,"troubles":12995,"swam":12996,"symmetry":12997,"croco":12998,"predators":12999,"neighbours":13000,"evolves":13001,"affecting":13002,"survives":13003,"fixing":13004,"exploded":13005,"explorers":13006,"beginnings":13007,"twink":13008,"scares":13009,"persia":13010,"thorax":13011,"servant":13012,"slipped":13013,"franch":13014,"considerably":13015,"innovate":13016,"humidity":13017,"pedal":13018,"packaged":13019,"committing":13020,"kilos":13021,"lincoln":13022,"retro":13023,"17th":13024,"raptor":13025,"separating":13026,"double0":13027,"weaknesses":13028,"robbed":13029,"deterrent":13030,"crude":13031,"cruise":13032,"166":13033,"byebye":13034,"apartments":13035,"pairs":13036,"mouthparts":13037,"13th":13038,"arresting":13039,"blinded":13040,"oids":13041,"neuroscientists":13042,"neurotransmitters":13043,"casinos":13044,"cassette":13045,"shawl":13046,"mechanics":13047,"competence":13048,"masses":13049,"massage":13050,"yoga":13051,"surviving":13052,"survivor":13053,"zzle":13054,"reductions":13055,"brandt":13056,"branding":13057,"nament":13058,"namaste":13059,"stickers":13060,"emailed":13061,"availability":13062,"performer":13063,"strengths":13064,"sophie":13065,"lifts":13066,"authorized":13067,"tourism":13068,"inspires":13069,"philist":13070,"sync":13071,"synchron":13072,"kaijus":13073,"technologists":13074,"knocks":13075,"lasers":13076,"mutters":13077,"liberate":13078,"liberated":13079,"avoidance":13080,"characteristic":13081,"thirsty":13082,"hostile":13083,"discussing":13084,"efficacy":13085,"aliens":13086,"partnerships":13087,"tougher":13088,"associates":13089,"regulate":13090,"regulator":13091,"losses":13092,"declined":13093,"willingly":13094,"mathare":13095,"boots":13096,"counteract":13097,"pounding":13098,"reflex":13099,"correctness":13100,"belle":13101,"grownup":13102,"vitamin":13103,"winters":13104,"contributing":13105,"bowling":13106,"bullies":13107,"smiley":13108,"iii":13109,"automatically":13110,"continuum":13111,"dominating":13112,"liedenbro":13113,"cracked":13114,"debates":13115,"debbie":13116,"textile":13117,"integrating":13118,"randomly":13119,"algorithmic":13120,"janice":13121,"snowcat":13122,"wilder":13123,"resisted":13124,"isolate":13125,"mundane":13126,"schist":13127,"schmidt":13128,"discoveries":13129,"revealing":13130,"clinics":13131,"tempted":13132,"brightest":13133,"sharon":13134,"shouted":13135,"scanners":13136,"sectors":13137,"nuke":13138,"possession":13139,"consumed":13140,"bottles":13141,"documenting":13142,"naval":13143,"tightly":13144,"yellowjacket":13145,"flags":13146,"collaborating":13147,"rahuls":13148,"volunteered":13149,"ctile":13150,"flipped":13151,"mactagger":13152,"shooter":13153,"shoots":13154,"cabbage":13155,"amplify":13156,"commanderinchief":13157,"keepers":13158,"succeeded":13159,"packets":13160,"squealing":13161,"wishes":13162,"melting":13163,"competitors":13164,"flatten":13165,"substitution":13166,"maintained":13167,"grasslands":13168,"louder":13169,"wheelchair":13170,"higgs":13171,"initiate":13172,"complained":13173,"ambitions":13174,"receiver":13175,"rabbi":13176,"accelerated":13177,"accelerating":13178,"wireless":13179,"jiko":13180,"streaming":13181,"semiautonomous":13182,"1994":13183,"junction":13184,"kalab":13185,"ynne":13186,"auguste":13187,"applying":13188,"confessions":13189,"accurately":13190,"congratulate":13191,"drifted":13192,"employed":13193,"employers":13194,"selective":13195,"reservation":13196,"floods":13197,"katja":13198,"rewarding":13199,"rewarded":13200,"hobbies":13201,"antibody":13202,"requirements":13203,"moneys":13204,"searchable":13205,"sandwiches":13206,"metaphors":13207,"jersey":13208,"automate":13209,"commentary":13210,"exposing":13211,"flowering":13212,"museums":13213,"bluffing":13214,"1968":13215,"explosive":13216,"scaling":13217,"wicked":13218,"injections":13219,"firmly":13220,"desperation":13221,"alaza":13222,"stretched":13223,"australian":13224,"prescribed":13225,"prescriptions":13226,"breasts":13227,"reflecting":13228,"aerody":13229,"ullman":13230,"shields":13231,"drowning":13232,"eliminated":13233,"solely":13234,"phenomena":13235,"descends":13236,"frustration":13237,"attendant":13238,"flexibly":13239,"inhales":13240,"brutality":13241,"hyperlink":13242,"stalin":13243,"terminator":13244,"poorer":13245,"corona":13246,"tablet":13247,"cocktail":13248,"permanently":13249,"establishment":13250,"skeletal":13251,"helicopters":13252,"ninja":13253,"olympi":13254,"wandered":13255,"leonard":13256,"argentinian":13257,"exported":13258,"homelessness":13259,"hydrants":13260,"dumpling":13261,"infinitely":13262,"annoy":13263,"weeds":13264,"plausible":13265,"disruptive":13266,"atheism":13267,"replies":13268,"toilets":13269,"neutr":13270,"predicting":13271,"overwhelmingly":13272,"jumps":13273,"lumps":13274,"oriented":13275,"interrog":13276,"cyberbullying":13277,"squadron":13278,"twisted":13279,"diplomatic":13280,"echoing":13281,"sneaking":13282,"replicate":13283,"jeez":13284,"dmca":13285,"enlightened":13286,"alyzed":13287,"stunning":13288,"perceptual":13289,"illustration":13290,"illustrates":13291,"railways":13292,"flourishing":13293,"publishers":13294,"doubted":13295,"pennies":13296,"pennsylvan":13297,"scholars":13298,"anthropology":13299,"anthropologist":13300,"inventors":13301,"stimulate":13302,"haunting":13303,"traitors":13304,"taiwan":13305,"spiderman":13306,"ignorant":13307,"ignorance":13308,"columns":13309,"discipline":13310,"nuna":13311,"ranked":13312,"sinks":13313,"ingredient":13314,"aspirations":13315,"conservative":13316,"sponsored":13317,"portugal":13318,"trajectories":13319,"scotty":13320,"accordion":13321,"adolescents":13322,"substantially":13323,"intimidating":13324,"santa":13325,"santino":13326,"tweeting":13327,"arctic":13328,"persuade":13329,"resonate":13330,"restored":13331,"diverted":13332,"genuinely":13333,"supporters":13334,"compliment":13335,"sialic":13336,"bankruptcy":13337,"catastroph":13338,"diagrams":13339,"knuck":13340,"pension":13341,"wenck":13342,"rehabilit":13343,"feminist":13344,"feminine":13345,"provoke":13346,"provocative":13347,"cloning":13348,"miniature":13349,"digitally":13350,"pixels":13351,"donald":13352,"astronomer":13353,"astronomers":13354,"cadet":13355,"anomaly":13356,"leaks":13357,"bedside":13358,"rigid":13359,"manipulated":13360,"thrusters":13361,"cultivate":13362,"analogies":13363,"casualties":13364,"recruitment":13365,"pioneer":13366,"seamlessly":13367,"contempl":13368,"descendants":13369,"zombie":13370,"envelope":13371,"cosmos":13372,"ifiable":13373,"mattress":13374,"technician":13375,"livelihoods":13376,"lannisters":13377,"meritocracy":13378,"michele":13379,"sentimental":13380,"circulation":13381,"apocalypse":13382,"erupting":13383,"detach":13384,"detained":13385,"condemned":13386,"projectile":13387,"tastes":13388,"suffoc":13389,"digestive":13390,"epiphany":13391,"turbines":13392,"meditate":13393,"hypnot":13394,"gargantua":13395,"mathematicians":13396,"prioritize":13397,"ridiculed":13398,"reconcile":13399,"zartan":13400,"inspector":13401,"removal":13402,"regime":13403,"endeav":13404,"lefthand":13405,"entitled":13406,"quexo":13407,"buffalo":13408,"discretion":13409,"blasphe":13410,"harmony":13411,"relativity":13412,"pathogens":13413,"circuit":13414,"pyramid":13415,"tropical":13416,"krishna":13417,"cofounded":13418,"faggot":13419,"gwynne":13420,"khamisa":13421,"enzyme":13422,"altitude":13423,"notorious":13424,"geyser":13425,"grumpy":13426,"capitan":13427,"barbecue":13428,"hygiene":13429,"pickandroll":13430,"targaryen":13431,"grieving":13432,"udhaigarh":13433,"contributor":13434,"patriarchal":13435,"censor":13436,"hendry":13437,"jupiter":13438,"zimbabwe":13439,"renowned":13440,"attractive":13441,"melody":13442,"beijing":13443,"amitab":13444,"proprietor":13445,"exquisite":13446,"marianne":13447,"enslaved":13448,"largescale":13449,"lucien":13450,"laborers":13451,"collision":13452,"criteria":13453,"cumulative":13454,"cadillac":13455,"gymnosophist":13456,"aristotle":13457,"mithravinda":13458,"inauguration":13459,"baskinrobb":13460,"bjorn":13461,"gautam":13462,"uhoh":13463,"zabalaza":13464,"incorporating":13465,"tobacco":13466,"seismic":13467,"sebastian":13468,"romilly":13469,"accompanied":13470,"acrony":13471,"forcibly":13472,"amsterdam":13473,"nearchus":13474,"impeccable":13475,"deprivation":13476,"therapeut":13477,"whoremong":13478,"suzanne":13479,"rendezvous":13480,"calcutta":13481,"serotonin":13482,"handkerchief":13483,"judaism":13484,"nairobi":13485,"mactaggert":13486,"aerodynam":13487,"baskinrobbins":13488,"350":13489,"46":13490,"53":13491,"5th":13492,"69":13493,"73":13494,"77":13495,"87":13496,"88":13497,"89":13498,"96":13499,"9th":13500,"].":13501,"agh":13502,"awhile":13503,"abegg":13504,"afel":13505,"bn":13506,"bam":13507,"bould":13508,"baf":13509,"batch":13510,"bier":13511,"biling":13512,"bbling":13513,"backing":13514,"cited":13515,"cumb":13516,"crescent":13517,"cnn":13518,"ciful":13519,"caffe":13520,"dal":13521,"dup":13522,"dame":13523,"dating":13524,"dang":13525,"darts":13526,"dashes":13527,"dressing":13528,"dangers":13529,"ee":13530,"ere":13531,"eer":13532,"eing":13533,"eed":13534,"eup":13535,"fn":13536,"fiz":13537,"fia":13538,"ffl":13539,"fbi":13540,"fences":13541,"git":13542,"glit":13543,"gence":13544,"glands":13545,"gaming":13546,"hust":13547,"hound":13548,"hort":13549,"iink":13550,"iving":13551,"imes":13552,"jl":13553,"jur":13554,"kas":13555,"kus":13556,"kine":13557,"kher":13558,"kany":13559,"kah":13560,"lust":13561,"lame":13562,"lure":13563,"lung":13564,"mble":13565,"mich":13566,"mals":13567,"mists":13568,"macy":13569,"mlin":13570,"maur":13571,"nas":13572,"nity":13573,"nina":13574,"ober":13575,"oom":13576,"olog":13577,"owed":13578,"ows":13579,"othy":13580,"oec":13581,"orescent":13582,"plo":13583,"pid":13584,"pry":13585,"pice":13586,"pree":13587,"pkins":13588,"paddle":13589,"poured":13590,"qarth":13591,"rhe":13592,"rous":13593,"rites":13594,"sly":13595,"sans":13596,"sach":13597,"sions":13598,"scur":13599,"slim":13600,"slate":13601,"sene":13602,"saul":13603,"tch":13604,"tabo":13605,"tada":13606,"tweed":13607,"uit":13608,"uman":13609,"uity":13610,"ucl":13611,"uben":13612,"von":13613,"vend":13614,"vlad":13615,"wag":13616,"wra":13617,"wah":13618,"xon":13619,"xen":13620,"xed":13621,"yl":13622,"yam":13623,"yach":13624,"zach":13625,"zhou":13626,"thou":13627,"thump":13628,"iner":13629,"intake":13630,"inson":13631,"inance":13632,"inbox":13633,"infamous":13634,"inadvert":13635,"invoke":13636,"anas":13637,"anith":13638,"thee":13639,"thel":13640,"theat":13641,"reno":13642,"rebe":13643,"repay":13644,"revel":13645,"rebuilding":13646,"reconnect":13647,"refur":13648,"revive":13649,"rebound":13650,"remembers":13651,"refresh":13652,"reframe":13653,"reconstruction":13654,"references":13655,"repercus":13656,"recession":13657,"rebecca":13658,"erin":13659,"erod":13660,"erase":13661,"onds":13662,"toe":13663,"tow":13664,"toon":13665,"tock":13666,"toms":13667,"toheart":13668,"toki":13669,"tossed":13670,"todeau":13671,"ingen":13672,"inges":13673,"enn":13674,"eness":13675,"ensit":13676,"ensed":13677,"itz":13678,"iture":13679,"itious":13680,"yout":13681,"youii":13682,"aler":13683,"alies":13684,"alban":13685,"alvin":13686,"alleg":13687,"alysis":13688,"almighty":13689,"andah":13690,"andals":13691,"orth":13692,"orous":13693,"sta":13694,"stics":13695,"stakes":13696,"stunt":13697,"noor":13698,"noses":13699,"noisy":13700,"mea":13701,"meen":13702,"meme":13703,"mete":13704,"mets":13705,"mesm":13706,"megg":13707,"methane":13708,"lem":13709,"lemon":13710,"lected":13711,"leaning":13712,"leagues":13713,"sec":13714,"sect":13715,"sewer":13716,"sequest":13717,"sewing":13718,"arn":13719,"arte":13720,"arous":13721,"arbit":13722,"array":13723,"ofcon":13724,"oftent":13725,"vein":13726,"veins":13727,"vector":13728,"wease":13729,"weave":13730,"hect":13731,"heater":13732,"betal":13733,"behaving":13734,"beaches":13735,"whi":13736,"whites":13737,"whimper":13738,"edito":13739,"haya":13740,"icill":13741,"icide":13742,"sow":13743,"notre":13744,"dodge":13745,"roar":13746,"rotors":13747,"roclus":13748,"acre":13749,"acha":13750,"acour":13751,"acids":13752,"acoly":13753,"acao":13754,"lyric":13755,"wig":13756,"wido":13757,"wight":13758,"wither":13759,"wilt":13760,"wiping":13761,"ayod":13762,"goof":13763,"goons":13764,"lix":13765,"lily":13766,"liqu":13767,"loid":13768,"locking":13769,"logue":13770,"loops":13771,"idon":13772,"idad":13773,"cola":13774,"coca":13775,"coworkers":13776,"coloss":13777,"coaster":13778,"coole":13779,"coherent":13780,"cohort":13781,"util":13782,"utility":13783,"utilized":13784,"forum":13785,"forrest":13786,"chry":13787,"chili":13788,"verify":13789,"kel":13790,"amo":13791,"amic":13792,"aments":13793,"amnes":13794,"amjad":13795,"gel":13796,"gem":13797,"geist":13798,"gered":13799,"rian":13800,"rias":13801,"rigs":13802,"rigor":13803,"outwards":13804,"abusing":13805,"ader":13806,"adul":13807,"admi":13808,"hoy":13809,"hots":13810,"hotels":13811,"neh":13812,"necks":13813,"moz":13814,"mold":13815,"mosco":13816,"movin":13817,"unbe":13818,"unjust":13819,"unra":13820,"unthink":13821,"unting":13822,"unions":13823,"untold":13824,"unpaid":13825,"unaware":13826,"unites":13827,"unleash":13828,"unconditional":13829,"oneway":13830,"allic":13831,"felix":13832,"imf":13833,"iments":13834,"impose":13835,"imony":13836,"withdraw":13837,"deput":13838,"defect":13839,"depos":13840,"demn":13841,"aust":13842,"tetr":13843,"canni":13844,"ifak":13845,"ifada":13846,"butcher":13847,"buttock":13848,"ceress":13849,"urbjorn":13850,"poke":13851,"poix":13852,"tiers":13853,"tibet":13854,"upright":13855,"uploaded":13856,"conse":13857,"conscience":13858,"concub":13859,"constell":13860,"condemn":13861,"mances":13862,"plings":13863,"mago":13864,"maine":13865,"mazer":13866,"mafia":13867,"prom":13868,"proving":13869,"prospe":13870,"prospect":13871,"projection":13872,"indire":13873,"perce":13874,"perish":13875,"pervas":13876,"perseverance":13877,"comin":13878,"compo":13879,"commen":13880,"combs":13881,"comrad":13882,"commod":13883,"ounce":13884,"justify":13885,"tapped":13886,"taped":13887,"tasting":13888,"exits":13889,"expressing":13890,"howard":13891,"resha":13892,"resulting":13893,"yeight":13894,"ulu":13895,"apie":13896,"saint":13897,"savit":13898,"shan":13899,"shen":13900,"shred":13901,"shits":13902,"shrun":13903,"shane":13904,"shatter":13905,"shattering":13906,"aggre":13907,"agile":13908,"agmatic":13909,"illion":13910,"igan":13911,"peoc":13912,"suited":13913,"sukany":13914,"bots":13915,"mentality":13916,"quad":13917,"quart":13918,"quot":13919,"quakes":13920,"quila":13921,"rahim":13922,"ravana":13923,"inks":13924,"inky":13925,"wool":13926,"sheik":13927,"ideological":13928,"bystep":13929,"astrid":13930,"astery":13931,"fores":13932,"diary":13933,"divin":13934,"diversion":13935,"dialed":13936,"herc":13937,"moreover":13938,"theses":13939,"cious":13940,"ciating":13941,"himal":13942,"render":13943,"rented":13944,"rendered":13945,"deriv":13946,"derail":13947,"reddit":13948,"gris":13949,"grasp":13950,"thanking":13951,"sput":13952,"spine":13953,"spared":13954,"springs":13955,"icela":13956,"elin":13957,"elic":13958,"olsen":13959,"umbre":13960,"stocks":13961,"creations":13962,"creators":13963,"newfound":13964,"guise":13965,"gujar":13966,"worklife":13967,"worldclass":13968,"takeaway":13969,"ichi":13970,"goodnight":13971,"goodlooking":13972,"typho":13973,"tyrant":13974,"makeover":13975,"emma":13976,"episodes":13977,"changer":13978,"pricks":13979,"pragmatic":13980,"selasi":13981,"bras":13982,"brus":13983,"brides":13984,"brandy":13985,"izoph":13986,"happiest":13987,"bergs":13988,"furious":13989,"lifeforms":13990,"downward":13991,"phony":13992,"assaul":13993,"dismay":13994,"disarm":13995,"disrespect":13996,"dissolve":13997,"disbelief":13998,"disgrace":13999,"displays":14000,"discharged":14001,"disobedience":14002,"centen":14003,"hugging":14004,"cling":14005,"clam":14006,"clang":14007,"cliche":14008,"spelled":14009,"precur":14010,"preacher":14011,"premortem":14012,"carb":14013,"carl":14014,"carved":14015,"carpet":14016,"ruby":14017,
[...]
