[S]
[PAD]
[/S]
[UNK]
[MASK]
[SEP]
[CLS]
"
,
.
0
1
2
3
4
5
6
7
8
9
[
]
^
_
a
b
c
d
e
f
g
h
i
j
k
l
m
n
o
p
q
r
s
t
u
v
w
x
y
z
ः
अ
आ
इ
ई
उ
ऊ
ऋ
ऍ
ऎ
ए
ऐ
ऑ
ऒ
ओ
औ
क
ख
ग
घ
ङ
च
छ
ज
झ
ञ
ट
ठ
ड
ढ
ण
त
थ
द
ध
न
प
फ
ब
भ
म
य
र
ल
ळ
व
श
ष
स
ह
ा
ि
ी
ॉ
ॊ
ो
ौ
ॐ
।
०
१
२
३
४
५
६
७
८
९
॰
##l
##a
##v
##e
##d
##r
##u
##i
##t
##o
##n
##g
##m
##ि
##त
##न
##र
##क
##य
##ो
##आ
##प
##ठ
##स
##s
##०
##३
##w
##ॉ
##ट
##ल
##k
##ा
##ी
##c
##ज
##व
##ग
##h
##b
##p
##द
##ौ
##ङ
##फ
##म
##थ
##y
##ई
##ब
##1
##ड
##च
##f
##ओ
##ह
##ख
##भ
##झ
##ष
##ए
##q
##ण
##श
##4
##3
##ध
##z
##ढ
##ः
##0
##6
##९
##८
##४
##उ
##x
##इ
##अ
##घ
##8
##9
##१
##छ
##७
##7
##ञ
##j
##2
##5
##ऐ
##ॊ
##ऊ
##५
##ऎ
##६
##औ
##२
##ऑ
##ऒ
##ळ
##ऋ
##ऍ
th
##er
the
##in
##ou
##at
##nd
##re
##ing
##या
to
##ार
you
##an
##ll
##en
##on
##es
कर
##ता
##or
and
पर
और
is
##ed
##ot
in
##is
##ही
##ना
of
##it
कि
##ar
##om
wh
एक
##as
हम
that
##ान
को
##ve
हो
it
की
we
नही
##ow
##et
आप
##le
यह
##ic
be
ha
##al
not
##ut
##िए
का
##िक
##se
##ere
##st
on
इस
##ld
are
##हा
##ay
##ाल
do
##ion
##gh
लिए
सक
##ac
##ent
##id
st
##ात
he
this
तम
##यो
##ाह
have
##ill
##ur
उस
go
for
##री
re
so
##ास
##िल
##िया
##िन
me
##ke
##ver
##ght
जा
अप
##im
##ित
##ly
था
सा
##all
##ir
मझ
सम
sh
li
उन
भी
रह
##गा
##am
what
तो
##रा
##ad
was
an
जो
##ec
my
##ith
##िर
##op
कया
##हत
they
अपन
##ती
with
##ould
##th
##ome
can
##au
but
ne
##िस
as
वह
##oo
ch
##ति
##का
##ro
दख
am
will
##ch
##ter
##ला
##वा
##ोग
se
##ust
कछ
चाह
ab
mo
##ant
##ce
your
बहत
##ight
all
##सी
मर
##भी
wor
fr
वि
at
करन
##out
there
ही
सब
##ers
##की
##ge
##ally
kn
##को
पह
रहा
##सा
##il
us
साथ
##ation
लग
tr
##pp
बार
लक
सकत
तर
लोग
मन
##तर
com
##िय
about
##est
किया
like
##गर
##कर
know
or
##ear
या
get
जब
if
##ol
just
##ct
##ess
हमार
##king
##ul
##ain
##and
##un
one
##one
##ake
##नी
al
##ाय
ex
##ate
our
no
जान
गया
out
##कि
de
लकिन
##ive
from
##od
तमह
con
मिल
pe
##art
now
##ig
बात
##um
दो
##ist
##her
##ind
##us
##ab
would
up
who
##ure
##ies
##ie
here
तरह
अब
##दा
बच
उनह
##ity
when
##ack
##ect
थी
bec
##os
##ली
##ause
te
going
pro
how
##ीक
peop
कोई
कयो
##मा
##if
यहा
कार
वो
करत
##चछ
people
them
##ियो
##पर
ever
##ap
##गी
en
##मी
तक
बना
want
मा
pl
see
##ोन
जी
some
कहा
अन
बद
sp
##ारी
##el
##ाद
##rou
##ink
##ea
##ook
##ाव
करना
did
##ाप
man
सो
सकता
हा
she
##डा
वाल
##टर
काम
tim
##कष
चल
कह
by
अचछ
lo
##ort
अगर
sa
सर
अध
##hing
su
right
##ame
##रत
##दर
##are
सव
होगा
पता
कम
these
because
##iv
दर
were
##ag
pr
जिस
br
फिर
had
every
##िश
think
##ast
##ine
##िख
पहल
more
##ard
##डी
their
##सत
him
ठीक
##nt
मह
शर
##ोट
लोगो
##res
thing
##ment
im
रप
##ong
any
her
इन
##जी
ना
##जा
##कार
दिया
सोच
##our
मत
##ry
किसी
time
सी
fe
आपको
समय
than
मरी
year
कस
need
रख
got
look
co
अपनी
##रो
int
लगता
पा
then
could
##ide
##ery
##ानी
back
say
where
##ck
##aught
जर
##em
ev
वहा
पास
has
##ous
##नो
##act
##वार
well
बचच
साल
रही
let
cl
##reat
##age
##ice
##ासत
##ble
अधिक
un
दन
##nder
##ace
ag
##ans
ची
le
##ose
af
his
बता
##ore
world
comp
way
##own
##omet
##ich
##ci
##ak
dr
very
come
##ep
##ाहर
##fe
हर
कभी
##मान
##iz
##यक
act
विश
करता
really
somet
##ीच
उप
##aughter
##योग
जीव
##ach
कयोकि
qu
been
good
जस
पि
take
दस
tw
##ud
##तम
परि
होता
work
मरा
सिर
gr
चाहिए
##itt
##ence
##og
भा
oth
##ild
समझ
make
##जन
##ip
per
सभी
उत
##way
over
##ob
call
##ions
सच
ला
##वर
ar
why
##ang
##ोड
जाए
सबस
हआ
laughter
new
रा
into
bl
ऐसा
अस
##वी
अचछा
वासत
##दी
रो
##टी
which
exp
जया
बस
##other
इत
##lf
tell
years
##ase
मार
##ick
day
पी
बढ
something
res
मान
##शा
##यार
वासतव
happ
##कल
##िग
आद
##ass
कप
##fer
कल
सिरफ
too
##ree
even
##ue
##ia
##ोल
बाहर
दश
चीज
दिख
##ोर
fir
##ount
##वि
only
app
सन
बन
अल
two
down
बाद
उसक
उनक
fu
##मर
gu
##ys
सथ
चाहत
हमन
po
लड
जीवन
other
##चार
होन
life
##ire
first
गर
##ually
##ound
आज
जात
दिन
अर
ac
उनहोन
जहा
##ber
start
tal
हए
##दध
##षट
नि
जररत
said
cr
दनिया
those
dis
अभी
##ite
जाता
वाप
##ीन
##लब
हसी
जयादा
bet
mu
##pt
निर
##00
##ri
लगा
जग
जल
sc
##दद
under
##िला
imp
ph
बा
पहच
बर
##कत
bu
##टा
##ving
ad
##वास
##ens
घर
ind
##round
things
पस
car
does
off
##orm
##भाव
may
परति
वापस
##ves
hel
जाओ
##ance
##ory
छोट
##ress
pre
##ical
##ittle
##वाद
little
dif
cont
comm
सही
##ish
much
जिन
सप
find
##ning
##ade
##able
##मन
##thing
बि
##ated
करो
तमहार
##ff
##qu
##ood
should
help
##so
bo
##ting
part
कष
inter
##वल
##िका
ok
most
lot
##nds
##कस
चाहता
actually
खो
id
mar
पड
##लो
जानत
em
##ायद
##day
बदल
##शन
##ater
never
thou
पल
##िम
कोश
दखा
##ath
आपक
##बर
आदमी
hum
love
मदद
##ody
many
##wn
rem
ro
sec
वर
wr
विक
हमारी
##ign
दी
##ell
शायद
यही
feel
real
##av
##ren
##यी
wom
पिता
##get
##फी
child
जगह
being
##ult
कारण
##cent
##धार
परा
ke
str
also
मतलब
लिय
##urn
##षय
##ations
##ks
##iss
count
##ाली
##rough
bel
differ
##ange
##vel
fl
##हर
##जञ
##ॉल
##ool
give
गल
निक
##ile
##सथ
गए
कवल
##िप
doing
##ial
through
##षण
अलग
##वश
##जार
इसल
sm
after
छोड
जाना
long
सार
##ord
##self
इसक
##olog
##be
again
put
##les
##शी
##परण
##fore
वाला
##ved
##ors
नाम
##ady
happen
अपना
##षा
around
##कति
##ाला
##ple
कहत
आग
तब
##यान
##ict
##टन
still
show
##du
##ons
inc
dec
##ौर
##दार
##ying
मौ
वयक
नीच
##ाई
##ents
वय
##गल
##दि
याद
##ily
##ful
##कषा
##सस
mean
des
बल
##igh
##बी
खद
पछ
बिल
##जर
sy
##ty
होत
परत
##ौन
आस
होती
उसन
भर
सना
##ft
home
kind
कई
##भव
great
##oss
##eah
जाएगा
oh
होना
विचार
अत
सह
जन
##oth
उद
yeah
दवार
कित
before
ask
चलो
सकती
इसलिए
ma
हई
वा
own
बी
##ms
##ower
today
सट
##ary
##int
बचचो
ऐस
पयार
यदि
wa
लिया
##ाना
talk
##hn
करग
इसका
thought
##ied
##िट
three
big
pers
##cess
मल
appl
##ाम
दोसत
made
##ough
use
underst
kill
pu
##xt
ple
खल
भग
दवारा
sur
##aw
##ian
धन
##सया
##we
same
different
##ible
human
वयकति
##form
##वान
तरी
समसया
fo
lear
आया
##ather
##ise
डर
##als
ho
kid
okay
##ail
दसर
proble
शरी
ear
##चित
चला
हमशा
stop
belie
##body
gl
परी
कोशिश
##ra
##red
##ious
ins
last
mom
fam
महत
better
शिक
##atch
करती
change
##per
##ways
घट
sch
##ond
अव
ता
कारय
lea
##कड
stud
care
कौन
##pl
keep
मिला
plan
yes
##iver
min
att
आन
दखो
खर
##ric
भाग
mon
हिस
##भा
उसकी
महिला
applause
understand
##रक
##ph
another
gen
inv
##शक
##az
तीन
old
बरा
play
gir
##मत
##akes
उनकी
गई
आख
बहतर
ser
pol
##ib
always
##atter
turn
##ars
बडा
frie
बीच
please
##ाया
el
tec
चार
sim
place
##यर
##ities
पार
thank
उसका
inst
##oney
cour
डाल
god
came
अचछी
fin
समा
##ss
soci
##माण
might
बड
##बद
##illion
धयान
मज
##कट
उपयोग
called
ओर
सीख
बह
girl
##bl
##याप
##ातर
hey
महतव
परभाव
##enc
wait
ताल
पढ
पीछ
##रम
away
दिल
बनान
sl
##यवाद
##ject
##ug
अफ
किस
##alth
बठ
इतना
commun
##ates
##ition
पसद
##जञान
must
महसस
20
move
परश
rel
end
ओह
##end
होगी
काफी
fact
run
##यन
परव
children
person
found
done
school
थो
techn
war
धनयवाद
bus
went
##बा
high
ob
##ize
maybe
हाथ
बक
लो
##पन
cap
ऊपर
##stem
रात
rec
##ope
वरष
sol
quest
sir
बोल
exper
cle
import
##ouse
गयी
mind
अमर
फोन
its
job
money
##डर
power
आत
##der
राज
sure
toget
together
jo
बडी
system
जसा
दखत
पिछ
बिलकल
दत
everything
med
##इन
told
next
तयार
coll
वयव
##जना
##बल
##तान
anything
learn
परिवार
believe
मस
##ings
supp
##गत
##ापत
गलत
विशवास
started
rep
##ember
bit
टी
##ual
##oc
##ics
##ादी
अनय
वाली
##ward
eng
far
उठ
##फल
nothing
build
अभ
##षक
##ोस
someone
##ating
##ारत
women
##ology
कहानी
##यम
live
hu
##ru
##सर
सोचा
important
इसस
used
percent
pres
शबद
लिख
##कारी
word
hand
महतवपरण
अदर
सल
##धा
परण
पत
##ness
few
hard
##शत
##याल
health
##iness
story
##ility
bab
list
##ines
wanted
miss
##००
लन
तालिया
op
##ooking
##uck
enough
men
हमारा
remember
sw
cons
बिना
trans
जाती
spea
विशव
##दश
##ix
##िको
##वाज
creat
##ert
परयोग
idea
family
##मक
परष
beg
##िकी
##सथा
##ॉन
##con
problem
तमन
num
##चर
इसतम
##ितर
imag
भगवान
इसतमाल
मी
##ew
stay
ass
दखन
##दान
##ger
sor
##धन
दोनो
dad
यो
##eric
निय
##ically
##िमा
##ited
##ution
साम
##ute
पहली
cell
##ense
head
दता
##िता
##डियो
##ank
सत
##ave
होग
getting
##पी
##बन
##करण
mus
सवा
##ures
left
resp
acc
ter
country
leave
beh
kids
night
##air
##anc
water
##ah
stand
जानता
brain
bre
आर
करी
भाव
सकल
ago
wal
coming
looking
##थय
जाय
##करिया
bas
ent
best
name
##ock
परस
##ital
मानव
सस
##ोध
each
सपर
##orn
##ets
course
10
chang
ऐसी
hell
##दगी
आपकी
पानी
फल
##हार
सख
##fect
##ark
आपका
ली
वही
##gr
##cept
wrong
four
##wh
exam
cre
गो
तल
पिछल
sorry
सामान
met
##िति
grow
परतिशत
नौ
##नत
बज
##ead
##धान
##ross
americ
art
mr
##ience
##sel
##ction
bad
सि
##रस
##रिया
##िनट
sci
wee
##ident
तमहारी
##ists
##ween
जि
दना
आपन
eff
giv
house
while
between
bring
##inking
ta
कही
##ाइ
son
##aut
##cking
able
month
business
air
अतर
##डो
##duc
listen
शकति
##ीर
saw
##ताओ
शहर
करगा
took
guys
##भग
##ized
father
##फत
lead
compl
point
trying
sit
आय
चक
दिमा
##चा
##less
लगभग
pass
जलदी
मही
##ातरा
without
conf
एल
चन
##ची
गरी
##सवी
##erg
youn
टर
second
gener
थोडा
##up
##दम
परो
सवाल
afric
talking
##cle
less
poss
कला
नया
सतर
##ॉक
चाहती
try
बनाया
mother
##दन
##vern
##पना
परकार
उसस
dat
##तत
compan
##ries
##यास
अनभव
##ments
sk
meet
कषतर
19
##ier
hold
fun
matter
pay
अग
else
##row
##man
govern
ey
sing
##llow
once
heart
watch
निश
##इट
##वरण
cam
woman
happened
##ety
hear
मझस
open
set
##मल
##ention
##ाती
##ever
रोक
दिमाग
फस
मगर
##वरत
whole
fucking
##velop
question
आता
##ular
दग
reas
जिनह
eas
गिर
भल
##ost
##its
सकष
##काश
pret
small
कठ
पश
इसम
means
##ird
light
##selves
डि
##med
seen
mor
##ven
##यता
##ream
beaut
तरफ
000
अफरी
hour
नय
##ten
तकनी
अरथ
glob
technology
तसवी
##डन
char
develop
cent
million
आओ
सदर
पाच
विस
prot
कय
हवा
##ative
sign
ताकि
फर
face
गण
##टो
##ियन
everyone
बताया
both
##ues
आई
boy
red
आए
##yp
##ready
##ories
five
पकड
##ts
##imate
already
spec
निकल
cur
vis
खोज
unt
##ममी
##ारा
चीजो
thinking
##ific
young
book
ele
परापत
##कषित
##arent
उदाहर
भवि
##चना
##धि
making
data
आश
मिनट
##ne
##nect
##co
such
फिल
भारत
##ister
dead
moment
उदाहरण
working
##कीन
बदला
जिसस
लडकी
mark
रहत
सवास
रखा
guy
ext
times
expl
days
##था
भविषय
##hip
##ism
उनका
become
कपया
city
sound
भाई
india
interest
publ
नए
##ont
mod
करीब
सौ
read
सामन
ret
lau
wo
##ner
करक
परम
तरीक
det
fut
lar
डी
औरत
##aster
reg
cor
नी
शाम
कलपना
number
##धयम
रहन
add
makes
आवाज
पन
pretty
news
भावना
econ
##io
##पाद
##सक
knew
मिलता
विकास
##डिया
dep
छोटी
friends
econom
inside
form
परिवरत
sou
मख
यदध
##ince
##ands
##ared
विशष
सथान
room
##ale
##तिक
##ॉर
myself
तमहारा
example
lang
##दाय
cou
inform
योजना
fight
gre
##डल
exc
says
जानकारी
आधार
डॉल
वश
##where
yet
नजर
सिख
pain
##शाली
##वशयक
langu
produ
कहना
baby
सकषम
बो
##ash
##ably
दिखा
music
dist
##जिक
##ete
lives
social
par
खतम
##भाल
##lex
##uth
doll
del
global
hope
side
जड
##जद
##षित
##ताब
सथिति
until
opp
गा
हः
माधयम
महान
तसवीर
उमर
यकीन
having
tra
लाख
##विक
countries
गति
मो
##वाब
##ational
अमरिका
अम
चिक
##ling
##सन
##राम
connect
rob
मशक
##गन
comes
dem
इतजार
सवासथय
हल
##uring
loc
सरकार
जररी
##हरा
मशकिल
बट
##वक
##ret
##ants
rest
वयाप
##aces
##osed
##गीत
कितना
##cer
##ural
train
जिसम
phot
हिससा
speak
har
जित
इसी
mem
##ime
comput
उतपाद
reason
wonder
fore
parent
आवशयक
##यटर
##सट
##नाव
भाषा
शरीर
##eas
##ortun
fuck
रग
##ork
इसकी
##aph
educ
##धी
half
समाज
कान
लत
##gan
##cus
अधय
ती
दगा
##imes
पाया
आसान
die
##ny
using
adv
contin
beautif
डॉलर
##मो
##lly
बीम
walk
सगीत
##led
stu
सरकषित
saying
वासतविक
asked
grou
पथ
वी
##oy
##वन
later
आशा
भज
##wer
असल
clear
बला
friend
##utes
prob
blood
follow
earth
information
pop
##रण
##मता
दखना
lost
निकाल
खिला
##earch
research
महीन
future
mess
ढढ
##काल
##बत
##ाति
shit
लकर
teach
nat
##िड
##ina
##idd
जीत
sub
दसरी
design
months
group
win
यातरा
##most
##ices
उनम
जवाब
टक
सफल
ans
##मीन
चिकित
दौर
सामा
##धारण
beautiful
200
##कता
##ately
team
env
असप
तरीका
कॉल
रास
सड
##ective
सोचत
pat
खास
##oice
##ife
##aps
इतनी
पलिस
चा
##हस
yourself
others
##ममीद
माल
true
खरी
##करम
माफ
सरकषा
परिवरतन
hur
पट
महा
##रजा
##षठ
##ote
order
जिसका
looks
सालो
दशो
पहचान
create
वस
##दय
brother
food
उममीद
हार
हजार
def
mach
pict
अक
##वय
निरमाण
community
सामाजिक
mag
शादी
##ether
##allen
रखन
class
जनम
दवा
ste
heard
विजञान
##iew
prop
कोशिका
language
ap
law
##ins
कमर
dollars
खश
गय
##tle
##ारो
prof
चलत
बकवास
पदा
पहला
कहता
गरह
partic
aw
vide
सारी
##मस
soon
##iron
prom
सपषट
बलकि
##हास
process
##ages
contro
पडता
gone
पान
सद
##ially
##जह
che
almost
death
government
body
hon
##ots
##ided
intern
शिकषा
possible
बदलाव
bur
##app
##gest
रहना
deal
छोटा
minutes
सखया
complete
हत
##षटर
ready
words
environ
es
fine
test
मश
##जो
##aken
age
nice
six
मजा
##fu
sho
alone
quick
पिताजी
शामिल
free
sort
since
val
एम
##णी
whether
hands
past
उल
तौर
##मिक
super
##ired
##ivers
eyes
land
##नट
##br
##मित
suc
sometimes
imagine
कसा
##ient
##vers
organ
निरण
##भावना
fel
##भर
often
##िसट
exact
##ump
phone
experience
president
परणाली
cells
model
col
sense
खड
वाह
##old
##कन
अनस
entire
taking
africa
public
parents
dam
hist
कब
##side
happens
though
behind
तकनीक
treat
वजह
##iec
दरद
रखना
dou
tre
सभव
##ऊगा
##िनन
##राब
send
##osp
कठिन
चिता
जिम
##तः
##eck
arm
कपयटर
ris
अकल
रको
##चच
##शल
##घर
कषमता
##यालय
case
dream
fig
nor
आम
चाल
परीक
chr
probably
अगल
##ows
doct
##नीय
across
break
तलना
felt
डरा
लान
##ene
challen
##ोरट
आती
##फट
समर
##तिहास
##ander
##डाई
anyone
पागल
##शील
कितन
##चरय
##िव
energ
grand
single
gave
अद
समह
सामानय
equ
खा
inf
उसी
राषटर
बढा
against
hours
stuff
vill
wind
##भत
किताब
पाए
close
अफरीका
##कान
##सित
परकाश
share
invest
polit
उड
चका
##ither
##ogr
morning
bar
पो
परकरिया
##ush
कन
रासत
##ai
##sh
##ारथ
typ
vir
डा
##थन
##णाम
##ined
##ones
##ताव
##ider
साफ
##ियर
building
आशचरय
pos
इला
##ians
##वाय
dev
leg
quite
रासता
hosp
mil
अति
नई
पतर
रोग
top
reach
living
लगी
सवय
answer
environment
energy
bro
sent
##ताल
ones
goes
चाहिय
##तमक
अमरी
cult
##dd
##pr
amaz
##rib
मसति
fall
नक
##lt
thous
जाच
front
कहान
टीम
dire
game
piec
sn
sle
खतर
##मि
##ison
##aring
step
states
stories
within
##ried
phys
learned
support
ah
fear
दती
बटा
हाल
##धित
ton
##itch
इतन
दोसतो
easy
wall
ऊरजा
कदर
##ames
लकषय
परिणाम
लडक
lab
line
ra
चित
मास
सहा
सास
door
रहो
माता
ca
पसा
##खा
##ives
शरआ
बताओ
begin
मखय
fire
रस
##बो
stre
##रीय
##ape
असली
problems
simple
वशविक
eat
चर
चितर
##iter
##iting
##ters
deep
महिलाओ
protect
पथवी
exactly
bi
cop
fail
pick
खशी
##ced
मिली
needs
instead
control
gun
कॉ
तजी
पडा
२०
##ton
##ताह
##ality
सममान
पछा
दौरान
##हसास
king
डॉक
##करी
ideas
south
पक
##पत
##लस
##ised
उततर
pull
नियतर
वयापार
मसतिषक
30
कदम
गाव
##खत
समदाय
everybody
looked
cost
level
जयाद
happy
di
hit
हाला
##omes
cann
trust
somebody
climate
आरथ
pap
##कियो
बचा
space
कयकि
अधययन
निरणय
cal
cert
taken
तज
वसत
##ior
##सप
##ional
जोड
guess
बाकी
feeling
jack
खान
लडाई
सग
##line
##इस
##ndred
उनस
anim
##itting
विकसित
घटना
##भाग
company
fre
वजञान
##धिक
##itive
white
abs
hundred
##gram
जयादातर
sister
अजी
जञ
फोट
बटी
लब
वाय
विद
##ायक
united
चीन
police
opportun
mill
sil
कत
बाल
हसत
##दयोग
##ott
project
बनाना
craz
surv
##ences
परषो
चनौ
education
मशीन
आतम
विर
##no
program
जिसक
drug
science
computer
video
हालाकि
15
तनाव
भो
##ipp
##bers
रहता
##ived
बतान
जहाज
मौका
elect
##ograph
अकस
इतिहास
उचच
दकष
फरक
बॉ
हफत
##ातमक
gets
##rought
least
##anger
expect
society
girls
##cover
आरथिक
wife
एस
दषट
साह
##ub
आपस
prov
##चछा
बचचा
poor
strong
मौत
नौकरी
scient
आकर
खीच
जट
मड
रॉ
##ron
##टिक
##फा
##उस
##इड
##वादी
##ीकार
planet
सामना
निशचित
##iddle
fly
कट
पकष
##port
##fic
उनको
##ulation
##ield
ways
दसरा
longer
कितनी
शरआत
अजीब
bat
यवा
वया
सभावना
##land
##ract
##te
लडका
##ished
incl
engine
100
mad
##gress
##झा
##urs
सबह
##ilt
मिलन
कपनी
परतिक
killed
वरषो
बजाय
अकसर
cut
dest
इटर
जारी
##ax
##लप
##bon
tom
##ारक
##ision
##acy
cond
समझन
incre
students
attention
market
success
धीर
##णा
state
तमस
समान
black
बढिया
access
week
आवशयकता
sleep
fil
sun
takes
एन
टो
दा
##गो
stress
बाजार
हिसा
डॉकटर
50
गड
सनो
##men
chance
save
study
given
figure
crazy
खाना
चप
रक
##ma
##जित
##जली
##दो
short
whatever
करनी
along
इनह
full
##यापत
लिखा
पतनी
interesting
during
खन
##eed
##tain
##लड
##बखत
perfect
phil
आखिर
परशिक
changed
amazing
cannot
hun
luck
mic
झठ
वकत
##dy
##टक
परान
##ases
outside
##ief
रोज
product
history
हस
##जिय
##वत
##दारी
##फर
##ouch
tot
##ization
वाक
av
billion
पाल
##ane
परयास
iss
seeing
कमबखत
जीवित
happening
परवाह
couple
daughter
कमी
पौ
##ोत
परयापत
playing
डटा
self
कारबन
post
laugh
certain
ill
middle
खबर
योग
##पास
परदर
परमाण
##तियो
sell
known
teac
arr
जलवाय
##ency
object
fac
##साह
##टस
##बस
##चक
अपरा
##ायन
appro
decided
finally
##wards
असपताल
पाप
मक
##come
परिस
##गरह
मतय
thanks
needed
telling
attack
201
दकषि
12
ve
रचना
check
निवश
diffic
effect
difficult
bill
##na
##लर
##जिए
##इक
##ानो
##ift
अधिकार
बताना
भगतान
north
खयाल
##vious
third
##ats
जाद
जबकि
ourselves
wants
large
चिकितसा
vi
मि
लम
##haps
##urity
forget
truth
incred
completely
brought
hot
norm
पाय
लना
सिक
china
विषय
##ode
##ability
became
drop
परभावित
weeks
died
mal
लाल
rev
##olution
सीमा
##ude
perhaps
विकलप
वयवहार
भोजन
अच
मॉ
##read
ship
जानती
मारन
aut
fast
ge
rad
दव
सात
##ease
##सल
##bs
##aus
sex
safe
imm
fund
focus
गोली
जितना
जक
##ased
alive
exist
##iving
जलद
hello
uh
मिश
##aid
करोड
##नाक
किय
उसम
नागर
##यकत
बदलन
key
##others
camp
swe
touch
##atic
##ental
##रीन
learning
राजय
american
hospital
born
चौ
मना
moving
##ivid
##ivity
आसपास
serv
waiting
डिजा
परीकषण
direct
परतिकरिया
bed
eight
main
आकार
एहसास
डाला
##तीय
दखिय
allow
विभ
##uss
जिसन
लाभ
discover
reality
इलाज
tar
खत
जमीन
##lish
##हन
##हरी
enc
कहन
works
rock
security
वयकतिगत
return
अदभत
alex
view
चोट
मद
शकरिया
हड
##ike
##पति
##ator
##भीर
##aged
सडक
aud
breat
पात
वार
विन
##uct
##ned
##सिक
##टना
##गिक
ant
लगान
tem
माग
सवीकार
उपकरण
disease
दीवार
आनद
फिलम
mine
pot
खोल
मध
##amp
##unch
pract
consider
जिदगी
either
लौ
शोध
##तक
##वस
परती
tried
रोब
carbon
खिलाफ
village
master
आराम
गोल
सदश
##ming
##िज
करिस
##orrow
##asure
भीतर
सबक
खरच
##ugg
picture
जिमम
bir
ground
late
आकड
बवक
##use
##मति
##ury
requ
worry
themselves
##els
sug
विशाल
companies
net
टाइ
दौ
धर
शान
##ढी
near
##साय
बनात
चलता
##दधि
बहन
उठा
सिदध
economic
piece
##me
##que
पहन
worked
##कतिक
बिजली
boys
emot
early
powerful
##rupt
विभिनन
cool
dig
गभीर
चिल
हथ
stat
rece
knows
##ains
बदक
जाएगी
##ances
america
##चीत
जिनहोन
अतिम
सगठ
rather
##ॉप
neur
बातचीत
रखत
##रोप
राजा
ident
humans
road
वयवसथा
मजाक
press
sat
##ler
##ीय
##ering
करम
##ential
seven
secret
आखो
running
गरीब
local
doctor
##ces
##कसान
मौजद
मजबत
report
वीडियो
micro
mur
आइ
खराब
तय
सभाल
##ply
##दरी
परया
समापत
##िसतान
बनाए
माम
सोचता
##ानीय
##cial
drink
ताकत
turns
समाधान
personal
record
सपरक
internet
birth
danger
fav
jud
oper
इचछा
जसी
धार
नम
##गति
परौ
परदान
##eter
shut
##room
कसर
दसरो
गरम
indust
चारो
slow
clean
john
colle
hurt
हजारो
machine
hor
lady
छट
भरो
शो
##sy
##ॉट
##लक
##utions
forg
recent
मनषय
places
univers
drag
कपन
सथानीय
दिनो
सपताह
सारा
serious
situ
travel
profess
रोबोट
##gn
##more
##ठा
कीमत
dog
##oose
choice
##istic
prison
office
अवसर
questions
media
जटिल
पसत
यार
हास
##ee
##नि
##ped
##pect
##तावरण
##ानक
ref
cancer
दखभाल
उतत
आदश
पडगा
medic
ससार
explain
तीस
जञान
परयावरण
bud
oce
उह
रिक
##सय
##बार
काल
lose
result
individ
वातावरण
simply
speaking
thousands
ततर
नकसान
##arch
cover
lots
वादा
दिलच
शबदो
risk
absol
hy
path
दब
लट
##to
##लन
##ides
sold
##लाइन
शरम
impact
built
सारव
भागय
परशान
राजनी
particular
वजञानिक
परौदयोग
college
hi
टट
भार
सघर
##by
##imin
##ama
##ified
उपलब
maj
turned
पशच
सहायता
पापा
absolute
mult
rich
वन
##ken
किए
common
थोडी
बीमार
अनसार
बवकफ
lim
mist
mount
कमा
बहा
बरी
रकषा
सधार
##षयो
##ann
दिखाई
difference
relations
सघरष
bank
कद
डॉ
धो
फट
##पा
##work
कोड
समदर
जोर
const
convers
perform
निरभर
meaning
##ibly
सीखा
communities
##ruct
respons
चनौती
hang
ऑफ
मिस
##rop
##oun
##rep
##eth
सबध
##कषण
##िशचित
जरर
event
clos
बनन
##िकोण
created
शकतिशाली
##medi
कोशिकाओ
tomorrow
चो
हलो
१९
##he
तोड
मरख
मामल
सीध
गलती
huge
मीडिया
dark
jour
sal
wish
नषट
रि
शात
##ging
##cc
##चाई
##शय
rele
tele
seems
दशय
अरब
communic
english
डिजाइन
hus
दरी
##ges
##rest
करगी
##itiz
काट
साझा
दखग
##tern
##umb
spend
anymore
##जनक
अमरिकी
कानन
समरथन
civ
इम
गरा
लता
##ole
##तन
##पट
##kes
##हम
##oud
town
##itions
##etic
##idence
बचान
माफी
coop
खरीद
नियतरण
मॉडल
div
mot
russ
अला
सज
##वाह
काग
heav
##ितव
nobody
progress
##ापित
सवर
रखता
unf
aff
buy
surpr
##ocr
quickly
damn
millions
दकषिण
relationship
चहर
##por
inno
##ented
trou
##ateg
मिलगा
prin
draw
समझत
scre
emp
mission
account
leaders
camer
street
paper
liter
पति
भौ
##ove
##ged
##mm
##तो
##वाल
##बित
परशन
##िकष
lif
चाहगा
जीन
सवि
immedi
uncle
##षटरीय
realized
supposed
##airs
बीमारी
opportunity
18
40
ach
bene
pur
##ium
##cl
##band
साधारण
blue
लडकियो
मलय
आधारित
message
सफलता
कॉलज
shoot
cir
lord
ted
york
तला
नफ
नरक
##हो
tool
परगति
asking
अनमान
priv
दिखता
scr
viol
target
caus
आठ
इज
ऑन
राह
##रित
##मट
##शिया
##erm
forward
तरत
##iger
सरव
##ards
action
adm
कहती
foot
green
##fully
फोटो
citiz
east
ur
vict
छातर
फला
भारी
मछ
सवाद
##nch
इसान
##oof
बनाता
spent
affect
मारा
pred
write
famil
उडान
अपराध
नफरत
cry
ed
est
gent
सफ
##ires
##पण
##जोर
परनत
किन
online
##acter
जोख
लगात
sudd
systems
terr
address
कहानिया
includ
इटरनट
परौदयोगिकी
sudden
cross
ice
mass
##0s
इसन
सकड
दखी
##ules
enter
carry
smart
कारयकरम
respect
गाडी
political
परदरशन
ban
national
opt
आध
छह
##टल
हमला
##aced
उसको
##roy
बचन
कमजोर
पाठ
मानसिक
impro
##raid
growing
army
हथिया
भरोसा
civil
boss
field
squ
मच
रकत
##जात
##जनो
##धर
##arr
comb
##ायी
plant
सोचन
afraid
मारग
जिनक
instit
obvious
अभि
began
special
sounds
पालन
अचानक
alexander
जोखिम
एडी
दल
##उन
##ाहिर
soft
##amed
ann
neigh
trad
suf
rights
drive
कपड
दशक
बनना
accept
सपन
कषण
##ological
medical
सलाह
हतया
aver
los
san
आकाश
##uly
##ted
##ya
##year
##शाला
##icy
##olved
##une
somewhere
spread
loved
##ored
worlds
compass
##जनिक
बरफ
खोजन
विचारो
minute
हिसस
experi
growth
उतपादन
उपलबध
neighb
ball
dear
eur
low
math
sens
गध
नयी
##ients
##लए
##ination
परिय
##oms
कमप
image
##iverse
jobs
##ततव
हवाई
photograph
population
राषटरपति
##भागय
favor
code
ess
map
गाय
बशक
भम
##टिग
##दिन
##ators
wel
shot
except
##istan
##ured
सरल
##izing
दिखान
##ibility
basically
changes
extre
deliver
वाकई
अलावा
patter
फक
मिट
वदधि
##रिक
##बाद
##चल
##एक
सकर
conv
lock
दरवाज
##जीन
feed
रखो
जाएग
bull
redu
##ney
esp
दषटिकोण
mir
गस
##तति
##सम
##face
##हरो
जानना
peace
लाग
offic
सहयोग
समसयाओ
फसला
विरोध
हिसाब
सारवजनिक
cooper
fix
hate
occ
sick
उदद
जरा
ससा
##गार
##par
##मारी
##oring
search
worth
उतना
निष
sym
परतयक
ससकति
culture
पौध
tur
voice
चकी
तथा
भजा
रिश
लख
शी
ससथा
१०
##lo
##gth
##िषट
##ाश
##hood
##खया
##rent
##onse
##ising
##lect
hair
choose
track
##ायर
अगरजी
सोचना
##ogn
पहचन
emb
##rene
relig
capital
center
गणित
defin
अकला
husband
fill
gh
असत
पद
री
लायक
##iot
##जट
thr
likely
##करता
##astic
block
सनिशचित
निरा
सवागत
behav
जिदा
अतरिकष
general
beginning
situation
major
##reprene
gentle
mer
sam
sum
west
शाति
##vent
##iny
परब
itself
अनमति
चलन
बताता
##icks
निजी
entreprene
giving
nature
ahead
animals
शानदार
absolutely
ce
fit
ir
कौ
ककषा
दिए
हिम
##iet
##ततर
##bit
##arm
##asing
meant
लगगा
जानन
##cious
सचम
सनन
##षटि
strugg
belong
इसलिय
डरगन
images
based
eye
freed
normal
pattern
lad
rid
आह
चिप
पया
मोड
िलए
##mer
##गरी
##ारट
##वाजा
##तरित
spir
emerg
realize
finan
recogn
changing
african
लाखो
magic
challenge
battle
audience
average
nu
चढ
टरक
रिप
सश
सटी
हन
##oke
##बक
##शनी
tor
lived
sea
लगत
##ियत
##igr
कमरा
##ival
दरश
महो
नाइ
पहचा
box
##ploy
repres
launch
खतरनाक
destroy
approach
मधय
ocean
इमारत
ऑनलाइन
fur
non
sitting
एड
गदगी
घो
धरम
बाव
सभ
##ule
##तार
##cum
##बड
threat
##ecially
##ilar
दिखाया
starting
cris
##aterial
movement
terms
नयाय
##ॉरड
##साहित
suffer
compassion
europe
especially
da
taught
आना
गज
२००
##िरी
##परी
##itary
रहगा
enem
##ept
उपचार
arch
असफल
cars
अतय
earl
insp
##भाषा
obs
experim
वयवसाय
अगली
trouble
var
असा
गजर
जॉन
टॉ
डिग
पहा
पली
##eg
##go
##gs
##िथ
##िरा
##bo
weap
##ays
##verty
##ther
शरण
अधिकाश
grad
लाइ
असर
मानना
poverty
कषमा
collect
huh
standing
books
उलल
christ
चितित
hundreds
sad
छिप
नततव
बग
बाह
मकत
रण
सयकत
हक
##oid
##लगिक
##हीन
offer
##aly
repl
neg
##ained
बनाई
जिसकी
##ources
feet
scale
indian
बिता
parts
wrote
transform
meeting
continue
मिशन
##sych
faster
psych
sus
ten
भरा
विल
शीर
हटा
##ring
##iant
##वसथा
##डित
##हित
##अर
##िकट
सकरम
gold
साबित
##राज
सवसथ
दरवाजा
##िशा
सचचाई
##rible
stra
kinds
present
निशान
training
promise
dom
एडर
खिड
तथय
भयान
वरत
##gen
##तव
##रल
##bol
beat
विमान
enj
सरचना
मानत
लगाया
##ission
आसानी
अविश
##phere
मील
development
democr
अमरीका
नागरिक
extreme
straight
भयानक
pack
शास
##वट
##मप
##चन
##चाल
##इल
##ारम
करोग
area
star
shall
among
बनाय
disapp
बरह
बिद
flo
शिकषक
मजदार
numbers
listening
type
tonight
सिदधात
auth
bag
none
sar
अमी
इकट
खिल
नट
पजी
बकार
यरोप
सझ
सटर
##onds
##लिए
##cr
##bt
##थित
throw
##erv
towards
एकदम
सकट
##ासी
chem
yours
##unk
text
वालो
anybody
complex
समझा
##दारथ
परतिर
उदयोग
skin
##ledge
innov
achie
freedom
hop
गहरा
पोस
हिल
##ding
##hr
##ze
##उड
पररित
##ातरो
amount
मरन
सबको
himself
agree
सचना
##ोरड
बरबाद
adult
जगहो
beings
understanding
गरीबी
अफरीकी
current
esc
दिलचसप
immediately
उददशय
बावजद
25
cat
mis
material
vin
चरा
छत
पदारथ
मका
मकस
##yn
##शवर
##erve
परानी
##योगी
##iles
तरक
##ify
सथित
imposs
prep
desp
कलाकार
watching
रोकन
natural
scientists
परशिकषण
incredible
welcome
पलीज
card
port
rate
vol
गला
छातरो
जाहिर
##ral
##uf
##िना
##पोरट
##yond
##भति
##ops
##anda
##ression
gives
dangerous
recently
dav
dna
ox
खडा
दिशा
धवन
नबर
बबी
मात
##थर
##ining
beyond
##ills
refu
जाकर
रहती
ord
कारो
anyway
cold
remind
##िटल
tax
वासतविकता
teacher
service
impossible
ast
cy
dan
jump
ran
खबस
भय
मसी
यग
शन
सॉ
##lict
##ोक
##cy
##ples
##ern
##inary
##oph
##ault
worse
साथी
दोष
intell
चीनी
##विध
crit
struct
bigger
humanity
भागो
solar
आतमा
walking
जायग
species
मालिक
##वसनीय
गायब
financial
खबसरत
dar
vac
धी
फी
शा
##ls
##my
##ठी
##ping
##चय
##षकार
##entially
ability
mov
truly
##किग
मिलत
माना
hero
इनम
grew
सिखा
pictures
position
अमरीकी
सिकदर
खतरा
suggest
including
मिटटी
अविशवसनीय
cart
दकान
भख
मायन
वकी
##ware
##लय
##खला
##ero
##outh
force
समदरी
##ilities
becomes
अनदर
##ापन
##विद
पछना
##ails
solution
detect
patient
चरचा
vincent
gal
अना
ढग
मोट
सौर
##ex
##iest
##ature
करवा
हमम
react
##ecess
दखता
शरव
समझना
calling
##वीय
बढन
सथिर
party
leaving
similar
समाचार
सीखन
babies
value
revolution
चिलला
bott
cities
don
er
fair
gas
jes
lu
rain
खाली
##ik
andy
##icated
stren
जाऊगा
##कीय
whose
##roud
##वरक
##ोलन
##riage
strateg
पढा
solve
अभिया
परयोगशाला
memory
issue
##इकिल
medicine
सचमच
bird
kept
paid
मितर
वित
हद
##uals
##gue
##यब
##com
##फोन
##एग
##ja
परवश
##ites
समबन
##ades
चाहग
compet
लाइन
लडको
गरव
married
flight
putting
schools
हाथो
विसतार
extra
proper
physical
potential
रिकॉरड
literally
benef
crisis
strength
aid
catch
ends
park
push
size
एव
गद
छवि
नव
बध
मातरा
हाय
##ey
##करा
##फस
समलगिक
##ech
separ
knowledge
##विषकार
seconds
minds
अभयास
सिखाया
robot
machines
डराइ
positive
lucky
कपनियो
further
jesus
table
ult
अदा
खात
बिस
##थी
##inal
##िकन
chines
मिलियन
upon
##apt
speed
fell
राम
रोमा
healthy
consum
effective
पनर
dreams
predict
nucle
महोदय
chinese
proud
अश
घम
सघ
सला
हट
##aking
##ony
ang
seat
worried
बातो
सवततर
##aging
भाड
लाया
महीनो
conflict
funny
forest
apart
virus
conversation
सविधा
citizens
##yearold
behavior
spirit
डिगरी
अमीर
सझाव
धवनि
14
500
corn
ger
ring
tas
tick
ओक
लि
सोन
##ought
कीजिय
##ster
##ाहना
दखकर
बहतरीन
मिलती
##दायो
बचपन
कारड
cof
tells
दशमन
लगाना
interv
marriage
वरग
decis
decision
greatest
creating
response
accord
जायगा
फरास
color
university
कागज
लगातार
असतितव
वरतमान
din
mouth
nine
औसत
कतत
##lu
##book
##ps
##मार
##zz
परकति
##ishing
किश
होकर
##िकस
##िकल
इसको
तोह
विपरी
##ियल
however
बदधि
शरखला
बतात
arrest
blind
starts
helped
आखिरी
higher
daddy
century
परमख
practice
digital
भारतीय
families
bal
ep
fing
sect
yell
गना
पटर
बनी
##डट
##fort
##ims
साइ
moder
##used
##कषर
universe
जगल
##ffic
helping
stopped
शिकार
plane
finish
टीवी
सामगरी
coun
groups
honest
film
gentlemen
cases
eg
fal
आधा
खला
गी
गिन
दान
नता
रच
१५
##rie
##सटर
##ban
##ese
परभ
##icle
मनो
कहो
दरभागय
##वीप
रोशनी
resources
scared
interact
##othes
##चितर
developing
औरतो
excuse
जिममदार
सगठन
हथियार
विपरीत
60
fish
hank
necess
उतर
कमीन
जला
टकड
तफ
दादी
##iod
##wor
##टिन
##गान
##खी
कीजिए
समदायो
##तीत
above
mob
##ears
seem
हाक
##itten
period
पीढी
सथापित
poll
गराह
shows
showed
वयसत
बराबर
##यरर
##ended
developed
wonderful
teachers
grandm
totally
unfortun
भौतिक
enjoy
won
इजीन
चली
तव
सजा
##oon
##over
##पान
##ॉरक
##cise
##जक
##omb
##asc
wear
##िकर
measure
साइकिल
##chan
moved
##antly
defe
saved
सरकारी
anywhere
इनस
बढती
सपना
पलास
वयकत
सहमत
biggest
glass
पारटी
##पनन
captain
नियम
मानवता
connected
honor
treatment
पाएग
कहानियो
discovered
multip
रिपोरट
mate
pen
इरा
उचित
गार
शॉ
सिसट
##right
##जान
करा
##ises
weak
stri
##iling
justice
सवान
price
brid
everywhere
लडन
परतिब
जिनदगी
पराकतिक
बहद
terrible
generation
गिरफत
signific
interested
टकडा
miles
military
sweet
चोरी
सकरिय
bod
fle
jim
mart
ram
अड
कसी
दिला
यान
##ued
##ners
##wise
##जकट
##hi
##णड
सकार
mechan
साव
shaw
lie
sever
moon
जानवर
plants
saf
fuhr
finding
roll
role
##upid
fighting
patients
aware
models
drugs
योगय
दौड
journey
afford
camera
तलाश
suddenly
floor
mental
named
sust
चि
तार
फयरर
भरी
सअर
##light
##कशन
##आर
##पस
##पद
##pective
##इयो
किनत
##ाहट
##osphere
unl
activ
##itted
##ips
arab
निरधार
बाध
##ressed
contact
involved
farm
visual
corre
##वयवसथा
total
individual
पशचिम
मछली
भमिका
शनय
pal
roof
चहरा
चनाव
बजा
##ique
##ked
##वाला
##oming
सका
##िली
##irt
shared
##ोगरा
मनषयो
##ियम
orig
##oles
कारयालय
हाउस
चलान
सरज
##ource
quant
उतसर
राजन
##दीदा
पीडित
जिनका
student
महिलाए
आतक
collea
governments
double
diag
fundam
emotional
भागयशाली
earlier
इकटठा
base
led
mention
गिरा
चाद
बम
शारी
ther
परार
weight
stupid
लगती
trade
concept
मिलकर
quiet
blow
सनदर
बनिया
minister
##enced
join
handle
brains
##cuss
provide
गडबड
refuge
galax
bottom
बिसतर
coffe
decisions
तवचा
11
ble
iron
lat
match
pig
tiny
ठहा
नरस
वसा
##तल
##कसा
##वरो
##ham
##ball
##थक
##xic
##ju
##just
##itect
आपर
goal
##ासा
##key
unless
कपतान
दिखाना
##विदा
सनिक
##दधा
पसदीदा
परतिभा
जिनम
march
परतिस
talked
host
assum
##धनिक
परसार
डिज
अरथवयवसथा
विसफ
broken
certainly
सजजनो
architect
सिसटम
निरधारित
den
dying
fool
vers
जडा
थोड
नन
मला
##eal
##oint
##gin
##िटी
##टम
##लिया
##गगा
##bb
##pose
कोर
fort
रहग
##वाही
worst
exec
deg
concer
माइ
वहाइट
बचची
afgh
##ipt
असभव
मानवीय
##ensive
command
पराथ
##order
surve
पढन
visit
सथानो
२०१
teaching
धारणा
पसतक
improve
आकाशगगा
पलासटिक
विसफोट
cust
gro
आदर
नदी
रडियो
शौ
##rast
##iety
##ground
##आई
करिया
परियो
infect
##ानभति
##iding
अपकषा
दखिए
mos
atm
##ulations
peoples
चलिए
कहग
महनत
##विड
##itely
employ
writing
सहानभति
उदय
gods
term
americans
excited
बलाया
lawy
avail
radio
microb
mountain
favorite
despite
intellig
race
rules
tough
टड
नश
नवी
पच
##लिक
##cles
##lle
परजी
##नाम
##omer
whe
होनी
##owd
##योजन
usually
##unt
produc
pray
brothers
विशल
उतपनन
पीठ
अलविदा
otherwise
crime
scream
##issions
perspective
लोक
solutions
repe
परसताव
##दनशील
फसल
produce
chris
धरती
industry
enemy
असाधारण
extremely
मसीबत
several
coffee
पराथमिक
dance
zero
आयी
चिन
डो
भजन
रड
शक
हय
##ias
##िदध
##रद
##सव
##lec
notice
soil
##istics
manage
##iven
इनक
रखती
राषटरीय
flow
final
bitch
भावनातमक
walked
मालम
organization
doctors
survive
madam
issues
effects
हासिल
gradu
वकील
सकारातमक
शारीरिक
afghan
17
cook
fat
lines
wow
आधनिक
खब
गहरी
थक
फिट
लात
वजन
१००
##सो
##cing
##मब
##धनो
##ino
##ana
##aching
अपर
विजञ
लकषण
अनप
हाई
सोचो
intro
clim
##iction
desert
understood
surface
सीखना
##ruction
missing
sky
depend
painting
अनसधान
डाटा
streets
veh
network
birthday
सफद
नटवरक
german
safety
13
burn
caught
lower
कव
छद
वब
शहरो
##ration
##oices
##पल
##ौग
##ऊगी
init
होटल
रहसय
विडियो
##तरिक
##ively
##मीटर
evidence
que
workers
बढत
##वादन
तरीको
पीछा
अफगान
##itional
technolog
holding
determ
बोला
designed
कदरित
campa
लौट
राजनीतिक
tools
obviously
oxy
nuclear
according
इजीनियर
डिजिटल
kai
names
oil
sand
tour
कश
गम
डबल
नाव
फाय
भत
शकर
ससथ
##ees
##परा
##वयर
##बरा
##यात
परोट
परारथ
हमल
विज
cloud
##cient
driving
##जनस
remain
secure
smell
showing
desc
killing
##phone
warri
capt
joy
सतह
character
vision
reading
photos
इसीलिए
following
windows
thousand
आखिरकार
breath
murder
forgot
results
purpose
अभिवादन
daily
शीरष
##विदयालय
शरवात
strategy
परारथना
24
ber
pan
rap
rise
song
till
vul
आभ
ईमान
खडी
टन
भिनन
##dom
##mission
##तय
##बादी
##inated
##atory
wearing
##lebr
सकॉट
stick
storm
goals
molec
बचत
tend
plastic
शरमि
सीमित
कलास
discuss
##वासी
courage
busy
basic
effic
function
economy
steal
डाक
raise
hung
incredibly
धोखा
neighbor
celebr
हिममत
ladies
author
unfortunately
उतसरजन
परियोजना
due
ign
mid
native
pand
अख
चट
चना
तट
तया
दोग
दगी
मट
यतर
यौन
रसी
लडी
##dam
##how
##शित
##reci
हमस
##iced
docum
सकडो
##acking
अपमान
anx
##ceed
##ulate
suit
सीट
##ference
contrib
marry
emissions
छोडन
पछता
studies
पतथर
मीटर
leader
passion
एलन
198
reasons
harm
foreign
##कालीन
कॉफी
animal
electric
साहब
successful
avoid
allowed
eventually
closer
private
violence
शरणारथ
modern
fuhrer
बनियादी
available
eth
river
टा
ताप
दफ
दिय
पमान
भमि
मममी
रम
लॉ
वितर
शॉन
सनी
##ends
##rum
##ube
##iers
##चीन
##for
##एन
##inct
ine
shame
waste
ash
asso
amb
सबत
##usion
##abb
चलना
saving
##rypt
समझता
सची
सचार
सचाल
evening
बदलना
पारक
मजबर
पढाई
परोत
beauty
सदरभ
चिकितसक
doug
legs
copy
हसता
जिममदारी
मामलो
heavy
रिशत
experiment
तफान
correct
therap
विशलषण
vulner
16
loss
mut
round
अण
इक
कवा
कवर
टली
तभी
दाव
शिश
##lin
##मती
##yle
##शास
##घटना
##reed
परधान
कोन
bell
##sequ
stage
store
समारट
alg
exer
prim
brand
events
crimin
crowd
diseas
prevent
##rench
पराचीन
max
सलझ
परसकार
confir
photo
particip
नियतरित
calm
conditions
परशिकषित
products
dragon
उततरी
terror
achieve
पोसट
bodies
campaign
associ
date
homes
niger
उडा
डौग
नतिक
वॉ
शि
शरत
शोर
हरा
१२
##ta
##और
कराति
##sem
सकन
##करो
मिलगी
##रोध
लाना
arg
असथ
appreci
वापिस
##athy
feels
income
hole
##bling
##दशय
accom
##ancy
तकनीकी
corpor
दिखाता
connection
demand
computers
forever
clearly
जनमदिन
labor
विदशी
hotel
तीसरा
vacc
martin
परजीडट
las
pet
rand
आबादी
इश
एच
एशिया
कच
जत
जमा
हान
##aff
##iar
##िवार
##कसी
##थम
##ened
areas
##though
बारी
although
मिलना
सरय
दरघटना
##resh
मतरी
पाना
##empt
अधिकतर
activity
calls
रोचक
##कलिए
वरण
throughout
नामक
decide
greater
pupp
creative
सौदा
largest
harv
challenges
influ
वायरस
वयाव
increase
nearly
mistake
essentially
entrepreneurs
weapon
रणनी
diagn
फायदा
diseases
bare
cred
ell
lay
pil
ride
wake
कजी
गपत
जडी
डविड
नयर
लबी
##vor
##पो
##जाति
##hal
##बारा
परद
##itude
##icking
onto
##ently
साधन
जोकि
myth
neither
##ोगराम
sean
विविध
trip
comfort
##aper
जीवा
अनकल
##ager
##ously
उपभ
twice
समझौ
written
छोडकर
जनस
moments
keeps
planning
assist
योदधा
respond
effort
परोजकट
easier
lights
charge
##imately
members
opportunities
increasing
ततरिका
relationships
##load
emergency
movie
corner
ben
hous
odd
चाय
ति
##ae
##आप
##वरी
##hy
##बला
##rew
##itter
wealth
आपात
##acity
##िनि
willing
##वाई
therefore
##erson
##सागर
जानवरो
pelle
##ables
somehow
##eless
##दरो
सवारी
दरशा
सोचिय
निप
scott
indeed
##athers
flu
studying
##माणड
##anced
भावनाओ
location
अधयकष
खिलाडी
subject
चाचा
damage
फोटोगरा
##ipped
objects
किनार
रचि
atmosphere
70
gar
link
range
tit
ug
आधी
कली
गट
डाय
हि
##li
##let
##कात
##किया
##लिन
##मह
##att
##arily
##ातकार
libr
विभा
बारिश
बचाव
##aste
##arden
##कारा
cla
clock
clothes
resc
सनना
बाधा
बरट
उदयम
अवसथा
पिछली
conscious
199
matters
विसट
specific
trained
जितनी
##idden
महासागर
नकश
failure
laughing
नागरिको
राजनीति
software
announ
निषकर
निराशा
कौशल
बरहमाणड
adults
##ufact
अभियान
समबनध
interview
dinner
गिरफतार
quantum
dut
gift
hom
ken
rout
tv
ver
van
इधर
जाल
नोट
फा
भद
मचछ
रिस
लस
लिग
सदी
३०
##sc
##लट
##bod
##ढियो
##20
##ndon
##िकत
shop
shift
washing
chief
consequ
बनाती
london
विशिषट
दिखती
board
खलन
policy
##ocol
नियमो
standard
##ाइल
passed
टरवर
पनः
oppos
continues
laws
मासटर
##धिकार
मडम
लमब
directly
गरामी
screen
recognize
represent
बाहरी
विततीय
bridge
sustain
परारभ
bh
bob
bath
fa
kiss
lying
mi
mouse
mothers
wound
wood
कडी
घरो
नात
नकल
पषठ
बत
बास
भड
मग
लफट
##vision
##ext
##iation
##ns
##gues
##mon
##मम
पररण
##itation
##aries
##arian
एकम
stars
shape
दखती
knowing
##ung
load
सवी
उपाय
quality
राकष
pock
निरदश
सपतति
पडोस
feelings
smile
बलक
बठक
परशानी
राजक
विशवविदयालय
परसिदध
bringing
passport
टरन
कषतरो
singing
नील
soul
बोली
shoes
##तावनी
आशचरयजनक
pieces
calc
silence
हफतो
flying
##वतता
योगदान
दबाव
responsible
princi
suffering
सकरमण
सॉफट
afghanistan
french
gay
games
nut
ईर
कशल
चमक
जॉ
पज
माह
##ront
##वित
##hole
##डिग
##उट
##onst
करान
inse
##icide
##enty
समन
liber
franc
tri
##करताओ
##abor
manufact
चलती
पासपोरट
अधिकारी
grown
पीन
scene
परतियोग
अतिर
बोलत
उठाया
missed
तलवार
नयरो
काननी
trevor
चालक
रोगी
बॉस
दषटि
वारता
परतीकषा
slowly
##लकटर
definitely
अफगानिसतान
कवाटम
गरामीण
fol
gree
jap
james
wed
इलकटर
चतावनी
डब
ढा
दात
धत
नो
भला
मशी
हिट
##rated
##ius
##time
##off
##िओ
##सतर
##bel
##ौल
##बान
##बरी
##भमि
##एगा
##ered
##itness
noticed
station
stuck
साकष
shown
frank
लगन
truck
##परशन
fem
##emic
उतसाहित
carol
जिनकी
पडो
##षणा
male
serve
सदसय
international
raised
failed
कतिया
arrived
आकडो
seriously
surprise
losing
democracy
chemical
रोमाचक
##riend
उदयमी
तापमान
जनसखया
लफटिनट
एकमातर
bought
hide
kore
mort
rom
tro
tree
wide
निग
नतय
##aur
##ios
##iber
##nal
##50
परजात
भीड
रहगी
##राषटरीय
##term
चाहगी
alph
##iff
कारयो
spl
spot
brit
thinks
रखी
पाक
evolution
letters
उतसक
fully
guard
आजादी
##ension
context
सपनो
पलट
मौसम
पछत
भरषट
अतः
सहज
बीज
अवधि
career
goddam
परभावी
relax
capacity
collective
paying
paris
traffic
robots
advice
खासकर
burt
परीकषा
आकरषित
illeg
परिसथित
services
received
पौधो
negative
मातभाषा
डराइव
technologies
21
99
bast
bomb
giant
honey
lack
pound
um
अतीत
एट
टिप
टिकट
पषटि
बरो
बटन
मई
यी
रल
लिप
शभ
शराब
०००
##egr
##िफ
##यल
##wers
##वियो
##fl
##orith
परमी
##हाई
##योजित
##urg
mel
##imp
सागर
lift
##ams
analy
##िरण
##pped
novel
##ushing
बचाया
अनया
सराहना
##जीरिया
पाता
letter
सनत
सनिको
जाओग
mostly
decl
परतिनि
सटीक
differently
शिकष
careful
बठा
warm
engage
swim
complicated
विशषजञ
exciting
पकडा
electr
engineering
नमसत
experiences
symbol
escape
critical
structure
algorith
appreciate
random
परतियोगिता
अतिरिकत
japan
bon
bound
ment
mak
pak
ईधन
तग
पला
बिक
मित
मतर
मातर
सित
##oll
##तिया
##जत
##atures
##याब
परोगराम
##itals
किरा
##ason
##acing
तोडन
##ada
##aul
##ulous
alright
##परिक
ens
enorm
चलगा
सोचती
closed
आदि
जाति
crack
strange
अततः
surround
belief
सतय
meth
possibly
hearing
पकडन
##ाराज
corrupt
wondering
winter
magn
classroom
बढावा
device
walls
वजञानिको
साहस
sexual
मददा
murph
buddy
communicate
mathem
घोषणा
अतयधिक
david
orders
intelligence
नवीन
climb
400
bunch
bacter
fab
loud
nations
rah
ty
wol
witness
अवश
आविषकार
इजन
एज
चह
जमस
झट
डन
दम
दया
नकार
बिग
मिर
रसा
##ray
##kn
##मोन
##हिक
##खान
##eral
##aria
##ley
सकग
reven
trial
दोहरा
दोबारा
becoming
जीना
span
सवदनशील
print
fellow
उतनी
मारटिन
कलिए
बाट
बरक
##quit
बदलत
##सथित
smo
भरन
series
बोलो
परिवारो
accident
signal
पकडो
भविषयवा
hurry
लानत
reached
costs
gender
temper
individuals
राहल
पाठय
square
##arrass
ससाधनो
embarrass
उललख
fundamental
anxiety
रणनीति
मशीनो
enormous
रसायन
300
gather
hyp
lands
rav
rural
डाइ
वॉल
सपरण
##law
##af
##िटन
##सती
##ky
##ker
##bre
##खय
##अपन
##esome
परय
परसत
किलो
hall
सकलो
##idents
##illy
##urance
##irty
sequ
ups
##osis
tel
prove
plat
spe
कहगा
log
brave
सीधा
##cks
अधिकारो
भाषण
उतार
बढान
अरबी
##rial
contract
सनातक
जनता
pleasure
शिकाय
leaves
##place
played
court
लोकत
recover
harder
transport
##मकिन
अगला
##मलन
गणवतता
##ification
नीद
distance
जीतन
खरीदन
कोशिकाए
awesome
types
virt
legal
snow
वसतओ
विदयालय
टोपी
रचनातमक
encour
professor
particularly
performance
गससा
परबधन
destroyed
competition
फरासिस
false
unlike
colleagues
मलाकात
warrior
##शासतर
goddamn
यीश
pakistan
80
bicy
dry
fif
fresh
hat
horm
lic
page
rare
wild
अट
ईशवर
गौर
घमा
चरण
जम
धम
पडी
यन
लाय
सिल
सफर
##rict
##gers
##पित
##पटर
##गण
##गोर
##दना
##बॉल
##इए
island
##ita
##arrow
##stairs
doz
##acle
heal
##ami
##amic
ancient
asia
chuck
##लाग
##anted
सबधित
knock
spo
spect
दरज
मरीज
unique
लागत
मारच
cru
##भाविक
idiot
email
पछन
older
डालत
किसन
सामहिक
examples
airport
easily
कठोर
regular
जितन
महामारी
doubt
window
environmental
broke
सहायक
विदयार
autom
आनदोलन
television
divide
crying
मारगदर
turning
गिनती
arabic
microbes
illegal
bow
cast
dick
fant
fake
owe
sons
tiger
अकष
उभर
कॉर
पॉ
बगल
लदन
१८
##ull
##mit
##कटर
##पकष
##सको
##वाली
##head
##pro
##मियो
##हल
##शि
##शम
##शिग
##itor
एकस
##icing
समति
shad
likes
##ches
##ils
deb
whoa
tea
कारटन
अनत
बदर
integr
clin
उततम
bless
blah
expensive
कलिक
बनता
सनान
घटो
tech
finished
परभावशाली
switch
नियमित
depression
videos
values
परकाशित
politics
picked
guns
philos
considered
caused
massive
ससाधन
नाइजीरिया
susp
खिडकी
grandmother
exercise
folks
ay
bot
pun
rule
vast
आल
इगल
ईमल
कड
गहर
चम
जय
दबा
नती
रानी
लबा
५०
##ror
##uit
##under
##mend
##िमी
##ses
##लिस
##ka
##ौती
##खल
theory
##याम
करणा
परिया
##नान
कोल
weird
##lement
bear
mexic
shout
##ोगी
##cell
frame
विफल
विवरण
##ापना
brings
##जाम
असव
resist
##विधि
निदान
बरलिन
previous
जिनस
पडगी
empt
कारणो
निकाला
मौलिक
बीमा
अफस
artist
परोफ
कठिना
तसवीरो
larger
नीला
robb
infrast
investig
devices
नकली
कतता
लमबी
malaria
मामला
अतयत
angry
बदधिमान
defend
सावधान
##कसाइड
तयारी
वरणन
पररणा
भविषयवाणी
infrastruct
ec
fault
fathers
la
narr
sen
source
tired
witch
आमत
एजट
कण
कतर
घात
घाव
चकर
ठड
तत
मफत
राय
लहर
सभाव
##lor
##aves
##rance
##रप
##back
##खो
##एम
##असल
##rees
##any
##ening
##oted
whom
note
##uted
काब
##ालय
shock
sharing
##काम
विभाग
##कोप
##परव
माप
mans
loves
दरअसल
##जाना
unc
aging
परिभाषा
happiness
indu
commer
पराना
decade
वयसक
सहारा
जनरल
surg
believed
सीखत
supply
उठान
heads
newsp
depart
वाहन
investment
sisters
condition
टोनी
statistics
neurons
pressure
forgive
##bye
sales
empathy
optim
institutions
occur
necessary
ठहाका
oxygen
faith
speech
लोकततर
bang
hidden
je
nurs
pir
site
und
आव
उगल
एफ
एटी
खाद
छो
टलो
दकर
नमन
भया
यात
##aver
##टियो
##मझ
##yal
##बध
yout
##eds
inject
held
liked
anger
##aud
मनोर
जबरद
दोप
##aped
माइक
##eared
सरवश
दरशक
prior
bright
नाटक
कसम
core
उपन
quar
परिचित
grab
percept
आदत
सनाई
जनन
मलरिया
समसयाए
glad
ताजा
##bled
पढना
factors
buildings
sword
मीटिग
basis
fourth
points
skills
signs
निकलना
ढढन
असपषट
cultural
लडकिया
सासकतिक
जञात
आकरषक
figured
दवियो
request
identity
आइए
पसतकाल
motiv
edge
entrepreneur
struggle
inspired
परतिरकषा
मकाबल
arrested
##works
farmers
custom
vehicle
berlin
neighborhood
वितरण
francis
शिकायत
आमतौर
cow
gate
kick
इका
कथा
छाया
दः
दवीप
नताओ
लती
शलय
सगरह
हिला
##ores
##oved
##लियो
##based
##थि
##इय
##घन
कोरिया
##ication
##stand
doors
##urb
goog
reve
anal
##हतया
chose
विष
trick
##तरण
##olve
##unte
##परिय
spoke
##टरो
##कषप
pri
उपहार
दसताव
लाओ
##वरड
बढी
मानता
दिखन
सनय
बादल
fuel
परतिषठ
partner
flag
उदास
##raft
invented
चारलस
बहस
slight
collabor
मसल
सवाभाविक
एलगोर
generations
196
गणा
curious
##दायक
distrib
गतिविधि
तीवर
answers
सडको
चाक
testing
histor
चितरो
पकका
pulled
levels
immune
immigr
maintain
दीवारो
industrial
छटटी
professional
responsibility
ऑफिस
journal
patterns
पयारी
पयारा
innovation
volunte
अनाथ
mobile
version
queen
electricity
तिहाई
opposite
rahul
aug
boo
cale
dress
faces
fasc
kil
mama
nation
pants
sate
अहम
इद
गठ
घटा
चमत
जवान
टिम
मोर
लव
शदध
शहरी
##नस
##नल
##यॉरक
##ाचार
##वह
##फिक
##मबर
##थियो
##ati
##anes
परचार
webs
जाग
wash
allows
##साइट
orph
##ीकत
##परवक
सवचाल
everyday
बताए
बताती
##izations
grav
##मरस
निरतर
निरमा
बाए
घरल
okja
दीजिय
##elling
decades
famous
##भाषित
instance
ended
capable
opin
swed
transl
creativity
lesson
setting
smaller
नययॉरक
फिलिप
published
नीति
##iox
former
languages
production
distract
messages
महाद
हारमोन
entirely
hospitals
नकशा
कॉपी
कॉमिक
घटनाओ
बॉकस
laughs
selling
facing
reflect
पशचिमी
कमपयटर
religion
निराश
शासन
गहराई
birds
yellow
इनसान
galaxies
mosquit
##कसीजन
puppy
credit
निपटन
परिसथितियो
youtube
दोपहर
satell
90
band
et
gross
ju
jew
kitch
lunch
mike
migr
nur
ric
ske
tum
vall
अजन
आकति
एयर
औदयोग
ककष
गगल
घडी
घटी
चयन
डड
बलब
बोरड
यातर
शयर
हदय
##vere
##of
##तना
##निया
##वितर
##hold
##दह
##ypt
##ईन
##इया
##ऑकसाइड
##atives
##nday
##onn
करियर
##asion
##etime
तमको
reb
meat
chocol
##antic
atoms
##olen
##istry
अधर
सीधी
अधिकतम
दनिक
actual
quit
असह
आदमियो
सथापना
आजाद
आजकल
निगर
commander
helps
partners
##बरट
पराण
बलॉक
syn
आसमान
thoughts
खलत
वयकतियो
जिजञ
आएगा
सकषमजी
memories
popular
सदह
sending
आमतरित
equal
barb
कनदर
virgin
deeply
stronger
engineers
दावा
दवताओ
हडडी
breathe
receive
horse
conversations
communication
russians
leadership
causes
दरशको
##board
extraord
सवततरता
ओकजा
egypt
गराहक
significant
architecture
चटट
##एनए
library
claim
mathemat
23
aust
cand
cure
cup
eating
punch
ru
sight
tun
tiss
अहसास
कक
कना
खाम
घा
छप
जव
जझ
टय
डनी
ढर
तहत
तारो
ततव
धक
मब
##rom
##rate
##किन
##विन
##ha
##दियो
##मिल
##बाल
##बदध
##एच
##atr
youth
##aning
करर
करात
परदा
परवी
##ications
beach
##imens
shar
chain
uses
##pper
##ession
अनवाद
##कषक
कमाल
brown
जरमन
wellbe
agreed
compon
compared
driver
grun
उतन
arms
राशि
##icket
appear
बनत
सथल
बाई
content
boat
lovely
दीजिए
keys
मौक
सहयोगी
puzz
kidding
yester
attempt
दिलली
##बाइल
अभिन
परषः
businesses
airpl
फसबक
details
डीएनए
depends
बोतल
वयापक
succeed
falling
##बोला
आतमहतया
एसडी
scientist
नमना
कपनिया
तीसरी
soldiers
limited
release
lifes
experienced
filled
सकरमित
##bola
मकसिको
ultimately
अदाजा
multiple
original
lawyer
विजञापन
kaiju
शरमिदा
शरणारथी
हसताकषर
nigeria
harvest
सॉफटवयर
insect
अफसोस
औदयोगिक
chocolate
eh
ebola
fed
gang
garden
hann
ira
lam
mix
nav
neck
rat
ren
sd
sac
उम
उरजा
एप
कवि
गन
गह
घोड
छः
जविक
झा
नाराज
पशा
वग
वान
शनि
##val
##ef
##dr
##do
##नडो
##wood
##ॉरम
##वजञान
##चारी
##घात
tony
परकट
isl
isol
एकल
सकस
सकरीन
जाऊ
assem
##लाप
##ila
exh
whenever
brief
dram
हरान
उपयोगी
उतपी
blame
मारना
बढता
disc
##rik
मददो
सहित
बीस
महततव
factory
highly
बोलन
leads
younger
watched
पशवर
गणना
subst
दवाओ
उलझ
trees
सभवतः
villages
scientific
समानता
उपकरणो
चिलल
judge
mountains
russia
empower
estab
official
ghost
summer
लाइसस
danny
धीमी
task
sector
राजनतिक
आदरश
repeat
consequences
bastard
bacteria
bicycle
license
empty
infrastructure
सरवशर
पसतकालय
priya
निगरानी
yesterday
aun
bother
hol
tight
ut
wes
ze
टायर
ठोस
नर
निस
पवितर
फरी
फायद
रज
रोट
रवि
##down
##oes
##oom
##mic
##ोश
##ोकता
##पि
##वहन
##गाह
##house
##डस
##धानी
##inlaw
isra
##icious
काश
##sec
##ids
stone
stock
soap
जाम
सममलन
ange
chi
##antage
fran
विदय
users
alt
alarm
deer
##odes
conference
मिलग
बदब
managed
चलात
सरोत
##agers
##िखर
इनटर
goodbye
grass
##कलट
निरमित
लगाए
बरस
करोध
पडती
##ologist
उदहार
wave
शरीमान
keeping
बरायन
societ
personally
suppose
swan
bread
breaking
गरीन
central
निकलन
region
मोबाइल
तीसर
promised
survival
दकषिणी
breathing
सबकछ
दौरा
dragons
बहादर
released
script
urban
victor
banks
traditional
reduce
officer
iran
weapons
associated
##bodys
pocket
wedding
british
अनयाय
method
मिरनडो
##known
डाइऑकसाइड
philosoph
सभावित
चमतकार
सवचालित
उदहारण
daught
dyn
diox
gd
hook
kh
nerv
pad
pure
paul
rot
rough
vote
एमी
एरिक
घणा
चकि
जास
जिप
झल
टिक
फरा
बाप
यट
सगर
४०
##ien
##नही
##रघ
##पाल
##सयो
##सपी
##विश
##मनी
##ईस
##एस
##otyp
##asa
काली
stole
forced
shel
##वाना
trig
##गरस
teen
teeth
plus
suicide
bron
coord
##izz
##तमकता
भागी
permission
expand
express
मारो
##शाक
दिखत
बनती
अलारम
पहचना
##ques
निकला
##ighs
बिलली
सटशन
खलना
चलाना
genes
instrum
मजिल
बठो
runs
##ocking
उठो
facebook
dollar
delhi
advanced
निकालन
##करमण
buried
##apped
risks
direction
physics
रसो
focused
encoun
judith
सवरग
princess
carrying
convin
परबध
हनना
replace
tasks
परतिसपर
degrees
screaming
describ
efficient
सचालित
परोतसाहित
accompl
उपभोकता
विभाजित
rescue
पडोसी
नकारातमक
##खयिकी
telomer
bottle
कतरिम
घातक
kitchen
extraordinary
सरवशरषठ
daughters
dioxide
gdp
26
22
boring
eld
hiv
jun
lone
mand
टकस
धल
पदध
वक
वल
वध
हॉ
हिरण
##िजा
##यतर
##ोरो
##ॉस
##लि
##put
##अप
##inist
##enn
##onom
##ara
meas
जागर
##ament
जोडन
button
विध
विना
तरग
alan
pros
जीता
अनक
अनतर
spin
##iva
brian
शरो
gotten
background
जरिय
evil
agent
##epend
actions
परिभाषित
graph
मानो
crash
##वासियो
committed
दीरघ
##ava
##िपत
##orders
todays
surre
घटिया
##यरस
##encies
obst
सपरमन
crew
अतरराषटरीय
चककर
settle
अरथशासतर
बोझ
##ashion
demonst
speaker
treated
पतरकार
broad
tons
##पतति
hunger
sugar
करमचारी
दिलचसपी
कमाडर
russian
mirand
majority
मकाबला
कारोबार
balance
नयरॉन
साकषातकार
पाकिसतान
platform
mexico
जबरदसत
google
wellbeing
एसडीजी
##वजञानिक
israel
cash
gut
jail
lect
mich
py
आहार
आयोजन
उदार
ऋण
एर
कबर
गरत
घस
चॉ
छपा
डरत
नार
नतर
नमस
नसल
पॉल
पाती
बख
बोर
बजर
मम
लपट
##iol
##िगर
##कला
##पश
##टरी
##ford
##itable
whis
web
##icians
habit
##sters
##illed
##urally
forms
refer
साबन
lies
जोडी
select
विवाद
trau
##eart
##ulated
ours
concl
अनदान
बदमा
bye
##ares
brill
club
##eping
active
दिखात
scen
##कतिया
बिजनस
कषति
##शनल
remote
differences
flat
छोडो
बलट
भरम
वाइ
useful
invis
वरषीय
बोलना
लिखन
लिखना
परणाल
swear
creates
सतन
##ोधित
लीजिय
लीजिए
artists
निशचय
opened
गिरन
फरच
elev
जडिथ
bloody
followed
burning
sorts
equip
खाता
barri
पोषण
##धितव
expected
arrange
अपराधी
billions
परतीत
emotion
##pected
victims
familiar
locked
असफलता
benefit
counter
गीत
strike
यानि
refugees
आपरति
introdu
pandemic
अखबार
vulnerable
influence
राकषस
एटोन
परतिनिधितव
परसतत
surgery
इनटरनट
ak
bes
border
fro
jay
lou
mim
ronn
आइस
आकरमण
गत
गहन
टप
तात
तारी
दसत
धव
नायक
पकति
भट
रसत
शतान
सई
सिग
ससर
२५
##oh
##oot
##mar
##यकष
##wide
##लग
##वो
##वड
##here
##hab
##खन
##खिल
##inc
inj
injust
ham
##ston
##iday
तमाम
reject
##िनो
##vert
##alled
##िरमाण
##celer
knife
knee
तरकी
altern
exch
बनायी
seemed
अनो
बदतर
कामयाब
परिवहन
उतसाह
overwh
सचत
पीटर
मानयता
आदोलन
दशको
acceler
जहाजो
cricket
phones
commit
finds
embr
below
बलड
पछो
भरती
सटार
attract
served
डालन
किसान
childrens
foundation
टीका
asshole
नौकरिया
excl
advantage
##कालिक
गरहण
cheers
##apping
superman
organizations
पागलपन
deeper
programs
वयायाम
सगठनो
neuros
identify
satur
soldier
circum
scratch
लखक
definition
ridic
पहाड
उललघन
christian
छिपा
disappear
saru
hoping
currently
ordinary
benefits
ticket
finger
##iveness
rapid
ईमानदारी
hungry
निषकरष
राजकमारी
बिकरी
corruption
upset
reveal
महादवीप
कनाडा
iraq
aunty
nervous
नमसकार
overwhel
ath
award
categ
foss
jan
ou
piss
rit
som
sake
wine
अविषकार
आतरिक
ऑसटर
ऑकसीजन
कषट
गाना
तन
तरा
ताला
धमर
पजा
पपी
भवय
मदान
यॉरक
लघ
वाद
शिव
सभा
हिप
##gas
##नन
##लॉ
##ील
##hand
##bra
##pa
##मय
##मद
करज
परजाति
inner
किग
weather
stolen
##रीट
reform
shr
shiva
chur
chec
chick
champ
मरद
हीरो
सबधी
##ulf
plenty
spaces
अधरा
शरणी
cogn
unit
agric
drinking
उपगरह
##वरस
असमान
बढना
मानक
##कलन
guide
##चारियो
परतिदिन
pregn
contain
bond
खोजना
remark
deserve
बलात
कारयवाही
planets
आखरी
slide
परशसा
परवत
creatures
begins
staying
सामराज
weeke
charl
detail
विकासशील
parad
गाठ
मोटर
restaur
खरीदा
पटिग
steel
propos
apolog
cheering
किताबो
बालो
चनौतियो
वाकय
सीमाओ
funding
परतीक
requires
reported
covered
limit
mistakes
##heim
privile
citizen
cooperation
sympt
किशोर
पटरन
गराहको
शौचाल
लोकपरिय
चिनह
वबसाइट
clouds
विविधता
houses
kenya
मितरो
मारगदरशन
orphan
निरमाता
bronx
encounter
बदमाश
धमरपान
agricult
dude
era
erik
gig
horn
june
mm
mat
peter
rings
vent
voices
wals
ya
आलो
आरोप
चोर
टरा
डक
दष
पख
बनो
हरी
##aft
##ram
##gl
##cest
##ालत
hem
myst
aspect
##काया
मरम
trillion
##ियस
alz
excell
##ifying
अनजान
बदध
सोशल
हाइ
पाई
पाडा
पाउड
##ems
##aked
qual
grace
##angers
रोम
पीडा
apply
निहित
imper
बरिट
पसो
childhood
afterno
desk
वाशिग
fold
insight
insurance
attend
invent
polic
instruct
relative
अमरिकन
dads
सतरी
##ancing
##grad
नौकर
leading
confront
lessons
सवासथ
mode
वशया
उतपादो
promot
burd
tests
पतरिका
हालत
kingdom
survived
दादा
जादई
जादगर
ships
करोडो
profession
explained
darkness
admit
##चलित
विरोधी
religious
सभयता
inspir
बरहमा
materials
separate
ringing
fingers
concerned
wheel
document
primary
आपातकालीन
भरषटाचार
झटका
परोफसर
department
nurses
august
valley
धकका
hannah
उतपीडन
western
brilliant
ronnie
35
600
cas
gs
gap
hill
hind
jac
kor
krypt
sque
tall
tack
wid
ओवर
गोर
गायन
घाना
जगा
डिक
डिस
पिल
फड
फलो
बौ
बकर
बयान
मगल
रॉक
शली
हटो
##lines
##ein
##iate
##matic
##टिस
##friend
##30
##reg
toy
tower
##esis
कराया
##orge
परथम
आपदा
##िकियो
staff
rever
साइट
sher
anton
ancest
##िसा
choices
विदश
लकडी
conc
conqu
congr
##ोनो
sport
सोम
सोना
loving
prize
इनका
##जील
सीरिया
wherever
##action
drift
##izes
##ached
granted
acad
crush
displ
बरन
adop
independ
सपी
कषि
interrupt
emily
छोडना
simpl
पारपरिक
बहोत
facts
babe
musl
accur
mrs
regard
नजरिया
robert
member
fucked
continu
continent
researchers
winning
कबजा
डराव
##shit
परिणामो
चितरक
biological
##ipping
faced
गभीरता
status
roads
करमचारियो
secretary
धारमिक
हासय
institution
balls
पदल
cartoon
properly
latest
molecules
criminal
शिवा
वारतालाप
female
korea
electrical
surrounded
fifth
खादय
उपनयास
पदधति
surrender
mirando
equipment
alzheim
congrat
dro
file
fashion
niles
pin
pill
pair
rice
rush
tens
taste
wis
zone
उग
ऑर
कचर
खली
घटन
चाला
चबन
टयब
दढ
धड
धध
फय
मिन
मडल
##ria
##िब
##पात
##ीकरण
##cast
##case
##craft
##har
##इज
करिकट
##तालो
किसस
आपम
काला
stood
stairs
soc
chop
chair
##cend
france
ate
##गरट
##igning
upstairs
##osh
##apes
plans
जीनो
अनिवार
spring
manager
चलिय
सवार
सवदना
कमान
##agger
इनकी
रखग
twitter
समझान
overl
बढो
कलब
सथाना
गरमी
गरदन
अरबो
acid
scan
बरताव
prem
जिनको
flood
निकलो
longterm
मलया
useless
holy
शिकषण
आनवश
genetic
simon
पारित
डालो
परशनो
##बामा
##बाजी
recom
solved
joined
सतता
सतलन
complain
confidence
meetings
charles
सौभागय
economics
##ॉरन
naturally
dealing
valu
challenging
##तिहासिक
डाउन
sentence
physic
silent
हसतकषप
projects
रॉकट
पकषी
वयाखया
conduct
vegas
northern
dropped
sweeth
required
##सायिक
emotions
operation
छटकारा
dogs
budget
oceans
meaningful
सरवकषण
bullet
launched
पहाडो
offered
शीरषक
golden
शासतर
सथितियो
prepare
astron
दोषी
साइमन
मनोवजञानिक
गारड
fleet
fortun
degree
survey
determine
celebrate
दफन
vaccine
परदषण
दरशाता
ugly
परारभिक
जॉनी
शिकषको
algorithms
fabric
उगलियो
यातरी
दसतावज
website
mathematics
महततवपरण
रसोई
symptoms
मरममत
बरिटिश
afternoon
bone
cort
cous
ender
gam
les
mc
pump
rw
rum
wat
इदर
इजा
इबोला
उधर
ओल
छल
जना
धात
नस
नाप
पोल
फार
फरम
भक
मसत
वतन
सिन
##aa
##night
##mark
##ाही
##गड
##pe
##थापित
##बाई
##zing
##anz
##esh
##isms
एका
##icip
सकी
##illance
reward
थाः
समभावना
neural
moves
##साद
साथियो
##essed
alien
noise
##ums
##ument
बचना
##परि
अनसर
अनरप
कहगी
prime
proof
जिसको
रपय
herself
इनको
coal
coast
intr
##cience
##eps
goods
##ipe
##anging
blank
##टीरिया
पीढियो
सनदश
##ribe
impl
prefer
remove
##दारो
अतया
बीत
hollow
carefully
players
बहनो
solid
clever
अनयथा
engaged
पतन
##connect
meters
metaph
passen
confused
एलिजा
197
hearts
curse
रगिसतान
advance
टकरा
टकनो
teams
असपतालो
defense
profound
##print
physically
protection
cops
papers
surviv
मडिकल
engineer
cutting
sleeping
philip
रोजगार
रचनातमकता
अधिकारियो
मदिर
विनसट
खोलन
require
टाइप
universal
लटका
##ropri
circle
ghana
struggling
नाइलस
represents
prepared
धीमा
heroes
सलाइड
आतकवाद
surveillance
graduate
इजीनियरिग
##force
वॉकर
असथिर
वयावसायिक
barely
समझौता
bathroom
ढाच
लिपि
##break
sequence
spoken
अजनबी
रोटी
यटयब
trigger
परतिसपरधा
चॉकलट
fossil
alzheimers
sweetheart
cute
dust
dare
dign
divers
gain
gates
hug
ow
rub
ts
veter
अह
खाया
चतर
टवि
डार
दवि
फफ
बगी
बरत
भजी
ममकिन
शासत
शताब
सिस
हह
##vant
##vable
##iency
##िदम
##रवाई
##wa
##wich
##टि
##लोड
##जडर
##बब
##बिया
##बधित
##डम
##ओग
##शियल
##अल
##याशित
##orter
anderson
##icate
अपरत
butter
cha
chin
chann
##roll
amy
season
मरत
विवाह
##uled
##ulating
concent
##ifically
braz
drivers
जीवो
परिचय
##ogen
overcome
कलारक
सथायी
poison
disg
disaster
muse
निरद
buying
secre
वरना
गलियो
smoke
##ologists
##शीर
##टनर
बलॉ
बिलियन
मलयो
holly
earn
sched
अवध
अवधारण
अवरोध
minim
भागन
invite
##ibilities
किसक
किसानो
highest
बकटीरिया
अभिव
transp
imagination
भावक
जायगी
ससता
creation
परोप
possibility
opening
moral
विसतत
आएगी
explore
नजरिय
तीनो
steady
bike
illness
radical
धरय
पहनन
situations
१९९
सवरप
screw
cameras
administ
affected
option
neighbors
delivery
bullshit
miracle
religions
belongs
सटीव
tort
एडरय
एडरसन
परतिरोध
cycle
property
spiritual
pollution
सवानिव
bleed
assume
produced
confirmed
जीवाण
मचछर
manufacturing
बरोकस
shadow
newspaper
छोडा
etc
nurse
जिजञासा
tissue
करातिक
नयरॉनस
saturday
cognitive
अनिवारय
मलयाकन
aunt
bones
cab
cos
cass
hen
hob
ii
ja
jer
mum
mice
pul
pie
pool
penc
ray
ros
tie
tars
tears
ven
wire
अजञ
आक
उधार
ऊची
गली
गलो
घास
जडन
टलर
ठडा
दनी
नवा
नजद
फोर
फशन
बोस
बियर
यदय
शॉट
११
९९
##ds
##ij
##iques
##ox
##nes
##लिग
##kind
##जपटर
##pre
##patr
##फाद
##चाप
##fit
##zpatr
##ढिया
##inate
##inating
##ारड
करस
##ताए
परपरा
##isf
##ashing
##acles
##ura
साझ
भीख
##opes
##throp
canada
##वाका
##वाकर
severe
##भीत
सबका
पहना
trib
comment
proced
सरकषण
अधयाप
महगा
शरषठ
जरमनी
worldwide
drunk
लाता
रोको
पीत
disrupt
बाज
##वासन
mars
remains
##aved
##सथिति
मौज
waves
कारयकरता
studied
बराबरी
बराजील
##मतरी
डालता
अफर
परशास
##बाऊ
recru
वयवसथित
लिखी
##०००
सिटी
अनभवो
signed
curios
rooms
यकीनन
सरकारो
भाषाओ
पटटी
steve
पोशाक
##ography
कटौती
include
increased
statement
परदरशित
veget
returned
masters
ताकतवर
उततजित
hanging
सबधो
telephone
surprised
surprising
इजकशन
estim
institute
fitzpatr
सभय
experiments
darling
इराक
अडड
आतकवादी
lawyers
फिटजपटर
sandwich
ससथान
forgotten
comfortable
सवीडन
समनवय
wolf
encourage
chuckles
punish
commercial
टलोमरस
francisco
gravity
टयमर
शनिवार
telomeres
invisible
louis
injustice
शिविर
बरहमाड
इजाजत
शताबदी
brazil
नजदीक
यदयपि
curiosity
फिटजपटरिक
45
75
ax
aim
bite
dumb
fired
hipp
laid
row
sighs
yo
अदशय
आरम
उबाऊ
ऊच
कबल
गफा
चहो
छवियो
झप
ताली
दार
नयक
फायर
फारम
फाइल
बब
बझ
बिन
बाय
मिया
लॉन
सजन
सयतर
हता
हनी
##uk
##uff
##mas
##िषठ
##रह
##यत
##यट
##win
##cil
##विल
##bal
##pir
##दव
##थिति
thumb
##atically
##onic
किरण
##arity
##oma
##icc
##हात
उननत
जोडा
chap
chimp
##rog
amel
विदरो
trident
traged
##गरसत
दोसती
##isted
##दाता
वोट
वोह
seek
##ोनिया
अनरोध
हाफत
##aret
सवचछ
clark
clicks
unknown
ages
चीटी
परिदशय
समझाया
वासतकला
expos
exposed
कलक
diss
disorder
वापसी
score
बाथ
adapt
पसिल
carried
prev
precise
contr
##quality
बदलता
humil
remitt
##igned
पराणी
flower
flint
stops
डालर
सीखी
पढत
दिलान
किसमत
##बलस
presence
सलझा
stayed
heading
सवाओ
brend
##हारिक
##while
गरीबो
##यासपद
भलना
explos
परमिका
परिवरतित
advent
2008
define
magaz
controll
समरपित
पकज
silver
150
##वतति
approaching
पायलट
malays
autism
चौथ
लौटन
networks
receiving
मामली
हासयासपद
constantly
##ternal
urg
accepted
searching
blocks
various
package
##crimin
##cript
भयभीत
परतिबदध
mechanism
galaxy
माइकरो
management
ईमानदार
passionate
टाग
criminals
हानि
जीवाशम
efforts
consciousness
washington
woods
split
japanese
temperature
embarrassed
landsc
कठिनाई
दःख
slightly
एलगोरिदम
navig
विदयत
convinced
##खयिकीय
गरतवाकर
alternative
circumst
ought
church
सामराजय
शौचालय
ancestors
अनसरण
dignity
अपरतयाशित
करातिकारी
गरतवाकरषण
aven
batter
dip
diverse
duf
fought
hood
kr
kar
kings
maps
nin
pa
pow
purs
panda
pushing
rent
rog
silly
vital
आवास
आघात
इट
उछ
ऑपरशन
गिल
चहा
छड
जिल
टबल
टसट
तवर
दाह
दास
दयाल
फो
मजर
रका
लजर
सयोग
सिप
१४
##iable
##tr
##तिकी
##पतर
##पानी
##लत
##जस
##जब
##वसत
##bor
##दिया
##बग
##एल
##erved
##ata
##यातम
tooth
कराह
कराहना
##orb
परात
##iti
##omen
कोरस
कीड
यहदी
##icles
##sey
इसला
##हाल
dood
सकरा
##uries
forb
rein
##imeter
समदध
shirt
##oos
##roat
fright
विचितर
##ilit
लकषयो
##olving
congress
nowhere
##usive
##लीकरण
काररवाई
placed
अनव
sail
##aren
##ago
priest
सीए
wells
##akers
drives
driven
##यकति
उपयकत
grade
armed
रोना
रोका
बसती
##मररा
##ysis
जररतो
dish
scal
phr
पहचाना
बरिटन
##ensity
पलस
विकर
विकलाग
सारथक
deck
desire
desper
भरवा
बीवी
surge
mommy
शिकारी
minor
monster
monkey
पारदर
बहार
बठी
movements
related
swing
creature
assault
stands
walks
arts
टरास
सवालो
datab
रोकना
protest
markets
##retch
वयापारी
हारड
defined
अकली
tested
landing
colone
दरदनाक
कनकशन
मासपश
चरच
चरितर
papa
frequ
विरदध
खीचन
रोजमररा
##फरड
illust
existence
rocket
antib
temple
शानति
satisf
operations
johnny
horiz
फटबॉल
construction
१९८
innocent
सविच
shooting
causing
राहत
हथियारो
spreading
fixed
ससथाओ
टॉरस
खिडकिया
misunder
फीट
लिफट
गिरावट
execut
infected
पराथमिकता
germany
इशारा
वयावहारिक
pilot
भदभाव
sustainable
alpha
ensure
spanish
विदयारथी
fantastic
नतीजा
ततकाल
perception
sweden
sacr
##विशवास
described
परणालियो
introduce
remarkable
burden
jacob
ded
dial
han
nah
tab
woo
अमल
अटक
आटी
आयोजित
उपर
ऊतक
कध
खोन
गधा
जमान
पप
पिया
पातर
बकस
भाल
माय
रदद
लप
लछ
लॉक
वफाद
शष
शतर
सिम
१६
९०
##ek
##dle
##rav
##uary
##iance
##ov
##नद
##कब
##यह
##पथ
##ket
##pers
##डिट
##fire
##हए
##खयान
##शो
thin
##ingu
##anch
करल
##तायात
##itz
एकजट
कोइ
beast
काच
heat
height
reaching
soph
##ियास
समपरण
उनही
जोश
##तिथि
frag
विड
atom
##ilty
लगग
##करन
orbit
यातायात
debt
मिलान
##uses
##दाशत
कारयक
अनद
spare
##ela
lover
loyal
दरार
bru
नाक
नाजक
सीन
साला
union
comprom
##मानय
उपा
quote
परिट
मारशल
बढाना
resil
##यारक
##विच
apparent
सनकर
निमन
निपट
लगाओ
जगली
बाड
पहची
सपस
helpful
marg
counting
flash
निकट
यादो
सटरीट
glory
genius
invited
plays
डालगा
पढान
slaves
techniques
surely
मसकरा
handw
storyt
opens
##airava
breast
आरट
artific
article
सिध
##lessly
चनन
skill
visited
सिखान
hopefully
walker
भजत
बलाओ
चाची
हारल
magical
classic
proph
cheese
एमिली
devast
रोगो
रोगियो
steps
caes
सभावनाओ
##making
facility
मिशरण
खोलो
impacts
drawing
immediate
circ
football
combat
combination
हिससो
photographs
essential
शीघर
torrance
गजब
बिताया
reaction
वितत
section
इरादा
चिहन
origin
refugee
ठहाक
परतिभाशाली
अनपात
पछताछ
सलझान
duty
पडोसियो
tribe
इलकटरॉन
pounds
पाठयकरम
hormones
धमकी
dozen
इगलड
##avery
opinion
tumor
austral
वगास
वानर
zeus
franck
societies
scenar
तारीख
exchange
ridiculous
असमानता
krypton
congratulations
जीनोम
valuable
टविटर
disgust
गलोबल
circumstances
दाहिन
सकरामक
मासपशियो
लछय
27
cub
dirty
hits
mile
mmm
oct
rig
sin
sets
आशीर
इड
उज
ऊग
ऐतिहासिक
घण
घमन
चरम
छीन
ढाल
धोन
पष
पाव
बीन
यथ
रत
रन
लियो
वचन
सिए
१७
##ril
##iated
##िआ
##रन
##रख
##ship
##water
##bly
##born
##बथ
##बारी
##चाह
##fast
##foot
##खता
##धय
thick
##era
##erves
theater
##oul
toward
एकतरित
होम
wet
hack
notion
stro
stark
forces
##रीम
जाया
जापान
जापानी
समबधित
shake
shots
##amm
##राय
aside
aband
abra
abuse
frust
करनल
तरास
##ulpt
##aint
##abad
whoever
##लीफ
prost
जीडी
जीउस
अनबध
sparrow
##कषट
##कषी
sav
suck
##दरय
##दरमा
शरकरा
##resp
नाट
features
पाइ
units
##aker
drown
acts
##जनन
talent
crap
##ption
scar
बाघ
##टाई
indus
खोजा
mary
पडत
मलशिया
डरोन
शरीमती
अवसाद
खरगो
girlf
##ibr
elimin
डालना
##encing
2020
##बाज
हाथी
बोलती
राजयो
joe
joke
मसकान
farmer
उठात
importantly
सलस
पतली
hardly
babys
transfer
assess
##पीय
##ocks
फलन
गोद
metal
टरफिक
अगठ
अगसत
pretend
पशओ
नययारक
globe
signals
आशवसत
retire
district
गतिविध
harley
निकालना
subs
सडविच
दवाई
cheap
organized
tremend
समहो
कनया
##shot
cultures
हालात
biology
गावो
jacket
रॉबी
वयाखयान
दाए
पायग
मनाफ
bedroom
encrypt
rocks
records
शोषण
बहाना
construct
भौतिकी
victim
आधयातम
combined
trading
सपनिश
cooperate
सशकत
सटील
chemistry
पनरन
epide
significantly
सावधानी
awareness
affordable
mentioned
employees
खबरो
introduc
विजता
describe
capture
savings
therapies
terrorist
diagnosis
समझौत
increasingly
पषठभमि
greek
##belie
swimming
किलोमीटर
shocked
mosquitoes
कनदरित
sdgs
khan
elevator
pregnant
weekend
restaurant
koran
wisdom
सथानातरित
जनाब
एलिजाबथ
survivors
अवधारणा
अजञात
brendan
landscape
आशीरवाद
abandon
जीडीपी
aer
cards
der
dies
dump
fan
hiding
kal
mas
mumb
nic
rome
tires
uk
wick
zod
ईसा
उभ
उदध
एः
ओबामा
औष
खलो
गजार
छाप
जकट
जिकर
झलक
टीच
टरम
टमप
ढक
तथ
तना
धप
पग
फिस
यनि
रगी
लची
वगरह
##aving
##rition
##gment
##ोशी
##पडी
##सफ
##दक
##ौना
##ञा
##eration
##rel
##rey
##याह
##ania
##enomen
करडिट
##isa
##etch
##etry
काटन
staring
साध
sharm
##aust
chances
##rol
##लाई
##ोगो
sees
abst
friday
विधि
##कीकत
tracking
##esty
conver
##दाज
मादी
spr
कामो
##orted
सरवर
सवारथ
prm
##जाइ
needle
coin
intim
intense
clients
unex
unbelie
बताय
परिष
grid
##iped
उतकषट
सचिव
argue
blog
मारकट
##कलप
##िगध
कलम
firm
##विजन
guest
guilty
##चारिक
आजञा
acqu
निभ
discrimin
scout
sculpt
phenomen
बायो
बाटन
बाधित
offices
##ressive
contem
वयतीत
सहन
believes
शिकषित
घटित
##pha
बराड
install
##पनिक
mindful
joint
वयवसा
##यालयो
transm
imagined
muscles
nights
सपरश
गोला
बजट
सिवाय
एलियास
सदरता
specifically
दिखाओ
disturb
parking
trapped
connections
बटरी
educational
advoc
ढढना
टकसी
2006
classes
april
सदियो
environments
मशहर
##जोरी
handsome
colon
equality
politicians
falls
रससी
protected
pulling
diam
आतमविशवास
electron
provided
providing
टोक
2010
मिटा
normally
डिजाईन
discovery
potentially
सगठित
traveled
medicines
hyd
शरमिला
कमाई
##roph
heaven
accounts
तलाक
crossed
fields
convince
feedback
reduction
enemies
observ
पहाडी
खिलखिल
preparing
गलाम
aston
movies
सथिरता
बधाई
grandmothers
वयकतितव
colleague
groans
कवच
डबलय
argument
linked
route
principles
troops
analyze
अवशय
फरासिसको
shouting
परतिषठा
kilomet
कॉमिकस
satellite
richer
पशाब
prosper
besides
आलोचना
mystery
excellent
instructions
metaphor
diversity
secrets
pencil
तवरित
colonel
आधयातमिक
खिलखिलाहट
28
codes
fancy
hated
holes
inder
nons
nder
nasa
pm
rac
sides
vice
wing
wings
zoom
अवर
आकलन
ऎस
एग
कदी
कगार
खरा
गदा
गवाह
छन
नग
पय
फयन
फॉरम
भजना
मलब
यना
रौ
वदध
ससत
हॉल
६०
##und
##oons
##oying
##िअ
##रथ
##रब
##पता
##सयम
##सदह
##son
##wal
##टोर
##लभ
##वियत
##थरो
##चरा
करॉस
##ताहात
परजनन
##itors
##leep
##lection
beer
##alu
##िकारक
इसानो
##ालिया
सको
सकोर
stem
stones
hepha
##ाहम
golf
forth
sov
##िनर
##lying
सामर
##thetic
asks
chest
chart
chatter
दखद
मरना
मरदो
fruit
विषयो
सबन
मनजर
exists
##istion
##abeth
##लीय
teles
तकलीफ
अनचित
बदस
सोवियत
सरदी
prices
brut
brook
महिल
##कारो
##कारड
सीढियो
पाउ
click
leban
बताऊगा
drone
drones
पिघ
भाइयो
समझदार
लाई
लाए
रोल
##ोरटो
appropri
##मरश
guar
निच
disp
betray
बरड
contrast
सपताहात
marsh
##athan
##बरग
writer
womens
stranger
परतयकष
सहार
उदघ
सटारक
मलतः
डरन
attitude
##phones
gene
player
elias
पारकिग
##कटरी
waited
warming
obama
solving
medium
मसकर
speaks
आरभ
##what
आयडिया
दिमागी
passing
generally
charity
prototyp
eleph
deadly
सौदरय
नीतियो
addition
##ताबिक
apes
profit
internal
rising
डरागो
devil
diet
freak
बॉबी
expecting
साहसिक
खीचो
झठी
##ायनिक
attacked
2015
bills
पायी
autonom
anticip
industries
बहाव
closing
motion
##porary
इजरा
estate
entered
tradition
sensors
sensitive
occup
occasion
डरगनस
असामानय
negot
disappoint
structures
consumers
effectively
honestly
fundament
परसारण
कोरट
माइकर
##आईवी
परोटीन
शरमिदगी
contribute
ethn
सचालन
therapy
परधानमतरी
participants
ella
फोटोगराफी
परजातियो
किराए
transportation
असवीकार
resistance
narrative
quarter
customers
इकाई
मसलिम
पराणियो
घाटी
airplane
dynamic
accomplish
obstacles
hemis
policies
चालाक
बगीच
museum
परशासन
दारशन
amelie
tragedy
लियोन
फयनमन
hephaistion
telesc
bog
cad
cord
cough
fate
gall
iv
jam
jae
kim
rates
rope
tail
अकषर
इकल
उडन
ऎसा
झक
डट
तीर
दाम
दिव
पिक
मटर
मकान
मताबिक
यरो
वसी
वसट
शटिग
##vin
##ded
##nel
##तता
##तरी
##रय
##कजडर
##यिक
##पिया
##पोक
##sp
##विया
##गना
##बोरड
##चियन
##fus
##शासत
##शिता
thirty
throat
##ndry
##onia
परिक
परका
incent
inhal
##itar
##iters
whist
कागरस
##ासगिक
मझम
butt
##िसक
chun
##वाड
sept
सबोधित
user
trap
tricks
बारम
comic
##करिप
##olves
##ctions
deploy
##uman
दोहर
बचता
##apse
बनाओ
दरलभ
pride
prince
everybodys
महार
मरीजो
जरिया
unable
leap
##izabeth
acting
##anged
मारक
कपडो
कलो
##विजञान
appoint
सनकी
guid
लडत
गरट
निचल
निरयात
##rian
जलन
scary
बाढ
बाइ
बाटना
index
helic
ideal
childs
##धारा
struck
puts
सहमति
kills
ears
महतवाका
मिलाकर
खरब
elizabeth
पारिवार
डालग
परभावो
बठत
##बायो
caps
capita
expert
गलतिया
परणतः
विशवस
begun
योनी
behave
सपरभ
confident
##ups
सतरोत
194
195
अगठी
##वरतन
तकनीको
centers
विसथापित
आएग
election
explor
futura
coron
भावनाए
दिखाए
delay
harass
educated
रासायनिक
awful
सदिगध
deaths
colors
treating
breakfast
खाडी
typical
इलाको
snake
raising
eaten
चितरण
southern
trusted
रॉनी
रॉबरट
marketing
परयासो
मिथ
मिथक
गोलियो
टाइम
reports
microsc
गरमियो
उततजना
hyper
spending
गराफ
beneath
violent
इजिन
affects
अपराधियो
options
loser
merch
irr
इमारतो
घोषित
टॉवर
psychological
suspect
democratic
मोटा
council
necessarily
जलाई
groaning
पचास
flowers
dependent
determined
murdered
आभारी
ambul
vulnerability
टलीफोन
टलीविजन
bella
corporate
एचआईवी
housing
##धिकारिक
ईरान
माहौल
declared
नवीनतम
revenge
भयावह
distribution
यातरियो
खामोशी
##imensional
grunting
insects
elder
lonely
जागरकता
दसतक
रसतरा
rituals
ऑसटरलिया
walshy
बदधिम
squee
drove
आनवशिक
waters
chaos
बलॉग
fitzpatrick
बाथरम
antibiot
artificial
खरगोश
tremendous
encryption
यनिवरस
guarant
पारिवारिक
ack
cach
cents
cave
dow
flex
fallen
gest
hors
hitting
ll
lake
lapt
mn
maced
nap
pant
pills
rabb
tay
vot
voc
wars
इच
ऊचाई
ऑल
कफ
खनी
गब
गढ
गिट
घमत
चाली
चनत
चतना
चदरमा
जॉर
तह
दध
नज
नियो
नशनल
पनी
पशक
फाल
रोन
शख
सटा
हयी
३००
##la
##ubl
##tes
##यय
##पणी
##समर
##लित
##koo
##जिग
##गोल
##hib
##दड
##दमा
##मिग
##ym
##बडी
##free
##father
##हान
thom
##inction
toler
##तानी
andrew
##itution
##asy
weigh
##icity
belly
meal
अपरल
##lys
समारो
समीकरण
shield
liqu
##aming
##opter
##thy
cham
##road
willi
sem
seed
yourselves
पहनत
comics
##estyle
याकब
nose
outs
बची
बचाना
बनाकर
बनावट
माउस
जीस
spell
spark
##ावल
safer
सरदियो
अधकार
सवभाव
brice
पहलओ
महग
महमान
महिमा
इनकार
नाकाम
सीढिया
feyn
रखगा
whereas
agency
wayne
drum
उपसथिति
परिवश
worker
समझती
perce
perman
सचित
##angle
राजी
##टीन
कपडा
गरसत
निधन
underne
underground
बाग
बरडन
indic
indist
carly
interface
पलान
decre
बलि
बिलडिग
सटम
आयामी
डरग
डरॉप
चलाता
stopping
instinct
तालियो
relief
ending
technological
warn
बकरी
england
percentage
healthier
ससकरण
सपरो
फलान
##grade
aircraft
africans
holds
##irds
centuries
boyfriend
निकलत
फिलिस
added
economies
formation
सिखाना
रगो
बलाना
earths
निकालो
ordered
particles
processes
सदसयो
उलटी
उलटा
##नटस
organic
##शीलता
कनकट
typically
supported
tongue
सममानित
बॉब
destruction
चपचाप
perfectly
मकदमा
परिसथिति
existed
मदरा
गोलफ
करिसचियन
traveling
prisoners
divor
motor
lifetime
सरवोत
फलाइट
सवादिषट
सफाई
entertain
photography
belonging
हनरी
लाइबर
christmas
खिडकियो
पजीवाद
achieved
पदारथो
jumped
शाही
detection
नवजात
अदाज
consumer
पटरोल
falcon
आकाशगगाओ
wheels
graduated
विजञानी
ससथानो
captured
ignore
documents
शरणारथियो
inev
confirm
कचरा
announced
bhairava
bobby
ढाचा
टिपपणी
symbols
unlikely
castle
debate
pirate
आवदन
##standing
analog
skelet
partnership
component
चिललाती
रविवार
instrument
परबधक
विनाश
नौकरियो
डरावना
मिनिट
##connected
शासतरीय
##ogenesis
henry
remittances
सिपाही
caesar
scenario
mumbai
sharmila
abstract
unexpected
jaeger
mnkoo
taylor
पशकश
underneath
32
bunk
cig
dots
density
hmm
july
len
lump
ms
nick
pitch
riot
sire
sier
tu
tip
upper
wig
wise
yep
अछ
अका
आऊगा
आधिकारिक
इनाम
उच
खाल
गदी
चडल
जशन
जहर
झील
डॉन
डफर
दिक
दायर
नरम
पची
पॉप
फासी
फकटरी
बय
मय
माहिर
रव
लनी
लडा
वचित
वकता
शवास
हाव
##lings
##ael
##uel
##uous
##top
##toc
##oop
##now
##तको
##यला
##पक
##पनीय
##kward
##can
##जिन
##विस
##वयाप
##bble
##part
##power
##point
##फोरड
##मारक
##बबी
##हद
##खियो
##५०
##याण
##anks
परवा
परकष
परकोप
inher
##isher
##omon
एकतर
##ानत
कोक
##vey
##eters
##ica
##icit
##ali
stom
style
reck
wasting
जोन
##through
asleep
वहल
chase
chasing
ambit
##char
##chool
##लाइट
seal
sevent
##gend
##साथ
usual
##करस
##नीयता
excess
external
outcome
outbreak
##किट
##using
##abilities
##ifice
कारखान
##परक
somewhat
अनकरम
sheet
कमरो
दरशन
prick
शरट
##जीवन
नाश
सोचग
सीता
intu
evolved
unw
बताऊ
compare
उपदश
gray
##oba
##वीकरण
मारकर
कलयाण
##ोलो
appears
download
गरभ
talks
निरी
dism
disag
जगत
पहचत
bug
buck
##टाइन
prec
precious
shoulder
bonds
boston
interp
खोया
खोला
खोखल
removed
beloved
flies
flesh
निकली
smiling
##onscious
incident
वयसको
homeless
जनवरी
वाण
##plet
planned
attached
monitor
महिलाः
##aza
बराईस
मजदरी
##ातरि
किसका
लोह
capability
बोलता
अमरिकियो
everythings
अभिश
transition
transmission
headed
muscle
परसनन
ससकार
सखत
grows
सिगरट
##रसट
जिद
अतरगत
sites
आयग
possibilities
skull
सकषिपत
डिपरशन
friendship
##दायिक
paint
painful
बटियो
speakers
continued
stubb
पटट
classical
awkward
promote
सपषटता
cheer
figures
chronic
equival
label
diab
घटनाए
बालक
आतमसमर
विरासत
##ographic
productive
योगयता
objective
attacks
लमबा
चोटी
विनमर
उठाओ
statue
सभालन
horr
horrible
चनौतीपरण
मिसर
lifestyle
मानसिकता
feeding
दरशात
घोडा
european
authent
innovations
critic
aids
separated
किशोरो
साइबर
टकडो
flee
palest
बजाए
डोआ
अपरि
initial
stealing
परोतसाह
नतिकता
argent
myths
फोटोगराफ
titan
routine
boundaries
virtual
विदयारथियो
analysis
गठन
juice
rebu
मबारक
sharp
अभिनय
dramatic
philosophy
measures
neuroscience
rapidly
category
january
##लॉजी
checking
chicken
privilege
agriculture
professionals
सोमवार
muslim
recommend
passengers
अभिवयकति
आरमभ
exposure
dufres
रकावट
phrase
मायनो
पषप
retirement
epidemic
introduced
तथयो
unbelievable
अवरदध
बदसरत
fundamentally
माइकरोस
horses
फालकन
indistinct
सरवोततम
डफरन
ambitious
आतमसमरपण
31
dile
ecl
ic
jon
ku
lun
lane
mit
narrow
oog
raw
tap
tag
tast
tact
vit
vow
vibr
अको
अभाव
अकीय
आका
आयर
कचल
घबरा
चिट
चावल
छा
जवा
जटा
टीक
टवी
डल
ढी
थर
दाय
नमक
पसी
फॉन
बधन
मआ
मकति
रातरि
लिक
लाती
लइस
वीर
वतत
शिखर
सरा
सतिथि
हिक
हित
हसन
७०
८०
##lands
##de
##rine
##rich
##uh
##mill
##नति
##राहम
##सार
##सिल
##३०
##टरा
##लटन
##hma
##ba
##bles
##pher
##दया
##फोस
##yl
##बना
##faces
##front
##शर
##शकति
##अदाज
##inting
##oub
##reen
##reck
करसी
करोल
परारम
##otic
कोयल
ital
beating
doc
stations
stream
stretch
##illing
formed
recept
समदधि
lied
##ading
myster
##िसी
##cho
monday
allies
atl
##pping
तरल
##estic
##करट
##करमी
##ola
##ula
##uls
peak
##ume
अबराहम
##लीवड
##iform
wanting
##ापति
mankind
lois
दरदर
दरजन
##agg
##agon
नाच
सीग
सीजर
evalu
letting
clip
uncom
twenty
उतपरि
मारता
पील
पीना
मानती
##िगत
दिखगा
apple
अलप
अलकजडर
गरप
गरिड
##berg
talib
निम
craw
निरधारण
लगाय
implement
पहचग
adjust
roy
strangers
##हरण
गलतियो
##सथान
वयरथ
meanwhile
बलातकार
बिली
भरमित
जनर
जनसा
mail
applied
डरफस
insult
कारयकरताओ
हिसक
server
पारिस
finance
पढी
slip
बठन
बठना
परवजो
technical
experts
cleared
importance
मसज
repro
republ
##ocamp
engines
लिखत
fewer
remembered
consist
sorbon
##ornia
फलट
फलोर
सखद
cream
household
अतराल
complet
sita
passes
सकषप
regret
corp
नजरअदाज
मोह
मोबाई
restrict
reasonable
wondered
आशावादी
ढढत
2009
चाबी
##appy
presidential
वाहवाही
अदवित
equity
infin
closely
protecting
कतार
पकषपात
रकिए
hunting
arrive
billy
radar
director
टाइटन
neurogenesis
recording
judgment
drago
कालपनिक
बीमारियो
धोख
मिसाइल
डिजाइनर
urge
territ
civilization
delivered
reducing
लखन
variety
बिताए
domin
सिदधातो
उदयोगो
hopes
कलाकारो
portra
intellect
वकीलो
समबनधी
हटान
##onym
forests
apartment
tickets
औसतन
कततो
दरभागयवश
interaction
mobil
चिडिया
latin
परसारित
vehicles
विजय
##जनसिस
efficiency
laboratory
vaccines
odds
title
बाधाओ
nuts
frankly
##ollar
temperatures
वॉलशी
dozens
spectrum
कॉरप
robbie
काबिल
एटीबायो
immigrants
volunteers
अनाथालय
चटटान
कविता
establ
establish
roughly
जासस
shelter
भागीदारी
लपटॉप
वाइरस
barrier
embrace
adopt
भकप
बरतन
एडरसनः
मौजदा
hippocamp
magazine
इटली
sacrifice
australia
ऊगव
abraham
तरासदी
soviet
hemisphere
##शासतरी
महारानी
ambulance
यनिवरसिटी
acknow
cachet
गिटार
चालीस
पनीर
फिलिसती
sierra
stomach
अभिशाप
परोतसाहन
dufresne
taliban
sorbonne
मोबाईल
अदवितीय
एटीबायोटिक
bay
bars
bored
bapt
borders
cake
du
dur
dash
drought
durg
fest
fulf
hicc
mant
mood
nan
nar
ol
pac
picking
rhy
sources
tear
tank
tape
ves
vert
अथ
एथ
एहस
कटर
खि
खती
गदद
घबर
झग
झका
डडी
डाली
दवी
नल
निल
नशा
पलो
पबल
पवन
बघर
भती
मकर
मारी
लकीन
वास
शलक
सदा
हली
##ez
##uing
##uate
##iations
##iots
##nut
##mates
##िबान
##यड
##पचारिक
##well
##care
##जियो
##hear
##boy
##मरी
##मताओ
##19
toil
toxic
##organ
परदश
परिकल
##ota
##itus
##itarian
items
##ett
##ala
##alf
##utor
##utation
##stone
##stein
doaa
##ghae
सकगा
##acular
##acters
stake
stig
stack
stability
अपवाद
##iment
थाम
साप
साउ
##ira
समाव
रहसयम
##गाव
##americ
cher
chic
seeds
trash
org
conven
peers
tex
##माक
##ifornia
करतवय
##चछद
plate
अनभ
##eak
सोरब
##डाउन
##कषय
suits
sunday
##arest
दरगा
नाग
सील
रखिय
co2
intention
##ache
पिज
twe
परिपरण
समझी
##iph
सचचा
पीट
resource
मानचितर
कलिय
##ोरनिया
appeared
बनद
अलफोस
अलगाव
fuels
लडना
गरड
निद
निवास
निधि
impressive
buzz
adam
##िमय
वरलड
##ignment
पराग
straw
flip
##जञा
नाममकिन
जनजाति
owner
सटज
सटारट
application
चलाया
मिलाया
plank
attrib
##azing
serving
चारा
उपयोगकरता
तालिबान
बठता
20th
warned
solomon
cleitus
##derabad
joes
stays
assass
सामदायिक
breach
लीय
गोथम
tale
चनल
generate
globally
characters
prote
कयकी
explo
नीली
आवाजो
##दायी
parli
माधयमिक
connecting
locations
उतपादकता
fuckin
probability
designs
designers
दवाइया
निरणायक
treasure
breakthrough
##ograp
topic
california
साहसी
increases
##चकित
2014
2016
##atsu
मिठ
dropping
review
दवता
विनिय
विनिमय
गोलिया
करिसमस
favour
नमबर
शोक
refused
budd
hyderabad
लटिन
मिसटर
closes
screens
unclear
squad
सलाहकार
experiencing
कमपनी
भमिगत
रिशतो
tracks
behavi
mercy
चिपका
nonv
nonpro
छिपान
transformed
##मपस
खिलौना
भयकर
करवाया
revolutionary
बधक
डराइवर
ultrav
तोहफा
दानव
glasses
परतिबध
ननह
producing
screams
repeated
कविन
oxytoc
songs
molecule
authority
हानिकारक
harvard
assistant
wealthy
कलीन
उदयमियो
निषकरिय
राजकमार
principle
नयरोजनसिस
alphonse
splash
maker
wolves
revenue
trials
hypothes
automated
clinical
previously
optimism
pirates
motivated
विषम
सकषमजीवी
चटटानो
components
puzzles
उलझन
जिपसी
शरोता
बजरग
##iolet
overwhelming
shrink
inspiration
sheriff
sports
धडकन
दविधा
administration
नवाचार
बोसटन
अधयापक
अफरिका
चौथाई
executive
dedicated
apparently
गतिविधियो
sculpture
mindfulness
lebanon
prototype
chunghae
##करिपशन
squeeze
laptop
feynman
cigaret
वाणिज
stubborn
परारमभ
पारिसथित
republic
hippocampus
durga
hiccup
एहसान
सोरबोन
ultraviolet
oxytocin
29
48
bail
borrow
cer
cere
cooking
ding
dot
dirt
dancing
fires
fishing
hans
hars
jang
jeal
ker
koba
lg
mere
mall
nom
obl
pace
patch
tet
wives
अज
कबा
ककाल
खरो
घिर
घाय
छी
छोर
छलाग
जमी
जिग
झड
टाई
तझ
ताना
धा
नॉर
नासा
पोरट
फास
बपट
बकिग
बिखर
भटक
रपर
रोड
रफत
लथर
वलस
शसतर
सली
हौ
हकीकत
२१
##life
##like
##awn
##vas
##uc
##iac
##gie
##gage
##िषण
##रजी
##पोल
##पटो
##सना
##टिव
##ca
##गम
##bi
##bell
##pet
##फन
##फिया
##मः
##मिन
##मडल
##हट
##भास
##षी
##षया
##शाह
##उगी
##inian
##यातमक
करिप
करवान
परल
परिश
परथा
##othing
कोबा
होशिया
##owing
##ician
notes
##str
##iders
stable
stamp
stored
##ille
##illes
उसपर
sole
##ियाई
जाऊगी
अपहरण
##राधिक
chat
##वाडा
##वाइस
मरति
विराम
trace
सकतो
comments
##गरो
जबतक
##ateful
##uma
##abai
upd
##दाद
थीः
##लीन
tends
##माओ
##apers
##ोनस
अनसन
अनगरह
अनिशचित
##कषिक
##ortion
अगरणी
सरग
suff
सवतन
कमात
रपए
##जीव
मतदान
सीटी
yearold
gotham
coach
intended
clarity
uns
unus
agencies
##cially
##aka
grave
##itty
##ogue
overall
सचच
लाइट
newborn
रोत
##टीय
पीआर
##iah
दिखाती
appeal
guitar
गरभव
crop
crops
pharm
buff
caring
bold
interrog
ide
royal
दीदी
realistic
shower
incom
आसन
owners
earned
अवय
अवस
mont
genet
genome
चारली
मजरी
मजबान
बहोश
परवाल
recall
reputation
bits
engaging
presidents
सामजिक
basket
फलिट
नौका
अतरद
आयगा
fung
functions
अगो
elsewhere
sett
डिवाइस
नयज
फरॉ
element
फिलमो
extend
explan
regul
corals
excite
globalization
हलथ
हलका
educate
researcher
designer
खासी
brotherinlaw
गरहो
उलट
landed
वाहनो
armies
breaks
challenged
अदालत
infant
investors
positions
इलाक
legit
खतरो
fears
शरआती
failing
##सपति
जोडना
batt
madi
filter
films
stressful
hunt
झठा
पौधा
approx
2012
सिकक
sexy
focusing
touched
allowing
alexand
tempt
शोधकरता
टाइमस
मजाकिया
आइय
recorded
operating
hymen
भारती
मरखता
relevant
heavily
softly
कषणो
reduced
mirror
turkey
capitalism
thrown
ceo
चिपा
recognition
चढा
boxes
एडवरड
suffered
गजरत
replaced
transformation
enjoying
disappeared
sarah
throwing
textbook
cyber
cartoons
viruses
multipl
jimmy
activities
blew
fortune
concern
customer
रडार
paintings
कलासिक
corporations
laser
ellen
assistance
uganda
कलीटस
विभाजन
फाउड
मचछरो
shopping
loaded
guardian
beliefs
smoking
hormone
बदरगाह
इगलिश
नतीज
मनोरजन
collaboration
fascinating
satellites
सकषमजीवियो
मबई
grunts
mixed
assembly
michael
उदारता
नतरहीन
trauma
conclusion
charlie
apologize
tackle
academ
फयचरा
सवानिवतति
cabin
pulse
punishment
बिनद
विदरोह
database
bruce
stroke
नाटकीय
girlfriend
पनरनिरमाण
kilometers
nonsense
महिलाय
परिकषण
september
सपरभात
##वयापी
disagree
italian
baptist
परिकलपना
plankton
खरोच
बपटिसट
रफतार
अनसनधान
गरभवती
3d
36
37
60s
cia
cats
cmon
dent
dim
duck
dressed
drey
eq
fert
kw
lin
nest
obe
pit
pages
rh
rose
rama
tube
wk
wreck
असी
अराज
ऐलिस
ऑटो
कथ
कः
ककी
कॉन
खाई
खजाना
गान
गसस
गचछा
गटस
घोट
घनत
जता
जगर
झटक
टटी
टिका
डढ
तड
दि
दय
दड
दह
नयन
नदान
फाइ
लास
लोड
सअ
सहत
सयोजन
##away
##ih
##iat
##mate
##िडी
##किक
##सियो
##टज
##लोग
##kin
##जल
##जवल
##जवान
##वात
##hol
##bc
##pal
##थापन
##डलो
##fall
##fuck
##भार
##शिप
##zo
##अभी
##ji
##inter
##income
##यादि
##ारिज
##enh
##onard
परासगिक
##eday
##oto
inn
##itate
किट
किम
##arter
##asw
कोण
होली
italy
##ette
hab
##ales
काफ
काई
##see
##हालय
##idal
stan
stor
##illa
reef
##imeters
##lym
shy
sham
##the
chos
##काय
चाहो
##सीय
worn
fraud
विवक
knot
knees
बारबरा
##गरता
orch
##olis
##essions
alf
##ायग
जानमन
outl
outer
outta
degrad
##oded
##abol
proved
##ifer
enable
अनग
##eline
##rous
managers
##टरस
दरजनो
brun
महारा
मतभ
coc
जरिए
unh
uniform
चीख
lean
leonard
बताई
##aki
dried
हरक
विशषा
##udes
परिपर
grat
उतसव
##ober
असम
असमर
expression
मारत
##िगस
कलिफ
firing
जीवनकाल
गरज
disci
disorders
लगाव
scare
scores
बरनो
advert
##ensus
परतिदव
commission
boats
कषमताओ
खोना
विकटोर
belt
गलिया
decent
syrian
परतया
सनाना
सटड
सटोर
मलभत
killer
अवगत
बराई
instantly
finest
उपयोगिता
##ugs
किसम
recy
recon
collapse
suppl
गलतफ
repair
hardest
सतषट
behead
सखी
गोवा
जिमी
गरीक
टरिगर
##ततिया
नयटन
फरश
आईटी
खोजो
elements
marker
laundry
सिखात
##rete
friendly
2005
sooner
treatments
##iece
tread
armor
figuring
grandfather
पोत
आशचरयचकित
supporting
रॉय
एनकरिपशन
डॉकटरो
##दोष
इनहोन
हसना
postc
posted
facial
facilities
largely
विकलपो
लौटा
operate
forgiveness
दबान
दबारा
limits
रिचर
communications
achilles
circles
targets
मछलिया
addressing
entering
peaceful
officers
शीश
thrive
magician
सशरी
सशसतर
महोदया
एडस
##box
हटाना
domestic
amongst
agreement
miser
तरककी
धीम
फीस
मोटाप
gasps
खातिर
सघन
सविधाए
intervention
decisionmaking
yelling
##fficient
counsel
गिरफतारी
sustained
चादर
infection
intelligent
शकरवार
remaining
discussion
authorities
वितरित
inequality
ashamed
corporation
महासागरो
राकषसो
ईरानी
##offs
widely
printed
cruel
injection
priority
fascinated
skept
airplanes
federal
renew
isolated
altru
सगरहालय
lecture
सिगनल
someday
तालाब
orphanage
पिलला
display
accurate
चितरकारी
डाउनलोड
astronaut
टकनोलॉजी
tsun
chinas
channels
schedule
एडरयः
bleeding
procedure
estimated
axis
adventure
malaysian
dipl
सीएः
पियानो
sophistic
वयवसायी
marshal
incentives
जॉरज
समारोह
liquid
divorce
reckon
equivalent
oogway
हिकप
vessel
अथवा
parliament
nonprofit
lgbt
सवतनतर
फाउडशन
equally
घनतव
नदानिक
chosen
असमरथ
कलिफोरनिया
800
bust
bul
dm
dict
dimens
fence
fiction
gip
gorge
hired
jin
kl
ly
lave
lately
loose
na
ng
naked
ooh
pause
roo
rod
rup
sant
tied
tub
tatt
wander
zip
अयब
ऋत
एसा
खारिज
गौ
घन
छआ
छना
छडी
छपी
छातरा
जज
झो
टकर
टोरटो
ठहर
ठहरा
डीक
डडल
तित
धकल
धयय
नगन
पोर
फौ
बश
बटो
भडियो
भडिया
मठ
मदर
मगन
रथ
रवाडा
लई
लसी
वकर
वदय
शाप
शकषिक
सजञ
##eys
##des
##iating
##och
##ga
##mma
##िद
##नड
##रच
##कती
##ोकन
##पड
##word
##ॉड
##वको
##hour
##bul
##दनी
##दमी
##मिनो
##ईओ
##बज
##बात
##एफ
##शनो
##शियन
##इमट
##अब
##घरा
##छा
##jack
thus
thief
##inates
##ndy
##esity
##orious
##edge
##नाए
whir
कोट
##िएटर
##stage
##stream
##हाह
stun
##urre
##urning
goa
goli
shif
ants
anthrop
##tha
##thes
neut
##िसतानी
##ros
##cel
frau
विडो
##साही
लगगी
बारह
लकचर
तरटि
comr
alice
alco
जानी
outc
मिलो
##umbs
##istol
##दाई
##ीकषा
कारको
##चछक
theme
##aping
enab
enlight
plain
spons
##ापक
##ापता
shepher
loans
अधा
कमयन
कमजोरी
महगी
रपातर
नाइट
##जाता
cock
evac
cloth
unint
aggress
leone
legend
बताइए
उपकषा
परिधि
grateful
समझो
लाभा
##वरप
newton
blu
blade
रोजी
##टीना
इतयादि
reset
मानन
आदान
कलिटन
सनग
अलफा
downstairs
funds
निभा
underest
carl
सपकटर
बिट
boll
boom
marks
emails
वरिषठ
विकटर
strip
flour
smarter
अपनाया
आगन
incar
पछती
सहिषण
##ानातमक
applications
डरिल
believing
insane
schol
cares
monsters
understands
serge
बडो
slave
slavery
बठकर
endless
factor
obesity
लोइस
joking
टीमो
उठाना
लिखित
सलगन
missile
missiles
लनदन
consult
परयोगो
##ॉनड
सतभ
ससद
सखा
metrop
metabol
listened
sits
confession
कलाई
सतरो
##mann
फसलो
questioning
निकलता
visible
आशरय
extract
publish
सौप
returning
addiction
additional
depressed
souls
योजनाओ
आधारभत
डॉलरस
वशवीकरण
distant
delta
हलचल
photograp
उतपादक
काननो
particle
burgl
publicly
##राबाद
invested
investments
चितरित
failures
hitler
absorb
तनावपरण
पकषियो
यवाओ
सभावनाए
इटरफस
बाजारो
रकना
खनिज
productivity
वाकया
कमीज
selfish
निवशक
existing
touching
खतो
views
हडताल
वारमिग
विनिरमाण
templet
मागती
practical
practicing
शोधकरताओ
गोलिअ
sugars
टाइगर
refr
शरमिको
majesty
bankrupt
divided
literature
##वालो
purch
edward
balloon
searched
निषपाद
निषपकष
शीत
summit
चिपक
compassionate
inspire
obsessed
##going
##िथम
collected
collection
domain
##generation
करोगी
bags
complexity
hopeless
हिलना
फीड
मोटी
हदराबाद
separation
mindset
conflicts
##fortable
periods
defeat
flew
दिलाता
सनदरभ
नरसो
execution
concerns
माइकल
शौक
burned
warriors
दफतर
लॉस
ashes
शिशओ
participate
diagnosed
pilots
bench
subjects
हिद
##attan
announce
dutch
भडार
pockets
निरदशो
calcul
कशलता
पजारी
हिटलर
chemicals
korean
परजातिया
collectively
किराया
अवशष
बिगड
logic
विफलता
lawn
entrepreneurial
historical
लवडर
opinions
islamic
dramatically
वकताओ
barriers
revealed
हिपपोक
aspects
वाशिगटन
widow
बौदध
reverse
independent
regardless
socalled
cousins
छलल
##anzee
intrig
##prints
veterans
transparen
झपकी
chimpanzee
फोकस
surgeon
horizon
resilience
october
घणित
पाइप
मलशियाई
टमपलटन
appropriate
autonomous
इजराइल
helicopter
harassment
merchant
उचचार
dilemma
फॉनट
mysterious
निमतरण
established
पबलिक
मिठाई
jealous
घायल
अवसरो
excitement
baptiste
bruno
विशषाधिकार
परिपरकषय
sophisticated
dimensions
gipsy
gorgeous
सजञानातमक
goliath
alcohol
लाभाश
templeton
गोलिअथ
transparency
55
95
au
bol
cath
diver
echo
gi
gon
gear
gand
gard
germ
ip
jane
kat
kit
kent
kol
kong
lon
lag
oi
om
olym
pent
poo
pour
rif
rail
sally
tig
vuma
ware
wages
उगा
उजा
ऊपरी
एवन
औजार
औपचारिक
कडा
कटो
कचच
खट
गाइ
टग
टरी
तस
नप
नगर
पटा
पकट
फली
फॉर
फकन
बको
बोध
मढ
यम
लकी
वमा
वकष
शिर
शिका
शहद
सध
सटन
सशल
३५
५००
##lers
##lation
##dys
##rant
##rors
##ii
##iop
##oe
##ok
##nam
##met
##तजार
##नर
##ोधा
##सास
##सिया
##सला
##wing
##kins
##जिश
##वदनशील
##him
##hmm
##holes
##py
##ौता
##मखी
##yard
##ystem
##बॉ
##बियो
##बीन
##चिक
##fly
##षिक
##zen
##zed
##jan
##erals
परच
परचलित
ing
##isons
##arin
एकता
हमलो
कोष
कोला
कोको
कोमा
कोरो
कोबरा
कोयला
##etes
bean
beeping
haun
hamm
##steps
##हासन
stab
stink
stann
melt
जाइए
जाइय
साइड
##iring
सममिल
shore
shatter
shining
रहित
##गाण
##गाडा
##amil
##राण
anonym
जोकर
##ece
##िसन
##िसवदनशील
##rogen
##वाइ
##वायरस
sel
sends
abilities
abroad
मरसथ
विषा
##iled
लगिक
trunk
##तरह
alter
alert
convey
मिलाना
pee
##osystem
proceed
##ीकति
कारट
कारली
##परभाव
बनानी
मापन
spider
##elve
mann
manh
manner
timing
चलग
अगरिम
सवपन
##asty
##जीवी
##कारिता
fever
coat
cobra
clint
agents
compound
compete
complement
drill
drawn
उपास
दसियो
grant
उतपतति
overd
सचक
##वरती
राख
export
बढाया
मानय
सनिए
बनग
अलजाइ
guards
pole
गरसित
गरनटस
अरल
accent
tales
जलान
scot
पहचाया
बरश
bubble
##enses
contag
##quar
##वलोकन
marath
emph
remo
wrapped
##eller
##वशी
afterwards
तबाह
descend
homework
kindness
विचारधारा
अतिसवदनशील
persons
आयाम
डरान
घटनो
planes
बराउन
बीचो
elses
sling
2050
परशसक
highway
consent
begging
##cont
दतावास
सतलित
accum
behalf
nightm
करीपटो
गोता
नौजवान
सिहासन
चकित
टरॉ
generated
कलाकति
सतरक
192
pays
अगनि
निशाना
##इटड
cambod
eastern
गिरो
lightning
आओग
फरजी
गणो
आईडी
momentum
extension
exploring
सौद
परमशवर
detective
larry
डील
register
coral
विशषता
greed
greet
delight
गाधी
traits
चिकन
demographic
advis
##oyd
टककर
2001
2003
2007
मालकिन
hurting
hurts
हारन
apoll
cheaper
valent
##णीय
superb
##िसटल
कबोड
आमदनी
समरथ
सामानयतः
equation
परकरियाओ
legis
milk
caution
वसततः
कतल
विरोधा
उचचतम
दकषता
आकरषण
रॉब
##teen
sunlight
इनहलर
interestingly
luckily
illiter
objectives
मकखी
2013
2017
checked
difficulty
auto
george
immun
हडडियो
audio
वारडन
आरामदायक
करिसः
##ॉपटर
identical
pressed
रोबोटस
richard
बहाल
performing
मिसाल
closest
१९६
salt
affairs
empire
accountability
मलयवान
banking
दलाल
sanitary
welcom
convention
bullets
ससकतियो
embed
embass
merit
struggles
emerging
africanameric
रिपबल
दरशाती
dawn
offering
##ervation
amounts
मकसद
despair
taxi
taxes
danie
शाखा
suggests
detector
donna
fairly
##मारग
penn
weakness
mechanical
सरजरी
concepts
improvements
आकाशगगाए
moses
microbial
prayers
लकषणो
आभास
storms
दोगना
ethiop
इकठ
terrorists
romantic
tyler
raven
परयतन
rarely
यनतर
crucial
bowl
clinic
aye
ayoub
framework
investigation
ecosystem
newspapers
occurred
immigrant
एयरपोरट
puzzle
officials
angel
teenagers
jungh
arrangements
venture
सपीकर
institutional
उगली
soccer
##ॉरनिग
fortunately
सिनमा
अतयाचार
hollywood
आकडा
नयकलिस
##cription
navigate
batteries
roger
अनवषण
पारदरशिता
disgusting
frustrated
सवारथी
guests
discrimination
यनाइटड
दारशनिक
elderly
बदधिमतता
chamber
permanent
decrease
बलिदान
bunker
wiggin
परवागरह
seventh
निरीकषण
argentina
जवाबद
uncomfortable
जनसाखयिकीय
reprodu
intellectual
rhyth
chicago
organs
proteins
पारिसथितिकी
cabinet
dreyfus
अराजकता
नयनतम
सअरो
विकटोरिया
रिचरड
हिपपोकमपस
olymp
शिकागो
करीपटोण
apollo
00
34
33
51
65
700
bind
bos
bump
cav
dum
dense
dread
drew
ease
edd
fer
fier
gym
jul
josh
kaver
lc
lit
litter
mun
ner
nun
ols
ped
pard
pose
pale
pizz
rust
rio
sink
wif
yum
आकस
उबर
ऑट
ओकस
ओपन
गडर
गदो
घसप
चब
चहरो
छान
जार
झिल
टथ
टाल
टोट
ठो
डिप
डसक
ढल
थिएटर
दाल
धनी
धाव
नारी
पिन
पका
पाला
बया
बहर
बकाया
भाति
मदी
मॉल
मधयम
ममम
मॉरनिग
याह
योर
यकत
यवक
यगाडा
रवन
रकषक
रवाना
लरी
लीक
लबल
लापता
शट
शरा
सगत
सषटि
हती
१३
२२
##va
##da
##ders
##rain
##ua
##tod
##mun
##िडा
##तपरव
##निकी
##रड
##यनो
##यदध
##ोष
##आम
##पह
##सह
##सवरप
##west
##लिय
##ाक
##col
##वदन
##गज
##bage
##pent
##दत
##दात
##फिर
##थल
##थाम
##बियन
##बारो
##fr
##fight
##field
##हड
##हमी
##भन
##भौ
##एकस
##शिक
##शयो
threed
threw
theories
##rell
toll
tone
##ani
##ora
##orous
##orable
औरो
होल
##eto
##etto
haz
##alk
##alia
##uten
काउ
कायम
कावरी
##stru
इसपर
सकवा
##acon
stere
stim
heh
reass
##िलप
##िलियन
##िनी
##keys
जाव
जामी
##ितीय
साकार
समकष
समिति
समकालीन
shine
lips
रहोग
रहसयो
##adays
aspir
cho
chains
choos
##काक
##roc
##roid
amate
बहतो
विचलित
सबकी
लगना
tries
trag
trump
तरि
##ियमस
exhal
जानकार
deals
nowadays
##igation
##दाम
##osa
proven
कारक
enh
enrich
तकनिकी
कहावत
अनभति
spat
spear
##टरप
कहिय
कहकर
loop
सरसव
सवचछा
##agen
फिरस
ठीकह
रपक
इनही
सीडी
सीईओ
fees
रखकर
covers
##वारा
client
unp
lex
पिजर
##uded
workplace
मराथन
grady
grief
समझग
##ipse
##ipher
उतसाही
overt
overnight
सचची
लाच
##वरष
arse
arrow
newly
blast
blaring
रोगाण
पीला
पीडी
बढगा
बढकर
resurre
##कलिन
कपो
##विचार
pond
गरडी
निः
निपण
निवासी
crimes
craft
निरवास
निरदोष
लगाई
बाइक
बरकस
बरदाशत
adoles
indians
carina
committ
जिनदा
सपाद
##मनय
बिमारी
boars
कषिति
खोपडी
कोशिक
आदमीः
वरषा
wrap
विकत
विकार
छोडत
##ologically
##forest
अपनान
deserves
##जरव
syria
परतग
लियाः
persist
pleased
glac
glimp
studio
attorn
आननद
invasion
oldest
elite
simulation
डालती
##sson
socially
बडरम
मजब
##uger
2030
runner
परवज
bush
capit
##डरन
collaps
मसला
अभतपरव
handed
पतथरो
hardware
healthcare
swall
numb
headline
##ahar
करीबी
मानवो
10th
लीग
कलाइमट
mattered
governance
रोकथाम
##tenance
अरथपरण
protocol
curve
आशवासन
extinction
regent
regulations
पनल
पनरा
depr
मखपतर
योजनाए
parmen
deliber
जडवा
जडाव
traject
demon
हलक
located
समाजो
भजता
असलियत
खिलाडियो
चाही
##षठा
पहचानन
profits
awa
awake
agend
shoe
paste
निरणयो
डराई
grandpa
investing
legacy
raises
रसियो
biases
कॉम
लबनान
millenn
elected
destiny
successfully
गडबडी
shortly
हसती
कमीना
डटाबस
मकका
120
सिकका
radiation
सातव
maintenance
returns
मागता
worrying
reporting
drinks
hydr
mistaken
जोरदार
constant
गराज
targeted
सरविस
footsteps
फलाव
terrified
improving
combine
अभिभाव
exception
worthy
##खयात
रीजट
throne
represented
एडम
सभोग
threats
observe
sadly
packed
sarasw
पोसटर
250
portug
refuse
reminder
##ophob
vacation
दकानो
शरवण
luc
##adesh
pushed
consume
nucleus
angle
mechanisms
activists
राजनता
पीडितो
basement
versus
ननही
ननहा
cooked
अनपढ
ignored
pandu
तयाग
मटठी
यतरो
अपमानित
अणओ
maxim
garage
garbage
interviewed
चमकदार
trucks
mortality
निगम
algorithm
makers
सितमबर
smooth
ravi
recovery
shadows
जयकार
कणो
unconscious
volunteer
swedish
candid
ततवो
exhib
exhaust
discour
substant
निससदह
नारगी
whisper
धवज
injury
तरकीब
paradig
imperfect
relatively
concrete
academic
overlook
physicist
cousin
lesb
साझदारी
urgent
doodling
अनदखा
यथारथ
सिएरा
तनात
intimid
phenomenon
advocate
टोकयो
prosperity
brutal
disappointed
appointment
विशवसनीय
microscope
antibiotics
guarantee
downt
सटाफ
thomas
skeleton
दिककत
पचीदा
नाशता
diabetes
eclipse
टवीट
पसीना
stigma
साउथ
अनभवी
पिजजा
nonviol
explanation
approximately
महाराजा
गलतफहमी
miserable
tsunami
lavender
ngos
rupees
##घराना
shepherd
bollocks
incarcer
उजागर
गाइड
##चिकित
ingred
stannis
सममिलित
manhattan
clinton
emphas
विरोधाभास
embassy
घसपठ
choosing
सरसवती
कषितिज
glimpse
saraswati
38
awe
bom
bible
bio
cd
cine
cage
dy
eb
ein
elys
fisher
icon
kans
mour
nam
pd
pink
pip
rs
rab
rage
rational
rats
rude
sack
samp
tails
vest
vag
via
warden
आगरह
एला
ऑकस
ऑफी
कथन
खगोल
चिर
जफ
जरी
झडा
टॉल
डोर
डिट
दाई
दराज
धारा
पकार
फसा
फिकर
बगर
बलो
बॉनड
भई
भित
मगा
मोल
रट
रिज
लयक
वनो
वाई
शल
शता
शपथ
हिर
##vis
##ville
##efe
##rint
##uine
##iond
##nis
##gd
##mo
##mber
##made
##िदा
##िजो
##तह
##तया
##रियो
##कम
##यस
##लशन
##cut
##cure
##गियो
##hot
##bog
##bands
##दल
##फो
##बझ
##fs
##खड
##एगी
##शस
##47
##धडी
##अचछ
##घाती
##छोड
thor
thie
thumbs
##erge
##inch
##inity
##atom
##rels
##enz
##onal
##onate
करिय
करमर
परबल
परलगिक
परापति
##arians
##omed
##omos
कोच
कोपन
##vember
कीट
कीडो
कीमती
##leans
bees
haiti
##utical
काटा
काबल
##state
##step
onstage
इसती
##ayer
forty
rely
reun
##िनत
##िनस
साई
साधनो
##allel
##irm
##irus
समरा
shocking
shorter
liver
उननति
##राइ
##राइड
##िरोध
##तीस
nearest
chip
दखोग
seaw
seats
abund
abhim
##ilight
तरना
मनी
coma
##ियरस
##eston
orleans
##नीकरण
november
जानबझ
output
conce
##umes
##osaur
##लील
##माना
##चछिक
##परद
मापद
जीभ
अनपर
बदको
managing
##टरन
कामना
sailing
अधया
supre
कमपन
##ivate
##ags
pra
prisons
##ongo
नाकि
##जाओ
सोचिए
सीढी
सीकरट
coke
intend
पाओग
backwards
##eman
evolve
##ouses
##actor
clothing
unre
##aceutical
चीफ
compos
actors
जसन
twilight
grie
समझाना
perimeter
overr
##obi
blows
अचछाई
रोजाना
मारिया
daytod
happily
##िगन
कलिप
apps
सनस
सनता
सनती
सनटरी
बनकर
##मरज
poetry
अरज
निवासियो
crater
बरकर
bugs
bucks
indias
cargo
offense
prest
shoulders
remained
root
दीखता
womb
परामरश
string
strain
flows
निकोल
smith
यादचछिक
designing
पछग
सनामी
persu
pleas
fox
kidn
चलाओ
insist
moms
घटक
cared
##pled
minus
खरचा
genuine
invention
slower
लोकता
reconst
##डरस
preserve
consensus
##चरया
assets
musical
countrys
सकलपना
bassem
परसव
परसपर
exams
secondly
funeral
payment
openly
रोकता
morph
morality
curric
मिनटो
retreat
retired
woke
deter
futures
नीव
##सकरीम
soup
मखयालय
विशषकर
विशषताओ
##ॉरट
distingu
parallel
delicious
गाडियो
मोहल
harry
harbor
भाषाए
अधययनो
earthqu
populations
चाबिया
वसतर
दवाए
ape
honored
nicely
sixth
कबज
chromos
grandma
खाओ
viral
नकद
मासम
gunshot
वयापारिक
##otted
expectancy
साहित
खीचा
madame
condem
successes
accessible
चपपी
##aneously
laughed
illusion
परमाणित
2011
viet
पायगा
सीमाए
दवितीय
safely
immers
मनाफा
mainly
viewed
वारषिक
practices
सिदधानत
identities
identified
आइडिया
नमनो
universities
कदियो
डॉना
डॉमिनो
performed
responses
खरीदत
division
##वाहक
unfold
affair
printing
empath
literacy
purse
victory
फलाई
estimate
includes
included
respected
अभिमनय
annual
senses
extrem
सहयोगियो
symp
रीढ
sample
meantime
चढाई
दरशान
threatened
असरकषित
हकदार
विलपत
विलकषण
हटाओ
विमानो
इकटठ
परतिरप
catast
cattle
चराई
सथिती
reminds
मसीह
करवाना
error
lucy
robotic
robotics
ultimate
रोमाच
सलाम
seattle
corners
mouthpart
egg
मनोविजञान
दरभागयपरण
unfortunate
enjoyed
इराद
गारटी
bridges
दिलाना
चिढ
unlock
बजाना
सकाउट
blowing
##bbing
improvement
characteristics
आभार
अखबारो
anxious
1980s
रिशतदार
रिशतदारो
exerc
terrorism
असथायी
lasse
claims
उदयमिता
निराशाजनक
नोटिस
wounds
बासम
टरनिग
nutrition
greely
पाकिसतानी
शभकाम
##flies
mako
climbing
fabulous
उललखनीय
virtually
spectacular
suspended
narratives
##anyu
uncert
jeff
kicked
calend
##थियोपिया
jewel
यातरिक
कररता
isolation
substance
empowered
बदबदार
victoria
अनतरिकष
दीरघकालिक
बखार
akil
frozen
jaye
तातकालिक
अनोखी
commitment
overwhelmed
उपगरहो
charleston
proposition
agricultural
imperial
insights
promotion
conquer
conquered
सीरियाई
दढता
acidification
fortunate
rwanda
मसतिसक
##forcement
धरयवान
hobbs
chapter
controlled
pursue
frightened
विकरता
वफादार
कारयकारी
loyalty
storytelling
devastating
उजजवल
constructed
उदधार
टीचर
सामरथय
मसकरात
elephant
परकाशन
guidance
महतवाकाकषी
exploration
coronav
williams
length
परकषपण
rebuild
माइकरोसकोप
ढीला
pacific
toilet
समावशी
विनियमन
वाणिजयिक
hanson
तानाशाह
रपरखा
unusual
अतरदषटि
##iatric
habits
discipl
diplom
सवतनतरता
scholars
metropolis
उचचारण
poorest
कोरोना
अलजाइमर
##quarters
marathon
junghwa
wifes
आकसमिक
पीडीएफ
parmenion
elysium
samples
##iondollar
करमरहित
abhimanyu
daytoday
लोकतातरिक
61
bak
cope
dc
dah
eric
furn
fiber
fetch
gor
gulf
hire
iphone
jet
jade
lm
nd
nerve
pec
pear
pts
rul
rip
raz
rank
rivers
rape
tang
tier
tables
tutor
umm
vo
wank
wipe
अकट
अचर
अजाम
आण
आदी
आवरण
आकरा
इताल
ईम
उर
ओय
खाती
खपत
गाल
गगा
गवा
घमता
छि
छओ
जयो
डच
डिनर
तचछ
दबी
नाय
नानी
पदो
फटा
बई
भखा
मः
यनान
रिट
लाद
लखा
लपत
लटक
वकलप
शॉप
सफी
हप
हगरी
२३
##vc
##vised
##east
##eem
##ris
##ras
##rac
##rid
##rome
##rations
##ully
##iens
##gant
##mi
##mers
##mans
##िहए
##रट
##कथित
##पिग
##पषट
##सिन
##सवक
##wan
##जय
##गित
##bru
##pass
##मग
##मानी
##मोल
##बिल
##बाहर
##बधन
##11
##डिश
##भित
##zero
##उज
##xual
##घी
##jing
##२०
thy
thurs
therm
thunder
##nding
tol
toast
##anin
##anze
##anthrop
##oning
करार
कराना
##orse
##otas
inch
##नास
##iture
किर
किल
एकशन
एकीकत
होठ
होश
होऊगा
wendy
##owers
आपतति
आपराधिक
##icidal
##alities
काय
##aya
sticks
gore
reci
rehab
sobbing
##ासपद
##िलगिक
##िनियम
##keep
अपोलो
साइन
साखयिकीय
##irst
##irts
समगर
shan
shapes
उनपर
##aminated
##राता
##राषटर
##ads
##opath
##thony
##aug
##िसत
asian
chew
##rock
##cha
##cher
##लाइ
##लाटिक
worries
##ilage
orange
##ulum
##ulting
##unction
nobodys
conn
##abul
##दाताओ
##oshi
probe
कारल
कारख
enth
तकरी
मागन
seeking
seeming
जीजा
अनषठ
##eaking
सोत
सोफी
हाफ
हाइड
हाबस
sheep
कामक
दरस
दरव
brag
brav
brush
branch
##िशन
##ineph
##arded
शरय
anytime
इनतजार
नाना
सीआई
febru
पाऊगी
unst
चीटियो
lever
compat
sometime
उपसथित
पिटाई
twin
twist
twelve
परिमाण
worksh
सचकाक
##वरट
blond
blues
असतर
रोनी
exped
residents
resolve
दशयो
##विटी
guilt
poly
poker
pointing
होनस
दिनचरया
acum
##berus
startup
talents
निषक
muff
##ptions
impressed
bubb
घरघराना
carib
prepar
सपाइ
interse
maria
marvel
##लोस
emper
emerge
वरदी
विकिरण
realm
पराबग
##जञानी
smugg
नामो
आगमन
##icted
बलान
विचारक
सहभा
वाइन
सटट
सटॉक
सटटस
persian
pup
खलता
आयात
डरम
शरील
schem
leaf
careers
monkeys
elij
चारट
instant
बहता
##blosh
पढात
परशात
परवतति
personality
technically
warning
##बाग
उठता
उठाई
अदरनी
पतला
transpl
##erties
headlines
सवाय
entrance
ससती
फलता
सिड
सिवा
tai
monthly
एलकस
motherfuck
193
payload
governor
singular
डिबब
charges
पाचवी
protein
फरज
curtain
आशका
marked
corresp
##iov
economists
greece
babyl
distress
अमलीकरण
robust
##retto
उतपादित
wonderstone
##सटस
walkers
आशावाद
follows
pops
envy
चाहा
चािहए
##करमियो
पटरी
महाका
अकित
stein
properties
खशब
burst
handsh
organisms
dreaming
equals
पाएगी
पोछ
रासतो
सवयसवक
amazon
चितरपट
copenh
जोडत
चनौति
कटोर
इटरवय
दाढी
चपक
alongside
philanthrop
पौराण
facilit
परिसर
truths
सिकड
malcol
revol
autistic
दविलगिक
immense
camps
sweat
चौका
चौथा
मनान
directions
मदत
practically
##िजम
बवकफी
दौडन
आइसकरीम
धारण
जटिलता
पसतको
##निहित
covering
coverage
pathology
pathetic
दबाया
सारवभौ
रिवाज
रिजरव
कागजात
accountable
cameron
सफलतापरवक
इजिपत
admitted
crossing
enterpr
improved
traditions
codex
conviction
तथाकथित
रिशवत
filling
ghetto
gentleman
merc
struggled
मोडन
financially
सशोधित
सटीमीटर
लाइनो
बाहो
psychology
psychologist
suspected
domino
खिलौन
innovative
escaped
गलाबी
oxford
reminded
asthma
सॉरी
शाट
cartilage
similarly
अभियातर
parked
predicted
##yearolds
epic
epineph
eggs
गीला
interacting
multiply
penet
penny
सकरियता
rolls
##कसाथ
आपरवासी
fools
ननदन
मलायम
employee
अनपकषित
depending
panic
सकॉटः
molecular
धोखाधडी
दोगी
contribution
harmful
##forward
पोसटकारड
nigerian
वॉशिग
एशियाई
अनकलित
##बलाशी
duties
vanish
रिसरच
##screen
mija
बासकट
ईरषया
परजाततर
electrons
mentor
magnetic
एजसी
परयटन
यनिट
fantasy
अकषरो
कारटनिसट
suspicious
notebook
bangl
छोडी
motivation
इकाइयो
परतिषठित
चारलसटन
एलगोरिथम
boost
translate
बलबल
##holders
synthetic
egyptian
खामोश
sdg
एपिन
घोडो
briefcase
utter
नरवस
फायदमद
angeles
iranian
philosophers
coordinates
instruments
mandarin
वलटाइन
हॉलीवड
शरोताओ
graphic
settlement
demonstrated
lectures
referred
selected
traumatic
emotionally
एटोनियो
mimic
neuroscient
athe
वादन
proposal
encountered
दषटी
qualities
documentary
conducted
फारसी
channel
vegetables
हताश
contrad
powers
इसलाम
विकलागता
woojing
लॉकडाउन
fragile
handwashing
eliminate
ईसाई
फिसल
रगीन
परिषद
मारकटिग
astonishing
उदघो
buttons
flexible
panting
ऑलसन
तहखान
शखस
indicators
inevitable
##charge
dismiss
सराग
जनरटर
territory
festival
कटरोल
खिच
texas
buddh
hypothesis
cerberus
होशियार
टिकाऊ
दयनीय
alfred
gratitude
astronauts
tattoo
outcomes
sergeant
calculus
gardens
शिरचछद
अतिसवदनशीलता
गिरोह
रिपबलिकन
ethiopia
fierce
kaveri
टोटम
stereotyp
exhales
निरवासित
कोशिकाय
agenda
##bogblosh
curriculum
uncertain
coronavirus
ptsd
आकरामक
इतालवी
वकलपिक
thursday
february
emperor
पराबगनी
सहभागी
elijah
copenhagen
पौराणिक
malcolm
सारवभौमिक
epinephrine
49
42
52
72
85
bure
cs
cable
dv
das
dive
dave
dub
divid
fans
hes
hates
jen
jose
jami
kam
ls
lts
lanes
lingu
lisa
mes
nope
nets
nathan
oak
omar
pion
pod
pity
rack
rance
rib
roles
racing
ruled
sap
sib
tin
tanks
void
yel
yard
yield
अनी
अौर
अवलोकन
आमन
इचछक
ईट
उगर
ऊट
एह
एनी
ऐल
ऑप
ओप
गबन
गटो
घल
चादी
जिय
जियो
डय
थः
दिस
धिक
नाल
नास
पमप
फिगर
बदा
बली
बयर
बधा
बोनो
भली
मिक
मोन
मयर
यकति
रिल
रजर
रकन
लहरो
वली
शव
शवत
शिषट
सता
सजी
४००
##lam
##lated
##looking
##lock
##ev
##ender
##equ
##deg
##rick
##uits
##iology
##net
##greg
##mu
##mod
##किल
##ोरा
##ोधन
##पसत
##sed
##ki
##जिया
##जाद
##जवाब
##वहा
##वली
##गया
##hs
##hen
##hea
##burg
##pan
##pos
##दख
##फार
##फरीन
##मड
##मख
##मण
##बबा
##बबत
##हगन
##खिया
##खटा
##भय
##भज
##णक
##शली
##49
##धारी
##उगा
##घट
##jo
##jin
##inations
##inators
##reh
##reate
##inge
##याद
##याधी
tow
toky
##ारदो
##ena
##eng
##esy
करिए
##oris
परक
परोड
परवासी
input
##नाथन
##itis
किः
##arth
##arms
whip
एकसाथ
##ानिया
item
##icon
##aling
काया
कायर
ongoing
इसानी
##हाउस
सकली
सकटर
##idge
##idays
stair
stages
gosh
rew
reju
meg
जागो
अपारट
साठ
साढ
साऊ
साजिश
समभव
समिथ
shops
shaped
##amb
##ado
##adian
##adium
anch
जोनाथन
amen
ampl
##ching
##child
चाहोग
##सीब
मरदा
मरदान
मरतिक
##outs
##कोई
लगाती
trips
लकस
लकष
तरनत
तरिकोण
लोगोन
orient
जबत
alb
outr
##igg
##umn
बचाई
##माडा
##ifts
माइन
spit
##ावट
manip
सोफ
सोलो
##कषातमक
चलचितर
सरजन
सरकषक
सरखियो
सवन
सवरण
##ivation
दरपण
pron
bran
पहलिया
morel
theirs
शरिफ
herak
नाथन
सोचकर
कसल
रखनी
cokes
intent
intimate
##eryl
##वारो
सालाना
letty
unn
unity
agbogblosh
चीर
##osexual
compar
compelling
##owned
actively
##योगय
जीवत
goodness
twins
परिटर
grain
भाषी
makeup
##ipts
persec
लाकर
राइ
expans
बढात
residence
##कलस
आदतो
कपसल
कलिन
कलातमक
लडिग
गरिमा
गरकान
अरदध
crook
cried
लगाकर
जलो
scav
बाकि
carri
offline
contains
contained
parties
interven
interconnected
खोजी
marine
martha
पडन
बदलती
पलन
पलक
##बरड
humming
roots
secular
writers
##elly
परायोजित
गलन
##िपी
छोडता
##beat
##bean
##शीली
incor
decor
##जरस
##जरिया
भरपर
सनात
homeland
सहकरमी
वाट
owned
बीप
सटोन
##ailed
ताकी
mining
minerals
monit
elon
simult
mighty
मजदरो
##रमल
slaughter
slides
relate
relatives
reliable
factories
runway
technique
राजधानी
reporter
bitter
farrell
##ोसट
presc
सलभ
पततो
remembering
transcend
familys
assignment
cellular
सवामी
terry
breed
creep
metric
badly
चकानी
चकमक
##lessness
confess
एलोन
चनना
नयायाधी
सतरियो
skip
191
अरथात
पाचव
signature
फरट
redempt
पकडना
visiting
citys
परमपरा
डीवी
regions
regulation
पनड
depos
formics
roommate
informed
oppon
गाड
मोम
connects
demands
हलिक
trains
computing
आवशयकताओ
beautifully
सगीतकार
followers
निकालत
messy
ढढो
teaches
subt
subway
subtle
winner
2000
patri
propag
कमरन
processing
पडताल
honking
हतयार
freezing
##िसटरी
वाहक
doub
treas
dreamed
shares
reaches
सवयसव
##ribly
wallet
कदरो
२०३०
बचाओ
वायरल
##uba
province
strongest
खीची
जटान
destro
एनिम
50s
गडढ
philipp
totem
कमीनो
कारबनिक
posture
लालच
अचल
राजयपाल
परीकषणो
परतिकरियाओ
लाभदायक
temporary
potat
खोलना
मधमह
विशालकाय
टाइलर
statistic
saturn
cleaning
छटटियो
कीमतो
बहादरी
फटबाल
निरभरता
चोरो
रिहा
रिवर
towns
सजजन
paperwork
##class
scrap
सरवो
greenhouse
editor
squirt
lowincome
exceptional
lockdown
##जीनिया
officially
रिशता
शीफ
thrust
belonged
emerged
recognized
torn
approaches
मधयपरव
threaten
२००८
variations
टॉमस
##िथि
collecting
christians
disappears
सटरोक
hoped
चराया
danish
darren
darwin
भखमरी
detected
gasping
lux
luke
strategies
consumption
हटकर
सविधाओ
लिहा
mouths
१५०
परभारी
हाकः
measurement
गारडन
striking
दिलाया
shaws
lieuten
rolling
##पदिक
palm
baseball
ironically
matches
pigs
assumptions
architects
executed
विसफोटक
अपकषाकत
wheat
डोम
flowing
graduation
१०००
burns
ससथापक
विजयी
1989
समारटफोन
barefoot
दरशाया
rescued
announcer
shifted
consequence
निरदशित
passports
calculate
triangle
mortgage
troll
निगाह
bastards
mentally
मितरा
डनिश
सवदनशीलता
gathering
encouraging
##गणित
healing
कॉरपोरट
पॉइट
integrated
कठिनाइयो
senior
optimistic
यातना
मनोरोगी
coward
historic
journalist
journalists
गठबधन
migrants
nurt
आकतियो
जिजञास
barbara
जवानी
##एचओ
जाससी
फराइड
teenage
भागीदार
elders
विनाशक
दीरघाय
धवनी
rejected
accelerate
attracted
ritual
ventil
हाइपर
casual
hindu
##टिसम
independence
interrupted
muslims
चितरकला
ऑरडर
premium
cortex
rumbling
पतनियो
असथिरता
फफदी
निरदशक
minimum
परोपकारी
cosm
jerk
venus
लॉनच
chimpanze
explosion
powder
गिलास
desperate
पारदरशी
dialogue
वफादारी
##करनकलिए
compromise
compromised
prophet
subsahar
abandoned
औषधि
ढककन
contemporary
installation
डबलयएचओ
खराक
betrayed
telescope
telescopes
यरोपीय
बाइबल
मिथको
gesture
macedon
rabbits
tolerance
perceive
intuitive
विनमरता
authentic
fleeing
jonathan
आयरन
उतपरिवरतन
portraits
फिलिसतीनी
buzzing
breakthroughs
behaviors
update
pharmaceutical
settled
academy
obey
storage
अनगिनत
leonardo
supplies
shifu
comrade
unintended
वाकयाश
मढक
विषाकत
उपासथि
contagious
कबोडिया
welcomed
embedded
जवाबदही
007
pardon
pizza
committee
swallow
deliberately
डराईवर
##ophobia
paradigm
downtown
einstein
kansas
ऑफीस
कोपनहगन
अधयाय
साहितय
शभकामनाए
bakery
अकटबर
ईमारत
बईमानी
तकरीबन
seemingly
bravo
acumen
bubbles
caribbean
सवायतत
correspond
babylon
वॉशिगटन
bangladesh
एपिनफरीन
उदघोषक
pione
ऑपटिक
धिककार
tokyo
rejuven
मरतिकला
herakles
गरकाननी
chimpanzees
subsaharan
1st
70s
90s
ais
awards
bg
bout
bum
bfr
cuck
cunt
dk
dagger
eag
fist
fits
gains
hm
hatch
hier
il
jar
junk
kd
kant
kang
lem
lous
lens
laz
lank
luth
lamp
mister
nad
nect
nasty
os
por
pier
rick
rale
ranger
rode
sic
session
tanz
vanc
vern
ward
wage
wore
wides
yup
अहा
अडर
अमाडा
आऊ
इको
इशवर
इआम
उथल
ऊह
ऊचा
ओवन
औटिसम
कटी
कदन
कटाई
गग
गियर
घिन
घिस
घोस
चाइ
छविया
जआ
जकड
जहरी
जतो
टटन
ठिक
डश
डयक
डविस
ढाई
तपदिक
थोगो
दीन
दषित
धधा
नशवर
पपर
पोट
पमः
फव
फकी
फिश
बॉल
भवन
माला
यव
यानी
यलत
रगर
रियो
लार
लायी
शय
शफ
शम
शारक
सधर
सटनर
हफ
हडी
हॉट
६००
##vest
##rice
##rates
##rified
##gu
##mat
##mens
##mended
##makers
##तरा
##कया
##ोनी
##पोर
##पनीयता
##सद
##सता
##wander
##टोन
##लवा
##लिख
##लटो
##ko
##cal
##गता
##गराम
##human
##bow
##best
##bear
##parent
##pread
##person
##फिल
##yer
##बली
##बीच
##डोनिया
##चो
##चिल
##fits
##हकि
##षटी
##शदा
##zy
##zer
##उदार
##अधिक
##jas
thre
thread
thongo
##inth
##याग
toss
toretto
##ener
##eness
##ona
करण
करिना
##oral
पराली
परवान
परची
औरम
##iscover
##itaka
एकट
##asi
हमी
##leg
hay
काटना
##aying
dod
सकीर
##acher
sto
stum
stitch
stores
stadium
hears
तमब
##illery
##urd
goat
sopa
जागत
##imated
##lyn
साडी
साइस
समसत
सममो
समरण
समतल
समपरक
livel
तोप
##aded
wasted
anom
anno
##ecraft
##oped
##opic
##opard
canadian
##aumatic
neat
neol
neph
nels
chased
chairs
chips
cheryl
##कापटर
amber
amanda
##chlor
##tery
##लाद
##वाया
sew
seam
selection
alliance
fraction
विपण
##कील
knocking
##कोश
##कोकस
पहिय
पहियो
##ilized
trous
trium
traced
लकषित
तरिश
तरकस
##ियरो
##ियमित
##करमो
##oler
##unken
alas
##oding
convert
##iewer
prosec
prochlor
##परवाह
माथ
plot
जीती
अनकरण
अनशास
अनमोल
अनियमित
बदली
spac
spite
spots
spends
##ावर
सोपा
shell
##कषतर
कहला
सरवा
अधि
अधीन
अधिनियम
कमट
दरबीन
brick
brows
bristol
himm
महल
महज
महया
coco
##रोस
##रोजन
intact
पाश
##नोस
##actions
clown
##eprint
हरकत
actor
उपनाम
पिट
gran
grabb
arth
राइट
blown
expose
बसबॉल
बढग
resid
reserve
##शाही
##कलोरो
कपा
##विजञानी
सनिय
सनवाई
अलफरड
poet
आजमा
अरजी
निवार
crashing
disob
##लबा
जगलो
undercover
##िलाई
impression
बाबल
पहचती
बरफी
बरिसटल
offers
सपा
सपशल
बितान
partly
##िमो
humor
##elled
##issa
countless
fled
##सथल
तबदी
##ictions
incoming
##ससन
बललबा
भरना
सनाओ
अतहीन
maize
सटॉप
सटराइ
##िटरी
मलटी
डरती
चलाय
inspect
##perform
घटान
ताज
कारयशाला
league
कौनसी
कौनसा
mineral
attach
भागना
genoc
invitation
involve
involves
polio
पारटनर
instruction
डालकर
पढाना
पढाया
दिलाती
slog
अफवाह
परवरत
obtain
रातो
mindwander
meditation
suppress
##ococ
farther
उठन
##ोसिन
##सरती
handful
परणता
missus
##मकश
imaging
मीजा
asset
headquarters
सतत
सततर
सतयाप
musu
सवाए
respir
standards
entities
परसकत
लीटर
गोभी
गोरो
गोपनीयता
meter
बजात
americas
artic
pointed
चककी
secondary
generator
परोसस
190
camel
अफरीकन
अरथशासतरी
charged
विसमय
कयबा
फरल
फरवरी
आईडिया
cursed
youngest
##isters
extended
sounded
publishing
adding
पनन
formula
##aleg
painted
दिखाऊगा
distances
distinct
paraleg
opposed
अमरत
अमजन
हलकी
इसीलिय
memor
membr
forens
halfway
wins
patent
मालिको
खरीदी
पटरा
महामह
पहचानना
हारवरड
propose
promising
promises
controvers
cheated
honour
सखयाओ
एमबलस
pasted
organize
##िसटिक
treason
rises
समरपण
equipped
खाका
पाएगा
politician
devils
broker
अमरीकियो
snob
चितन
मासिक
controls
उततरदायी
pulls
वयापारियो
जोडता
animation
absence
absurd
silicon
आतमघाती
expectations
inclusive
tommy
दाखिल
shortterm
खनन
परशिकष
पालत
issued
##ोतरी
selfinter
posts
posttr
arriving
arranged
vika
forgetting
norms
पायलटो
लालची
fastest
geor
uhh
मिशल
हडडिया
anti
मधमक
considering
पहनना
digit
statist
करमियो
operated
उपलबधि
पशचात
बीमारिया
बवकफो
कमाड
कदना
कदरीय
##repres
तोडना
releasing
husbands
##restling
गराफिक
progressive
surprises
lords
परगतिशील
इजजत
footage
cryst
सफाया
banning
civilian
हतयारा
spreads
उपलबधियो
essence
लखको
ससथाए
blocked
हिमलर
चिपस
spirits
चढाव
हनर
##egers
sadness
बिताना
beatrice
सरचनाओ
सरचनातमक
बनायग
गलामो
davide
cycles
jumping
सॉस
##ोकॉल
structural
suggesting
अनाज
मोटाई
करवाता
reactor
reactions
समाचारो
नवउदार
##eyed
सलाखो
behavioral
##कषरता
उतरना
pollen
measured
fuhrers
तारिक
activate
बाधय
quietly
परतिसाद
hostages
assumption
deny
२०१५
करियाशील
infections
infectious
prayer
खबसरती
##पलिग
initially
कशमकश
नाविक
परोटोकॉल
smells
photosyn
berk
panels
raped
authoritarian
ignor
दफना
correctly
therapist
mutation
इकबाल
preventing
सलझाना
accommod
petra
##कसीन
बारीकी
उपभोग
डायनास
बाधाए
1998
राजनीतिजञ
interviews
homo
verbal
##ममद
जॉब
समनदर
greeks
नोबल
भलाई
evolutionary
21st
टिपपण
बरोज
lifted
novels
declare
परतिनिधि
शिकषिका
engagement
विशषजञो
bonzo
पलावको
सितार
सितारा
किराय
witnessed
दोहराया
पाठयपसत
gathered
##breaking
परयटक
recovered
सिलसिल
knocked
regularly
मारगदरशक
उभरती
आलसी
घावो
fourthirds
कोरियाई
तीवरता
gravit
juven
jews
असहज
virginia
claimed
tunnel
tissues
islam
islands
चिललात
empowerment
holiday
dynam
फराइ
expanding
accomplished
junior
विधवा
spinning
pym
whispers
अनोखा
pissed
checks
champions
दादाजी
concert
crushed
डरावनी
recommended
implications
सिसिली
butterflies
screwed
torture
सवानिवतत
cassie
tribes
precisely
humiliation
humiliated
controlling
urgency
उछाल
toothless
dishes
frequently
satisfaction
misunderstanding
##itzer
विडबना
handwr
devastated
originally
cuba
##रखाव
drowned
assessment
mask
##related
निभान
scouts
electronic
racism
एगबाग
नगद
फॉरमिकस
रौशनी
brooks
brooklyn
occasionally
inhaler
whistling
नाकामयाब
हावी
sealed
palestinian
titanic
reception
completed
restrictions
infinite
गददार
घबराहट
निलबित
हलीकापटर
रहसयमयी
tweet
cigarettes
कबाड
battles
भारतीयो
dentist
kwon
linear
गरजए
advertising
गलियार
whirring
blueprint
निषपादन
gandhi
warehouse
खटखटा
nightmare
daniel
eddie
धावक
बयाज
शराबी
threedimensional
सकवायर
amateur
tragic
resurrection
attorney
चाहीय
lucas
candidates
lesbian
eboshi
rabbit
thieves
इसतीफा
seawater
अनपरयोग
crateros
chromosomes
jewelry
akilan
आणविक
thyroid
जीजाजी
सीआईए
handshake
डयटी
बयरफट
साऊथ
anchor
agbogbloshie
simultaneously
डीवीडी
सवयसवको
philippines
lieutenant
nectar
raleigh
sicily
widespread
यलतसिन
परवानमान
सकीरण
neoliber
nephew
विपणन
triumph
तरिशल
तरकसगत
prochlorococ
##कलोरोकोकस
सटराइकर
महामहिम
selfinterest
posttraumatic
एगबागबलाशी
prochlorococcus
78
900
ai
ba
bid
bart
dw
eret
fare
gina
hence
ka
lb
lugg
lann
lining
mri
matt
nit
oath
pian
pix
rang
ross
riddle
ripped
sig
tense
tsh
tension
tatsu
vic
vain
vel
vend
vault
voted
wond
wires
wiped
yay
yang
zomb
अमान
अफी
अकाल
अयोगय
आफ
आउ
आचार
इरद
इथियोपिया
ईसट
ऊब
ऑडियो
कग
कवार
खासत
गती
गवाही
घिरा
चज
चश
चगा
चसत
चिम
चशम
छाती
जनी
जवाला
झझ
टटा
टवाइ
ठडी
डमो
डायन
तटीय
दाद
धआ
नमी
नारा
नपाल
नशीली
पाद
पकान
पिसत
फॉ
फौर
फालत
बायी
बोनस
भाप
भणड
मीन
मिड
यौ
रबर
रिली
रबबी
लफ
लच
लढ
लहरा
लिड
लिसा
वलड
ववाह
वासी
वकसीन
शिप
शयाम
शिलप
हरत
हटन
िफर
##list
##liness
##lank
##aire
##vity
##view
##dess
##doms
##rh
##rators
##ige
##ihood
##mad
##mart
##maker
##िष
##िबित
##निन
##नसी
##कित
##कभी
##sing
##sen
##टड
##टिट
##ाटन
##cul
##जाती
##जलि
##विग
##गट
##गढ
##hh
##bird
##press
##थो
##बट
##बोर
##बोध
##डबल
##चि
##होन
##40
##धवन
##jud
##ini
##inery
##inable
##inator
##inger
toys
##anut
##anking
##enger
##esters
##orf
##oric
##orph
परित
पराय
परोल
परलो
परिकर
##eda
ink
inches
inhib
##isol
##हीत
ofke
##itating
किचन
##ari
whale
एकड
##asp
##asma
कोनो
कीफ
कीसी
आपसी
##lein
यहदियो
bee
bears
beeps
hal
haw
hayle
noticing
##uting
काताब
काउस
##acies
##acious
##ida
stated
तमम
##uru
reference
sof
##िलस
जाक
अपरण
अपलोड
साद
समारक
समापन
समीकषा
lip
liar
##amin
##ader
##adel
##oping
##ths
##thew
##िसस
asbest
chess
chile
chalk
##तिम
##rov
##ched
seals
चाहन
abort
abrac
मरग
worm
विः
विदा
विपतति
विमरश
करनवाल
करनवाला
हीर
##gebra
knots
##साइ
##साइस
##ilton
trail
मनहस
##olit
noah
nobel
जानकर
जानलवा
मिलिटरी
peanut
upload
बचगा
##osity
tender
teens
prol
कारन
enforcement
##मीर
बनाम
माया
मादक
pla
plasma
अनना
spray
##elines
सोख
हाज
कामका
loan
lovers
sale
सरकषातमक
sund
sucks
##दरह
सवतः
सवीकति
brands
शरद
शरदधा
##ोटा
रपो
##ours
coinc
पाड
backs
evolving
clicking
##ासतिक
unite
चीयरस
lee
lend
compreh
##ometry
##cip
उपनि
quid
पिपा
दसतान
graff
समझदारी
ark
राकट
blo
blight
असहा
असभय
##वीसी
##दीकी
बसतियो
इतजाम
##icked
बढोतरी
resolution
मानवी
मानचित
##asses
कलह
दशम
दिखना
दिखगी
##विधा
बादलो
गरल
गरराता
##षटिक
##ीनता
mund
mule
निरवा
निरसत
निरधन
जलत
जलती
underwater
phase
बाकियो
पहचात
बरिज
बरकलिन
adap
adren
carn
carries
offsh
helen
helium
prejud
contaminated
commands
सपल
##लोव
पलग
मददगार
वरन
वरगी
वरजिन
वरजीनिया
दीखत
realizing
kevin
flor
flock
निकाली
अपनाना
dece
decipher
वयग
याददाशत
##कषाओ
सहकरमियो
उदासी
वाइस
सटडियो
waking
perspect
insisted
अवजञा
careg
##plete
भागत
serves
policing
elabor
installed
courts
courses
##माणिक
##कटिव
उपयोगकरताओ
सीखता
बहान
पढता
slums
बठको
relie
##बाश
highlight
obese
बकअप
cape
capabilities
पिछला
पिछवाड
मसडोनिया
टीबी
टीयर
उठी
presented
सलमान
पतत
पतलन
hardship
transmit
मीठा
daddys
नियकति
cellphone
सतषटि
behold
आरख
लीडर
गोफन
गोदाम
बजान
बजती
artillery
सिफार
शकतियो
महीना
गरीस
टरड
generosity
परोकलोरोकोकस
अगठा
##इटिस
दगना
दगनी
smallest
moron
centre
centimeters
आईसी
सौपा
readers
retain
retail
नीतिया
सथानिक
couch
fights
fighters
##ashed
param
hopeful
गाजा
गतिशील
मोरो
मोसस
##सनिक
हलमट
locate
trainee
continents
पथक
भजो
भजगा
ढढा
natures
##िडट
2004
2002
hurric
पहचानत
magically
steep
proportion
apoc
profitable
cheating
हतोत
shores
एमबर
pasting
##मिकस
organism
organizing
columb
अनसमारक
trends
अकलपनीय
समरथक
बढाता
winds
milady
sentim
नकदी
snakes
slept
biot
fails
kingdoms
certific
वसतए
वायमडल
millers
planetary
##ficial
वयाकल
लडकाः
madness
इटरपोल
एनडर
गडगड
पौड
परमाणओ
मकक
veil
निवशको
मिमी
drops
चौकान
directed
हडपन
विनती
tempor
सदशो
grounds
grounded
टाइगरस
##कतिकरण
वयवसथाओ
secretly
समाधानो
reflection
उततजक
रिकारड
शरमनाक
commonly
सधारन
सघरषो
##hei
काटत
खरीदना
privacy
admir
footprint
greenland
edmu
किनारो
पाठक
planted
acceptable
photographers
सरलता
विरोधियो
tracked
गणितीय
thrilled
sums
ceiling
irre
lads
सशोधन
सशकतिकरण
crises
२०००
observed
गजरन
गजरती
टॉमी
gradually
हटाया
typeface
सटरस
चरागाह
volunt
darius
suggestion
चिललाता
##commun
flights
रिकॉरडिग
fellas
अशलील
लिबर
##मारियो
epis
yells
honesty
##riends
इजीनियरो
परतिबधित
परतिबिबित
sweetie
rolled
##आरआई
contacts
roofs
परारप
अरथवयवसथाओ
२०१०
२०१३
धारणाओ
शौकिया
initi
भतपरव
panel
आभासी
कलासरम
hungarian
midnight
तटसथ
ethical
ashitaka
16th
mutant
primarily
participating
achievement
असथमा
demanding
दरघटनागरसत
layer
अनकलन
responding
responded
##दरोह
fluid
फोटोगराफर
vanished
नोटबक
भददा
रिसाव
बतख
बतका
सवीडिश
liberia
manufactured
mortal
bono
mentors
सितारो
आदिवासी
cracks
climbed
embarrassing
परसतति
जमात
dividend
##chester
integration
integrity
blessed
switched
नाइजीरियाई
दबाओ
quarters
perceptions
requested
दसतावजो
अहमियत
मोरल
distraction
migration
अजनबियो
असहमत
gangs
briefly
holidays
गरीनलड
सगरहीत
expressions
convincing
replacement
efficiently
mandela
टकसास
miche
एरट
कबरिसतान
habitat
आइसटीन
तातसह
२५०
injured
अनोख
scratching
fingerprints
somalia
reforms
detailed
paradise
paradox
limitations
privileged
gigg
walsh
promoting
inspiring
सपीड
accuracy
cartoonists
pillars
flooded
सततावादी
complaints
physicists
नापसद
blankets
passenger
टकराव
टाइपफस
concentration
concentrate
scheduled
procedures
अफरिकी
estimates
तालीया
हताशा
विदरोही
hoodie
desperately
illustrate
horizont
शतरज
उपायो
इलकटरॉनिक
सिएटल
hackers
prosth
nicole
औषध
टीचरो
टरमप
टरमिन
##सफयर
intimacy
परिषकत
contempl
transmitting
diamond
diameter
मनजरस
पाउडर
पिघल
anticipate
negotiate
लियोनारदो
ivory
इकलौता
deployed
capsule
macedonia
voting
नजरो
नजदीकी
महमानो
लाइबरिया
analogy
nickn
अकादमी
रवया
लडाक
bucket
precision
interpol
परसननता
indistinctly
lungs
##ylum
atlantic
धोखबाज
acknowled
acknowledge
भतीज
##hearted
interrogation
incomplete
basketball
legitimate
मरखतापरण
चिपाजी
dimension
orchest
degradation
unhappy
recyc
beheading
altruism
rooft
झोपडी
फौज
enlighten
aggressive
lagos
एवनय
hammer
anonymous
कारटनो
valentine
superbugs
illiterate
meritocr
dumpl
टथलस
collapsed
अभिभावक
##चिकितसक
cinema
pipa
जानबझकर
supreme
praise
बरकरार
distinguish
earthquake
vietnam
calendar
pearl
यनानियो
toljan
##राषटरिय
enthus
दरसचार
निषकास
muffled
preparation
सपाइडर
transplant
bureau
yelts
अपारटमट
##children
कलिनिक
monitoring
हलिकॉपटर
propaganda
luxury
विनाशकारी
kdk
lousy
lazy
tanzania
vancou
##लिखित
परालीगल
हमीसफयर
livelihood
annoying
himmler
तबदील
परवरतन
uhhuh
नवउदारवादी
gravitational
neoliberal
luggage
जवालामखी
टवाइलाइट
पिसतौल
रिलीज
ववाहिक
##lankton
परिकरमा
काताबाई
उपनिवश
adrenal
perspectives
सिफारिश
edmunds
तातसहइ
43
aqu
bib
bax
boun
binary
cue
caste
dh
dil
dimin
dbc
eve
elf
erupt
eager
fount
fred
fax
fury
foul
gw
gast
groom
gained
gps
gaza
gifts
hw
hoo
hong
hills
hedge
iy
jess
jee
jenn
kush
lion
lap
lions
mam
mith
mau
mud
mens
masc
mamm
ny
nort
naz
pic
pud
porn
posed
poul
rud
ruth
rays
ropes
sr
sed
sau
saud
sinc
sessions
td
tire
uv
viewer
wield
wik
अवि
आहत
आरक
आमीन
आउट
आकतिया
आजीवन
इधन
एली
ऐप
ऑपर
कबी
कभार
कखयात
खच
खवाब
खफिया
चनो
चचर
चतन
छिड
जदा
जजी
जवल
झणड
झगड
टल
टॉक
टॉप
टलि
ठहरो
ठनड
डव
डाई
डारक
डपलिग
तद
तिमा
थिय
दारा
दफा
दडित
निया
नशील
नासतिक
पशन
फिला
फटन
फडर
बिर
बसी
बिख
बसत
भस
भव
भरत
भाला
मप
मसा
मवी
मअपन
मवशी
योन
रफ
रमी
रियल
लय
लवल
शघ
शापित
सरी
हग
हिन
हकि
हरो
हॉप
३१
७५
##lv
##lie
##link
##vy
##vol
##egan
##dles
##rs
##rans
##rating
##uz
##ux
##iences
##ties
##oas
##gins
##mith
##mel
##िजन
##नया
##निक
##निर
##निश
##कय
##कॉ
##कना
##यग
##पिता
##ठार
##ठिया
##टग
##टिया
##टडर
##लल
##kers
##koto
##ीप
##cery
##जहा
##गस
##ht
##houses
##burn
##pres
##दिल
##ददी
##फकस
##फॉरम
##ytop
##बदा
##डड
##function
##खम
##खिक
##शिय
##शिषट
##45
##धक
##उजर
##इग
##इरा
##747
thresh
##inos
##inea
##ounder
##rem
##lla
##ester
करमा
परता
##isy
##नाश
offe
##itute
##itudes
##arn
##arat
एकः
हमर
हमिल
हमको
कोका
कोलो
कीगन
wears
यहदा
##icting
##iceless
beans
beacon
##alry
##sex
dose
सकचित
##acinth
ster
stal
stir
stare
static
stagger
##योर
##योटा
##urable
##urai
##रीस
##रीयता
render
##keeping
जाघ
अपत
##image
साकषरता
##irl
मझपर
shah
रहकर
##गाड
##गामी
##add
##eching
##िरफ
##opy
##opher
##oppy
##them
##thood
##theless
nepal
##िसमती
asp
asylum
chill
chir
choo
chlor
##काब
##काना
##rodes
दखल
##chem
##लादश
seas
seated
moons
बहतस
worship
विग
वियत
सबलोग
सबजिया
##gender
##geance
##कोष
##कोण
पहिया
पहनी
##साइकिल
##ilize
trill
बारटडर
लकास
तरगो
##cted
##ulative
##oneys
algebra
noon
noone
noble
जानग
##किफ
dement
degeneration
##arten
##igen
दोहरी
##inda
##abh
upside
बचात
बचनी
##acks
##लीगी
tej
कारगर
##परमाण
माताओ
मापा
spy
spar
manual
सोया
सोता
sheets
वालर
चलकर
चलाती
कहल
सरच
सराह
suicidal
सवटर
सवरो
कमल
##ivility
दरसथ
pran
brake
bricks
bravery
thinkers
महिम
महाराज
महममद
शरमिक
##ोटस
##ोटाइ
##mented
नाकारा
##कारियो
मतमह
किसीन
रखरखाव
gotcha
cocon
##employ
सालमन
clar
clust
clue
clatter
cliff
##ासतव
unle
unim
uncles
unpre
unemploy
बताइय
draft
हरानी
हरमन
##izar
##izers
पिराम
twoth
परिपक
grind
समझिय
उतारो
लाजवाब
bloom
असविधा
वासतकार
expon
expense
expressed
पीटा
बढाप
resign
happier
कपिटल
कलचर
दिखाय
##विदो
सनह
guinea
poop
जीवनशली
firsthand
गरडम
अरजित
acute
##bert
##berry
##berries
निवदन
निषठा
crown
disability
muham
जलता
scum
undert
underlying
phytop
बरग
adorable
adequ
घरणक
mayor
जाओगी
contest
सपिन
सपषटी
बिछ
##quis
##soft
okkoto
खोद
idiots
margin
पडना
nevertheless
humility
roe
वरच
writ
विकति
realities
पराजकट
परामाणिक
keegan
counts
##veling
flick
fluct
गलास
##ials
सारजट
नामित
तबलीगी
showroom
incidents
incivility
december
decline
मौन
मौखिक
desires
भरण
सनातको
ohio
सहल
##othy
mah
वाकिफ
बीयर
बीटरा
wailing
मलाला
applies
puff
खलकर
खलासा
भगोल
surger
धनष
glue
glorious
कारयरत
caret
mini
ministry
attended
##phia
serpent
polar
चारज
पारम
thankful
goddess
समायोजित
##बदल
##कटस
बहसपति
##block
पढती
slope
अफसर
किसलिए
relay
##यनत
परवतो
founded
recur
राजमारग
मसती
repet
farai
prescription
handled
परणतया
menu
swoop
consists
transf
transgender
##चरण
मीरा
assholes
होगया
terribly
##ancer
करीबन
walt
फलात
वहील
गोपनीय
सिथ
##ाइलो
अतरराषटरिय
##डोम
passage
टरिलियन
generous
कलाउड
skies
skilled
19th
singer
दिमागो
फसफ
गिरद
गिरता
charm
protective
##uese
reds
आशिक
फिलटर
फिलहाल
उदाहरणारथ
रखाए
extent
modified
futile
डीसी
adds
economically
forming
विशषताए
coup
couples
##डलफिया
सिखाई
दिखाऊगी
गाडिया
traitor
मोहित
अमोनिया
हलन
locally
##वकता
memo
foremost
forehead
##सटट
fucks
कानसास
messed
messenger
##बतती
subur
चिकितसको
patience
खरीदारी
##वयव
proposed
apology
honors
freeze
superior
colony
##ospher
कपयटरो
##फटवयर
राषटरो
barn
barking
virgins
devoted
answering
answered
snaps
doorbell
caf
cafe
मखयतः
firefight
deepest
bias
copying
##cedented
gunfire
पकडी
कदमो
calam
miller
silenced
projected
##ipper
electrodes
बॉय
मडना
रॉस
##इडट
कटट
कटरी
baton
परतिकति
marketplace
suns
टोयोटा
fulltime
##लडस
perfection
philotas
philadel
poster
परदरशनी
arrives
अचभित
gee
geography
radically
sexually
existential
करोडपति
sweep
चौक
चौकी
चौडाई
चौथी
मनाना
लाभकारी
सवीकारय
लौकिक
nearby
उठाए
उठाता
digging
receives
neuron
microsoft
operates
धाराव
horror
भरोसम
साराश
medication
explaining
कालज
individually
hyacinth
लटकान
impacted
वनडी
वनसपति
कमाया
bankers
धोना
constitution
responsibilities
##कषणिक
hugely
रिच
काननन
खरीदता
कागजी
कागसटर
heavens
troubled
drawings
screeching
lifel
तलाशी
##होगा
सवाददाता
##nchron
इसानियत
अपराधो
gently
addresses
iceland
massively
smartphone
हमलावर
annoy
lowest
sensor
भमधय
locks
locker
दरवाजो
लागोस
उददशयो
turbul
embark
capitalist
रीति
thrill
merry
samurai
ककषाओ
पहचाता
approached
मधयसथ
threatening
गजरा
२००६
earliest
गजरता
टॉम
बगनी
बाहय
neglect
बितात
transforming
tennes
presentation
developmental
starving
bagoas
सटरॉ
escort
25th
##ynne
volcan
गलाब
गलामी
दिशाओ
taxp
यगान
##ोकताओ
आतमाओ
सिखाता
donor
luis
##iko
गदग
पनरवास
पनरविचार
prediction
घमना
सघीय
tickt
किशोरा
पटरियो
१५००
उतरो
##world
##working
##ascular
कराबाई
significance
bodys
कसीनो
##पसद
परतिसथापन
execute
२०१६
२०१२
करियान
atmospher
employment
चिनहो
डोमन
शकती
soils
cookies
cookie
fatal
desertification
dependency
queens
tours
tourist
##यातरा
sticky
functioning
functional
celebrated
midst
pandas
अपमानजनक
suitable
avoiding
लॉग
लॉयड
ambition
copyright
दावत
association
शरतो
शोरम
petrol
influenced
laying
नयरोन
योदधाओ
beng
निपटना
gargant
गटठ
1999
homie
homosexual
रिसप
standardized
टरवरः
kissing
kisses
wounded
बतती
loads
सॉफटवर
liberal
triang
romance
troop
britain
सहजता
relaxed
रलव
analyzed
पलायन
मतरालय
ensl
surrounding
mathematic
नवीनता
witnesses
डनियल
fellows
squares
embarrassment
hallway
contracts
pakistani
अटलाटिक
investigate
senate
मनोरजक
requesting
neighborhoods
cowboy
##टरोजन
distributed
formerly
jewish
virginity
candy
candles
ruin
जझत
##एचडी
अभिनता
एपप
झाड
वानरो
ghosts
bothering
गरीनहाउस
methods
telomerase
crashed
broadband
israeli
विवादासपद
categories
champion
containing
weekends
restaurants
horns
डकती
दषपरभाव
qualified
पतरिकाओ
tackling
जगाड
सोमालिया
displaced
simplicity
continuous
धधला
##इजशन
overlapping
astronom
gambling
mcd
profoundly
आतकवादियो
rubber
veteran
अहिसा
tortured
जीवाणओ
jaegers
rosie
vengeance
worldwide747
recruit
prevents
explosives
malaysia
battery
karl
ninety
scales
minority
databases
हारडवयर
सिमलशन
atomic
resilient
निकटतम
चिहनित
बीनस
यथास
सलसमन
तनाती
लचील
लचीला
colonial
observation
##walk
सामरिक
chattering
उदघाटन
elephants
bogo
coughing
दिवालिया
दोहरान
expertise
gestures
lloyd
vocal
vocabul
गबबार
डरगस
entertainment
inevit
excessive
interpret
tactics
चिटठी
छाट
डलटा
थरपी
मआव
evaluation
consistent
duke
vertical
वासियो
निदशक
splashy
republican
kerabai
merely
नॉरटन
genetics
genetically
alexanders
असीमित
मतभदो
मोटापा
carlos
सपकटरम
सहिषणता
photographer
intrigued
kongstru
rifle
tigress
मरसथलीकरण
overdose
removing
cambodia
greedy
greetings
इकठठा
rhythm
cavalry
झिलली
तरिभज
spatial
कपोषण
निःसदह
adolescent
परतगाली
capitol
पनरावतति
trajectory
portuguese
maximum
incarcerated
ingredients
bombs
pdf
thorough
काबलियत
abundant
मापदड
unfolding
sympathy
wanker
शॉपिग
shangh
connor
अनषठान
अभियातरिकी
dismissed
dvd
joseph
siblings
##degree
सोलोमन
pronoun
comparison
incorpor
prescrib
redemption
hierarch
kantabai
lanka
luthor
##parents
nelson
trousers
genocide
इकबालिया
अफीम
खासतौर
चशमा
भणडार
परलोभन
ofkeefe
offshore
सपलशी
वरगीकरण
hurricane
certificate
yeltsin
vancouver
baxford
norton
poulain
saudi
sincere
खचचर
तिमाही
शघाई
threshold
हमिलटन
staggering
वियतनाम
coconut
unprecedented
पिरामिड
twothirds
परिपकव
गरडमदर
muhammad
phytoplankton
सपषटीकरण
बीटराइस
surgeries
philadelphia
भरोसमद
कागसटरप
tennessee
किशोरावसथा
worldwide7477
vocabulary
0l
47
58
82
97
911
bach
bern
bizar
cn
cem
fec
fog
fitting
g8
gag
gaps
gases
gzero
hid
hers
hud
hip
ig
jol
jama
jason
lined
lung
mac
ned
niece
pile
pne
rapp
ramp
roose
riots
ruger
sash
sik
tent
tide
tues
vig
wen
yog
yah
yards
zones
zeal
आवतति
इर
इल
इकार
इशक
ईबोला
उकसा
एसी
ओड
कए
खाय
खशन
खजर
गि
गॉ
गश
घरा
घसन
चस
चिग
चिड
चमब
छाल
झन
झी
झला
टब
टोन
टयन
ठक
ठग
ठान
ठाक
डरी
डास
डिली
ढो
तौ
तयो
तिर
तदर
थकान
थलग
थरमल
दलो
दायी
धरी
धमक
धमाक
नना
नित
नमा
पटी
पखो
पदरह
फका
फसी
फदा
फोड
बव
बफ
बसा
मानी
मकड
मथय
मडो
मचा
मॉर
मटरो
रढ
रिए
रीक
राव
रसस
रकता
रईस
वयास
वटरन
शकल
शकषणिक
षड
हज
हॉन
हराम
हटना
हवड
हॉरन
##lest
##aiah
##vens
##een
##rise
##rained
##rams
##uated
##tin
##tail
##oked
##nia
##norm
##nels
##gy
##mind
##mony
##िझ
##तरीय
##नक
##रि
##रहा
##रात
##कश
##कहा
##यटिग
##आन
##आस
##पयोग
##पयार
##सिख
##सिग
##सगीत
##school
##ॉइक
##टोस
##लाह
##kim
##ीस
##cost
##cale
##जलो
##जिट
##वारी
##वानी
##वयन
##गह
##hed
##hel
##bu
##bed
##bur
##bound
##pin
##pat
##pany
##थान
##ye
##yth
##ईट
##बहत
##बडा
##बदधि
##12
##डक
##डिओ
##fare
##खलन
##भि
##णडो
##धयकष
##उटस
##अगर
##घरो
##erving
##inas
##inform
##oured
toes
##ारिक
##anne
##ller
करट
करद
करश
करमिक
परख
परजा
परचर
परकषप
औरतम
##edea
##edience
##otion
inland
inhab
inmates
##नामी
##नातमक
##नाचाह
##itated
##itivity
##arct
##omics
whoo
whales
एकात
एकसप
एकीकरण
##asive
हमदर
##ानस
##ानतो
कोठ
कोलब
होद
होलड
itch
कीटा
weed
weary
weaken
##etery
##leine
bend
beam
beard
beware
##uther
##stasy
इसाई
इसटिट
लिएः
सकसी
सकगी
सकवरट
##idity
steak
heating
##urers
उसता
forcing
reh
reich
revers
##ियान
##िनिया
meals
meera
##verb
अपप
अपडट
अपशिषट
##imb
थाय
सापकष
##iro
shh
shak
shakes
shark
shitting
shiny
shitty
livest
रहिय
##गादड
तोडा
anten
जोडो
कयातम
withdr
canvas
##aunt
##िसटो
##काता
##roots
दखगा
amys
ammon
##che
##वाइट
##वाशिक
abnorm
moist
moira
बहती
मरगी
मरजी
fried
विवश
सबव
##कोस
##ili
##ilot
##ationally
लगर
tram
trop
traces
tractor
सकतक
तरस
मनपसद
##तरो
likeli
orin
##oli
##olf
##olic
##ulates
##uliar
alai
exile
noises
गयारह
deem
deforest
##odh
मिलर
मिलक
peer
pell
peel
##umber
##abled
बचो
बचार
##osc
proger
prohib
##ifest
##iful
कारलोस
##ियोल
##परस
##परति
##apore
माओ
मागा
माउट
placing
जी०
जीदगी
अनन
अनज
sphere
##elf
manifest
सोडा
##टरिया
lob
सरख
सरकस
सरवस
अधरी
##दरशी
##arelect
सविट
दरशय
दरविड
##agne
brow
brass
##सतरा
महारत
##mental
herring
hermann
##कारक
किसीको
सीओ
fee
feast
कसरत
पाओ
पाऊ
backup
backyard
##emen
##active
clut
clay
##reating
अधिकत
uncon
aglo
बताएगा
##oret
compens
##akh
drama
हरित
हरषा
##यकारी
उपजा
quex
##uds
grump
grape
grazing
भागा
perm
##obic
सचतन
राषट
blur
blades
blocking
##वीन
रोमन
बसन
बसट
पीस
resort
कपटन
कलान
कलोन
##ोलनो
##विना
सननी
बनगी
अलझ
अलपस
##मरिकन
लडो
लडता
गरक
गरभाव
##ounded
अरध
##bercul
निडर
crows
crunch
craving
disad
disres
beth
mujin
##rix
लगाता
लगायी
जलस
scru
undergo
impr
impul
बाबा
buys
##टाइ
offs
परतिमा
परतिवरष
बिठा
करोधित
helpless
boar
booth
intervent
interfaces
##वलट
lotus
lottery
पडग
##लोजी
पलरम
humble
वरगो
विकारो
##ignant
दीया
womans
strings
निकासी
##िपराय
छोडग
छोडती
तबाही
##ictional
decom
##दारिन
मौरीन
नीचा
बिललियो
symm
सनाय
अतयनत
##othel
सटप
सटॉइक
waving
मलनिन
madeleine
killings
plea
##awa
धनवान
##weight
glove
famine
अवतार
ताइ
ताजी
कारयकरमो
##phem
genomes
##azz
बरावो
##ibal
##attered
पारकर
दिलो
दिलात
slice
किसकी
किसको
relat
relies
endurance
परवक
warrant
बकबक
लोकल
solarelect
बोलग
jokes
##बलिग
farms
उठना
उठाय
##फलक
अभियो
अभिपराय
लिखता
handy
सलफोन
पतल
switzer
consol
conserv
conspir
assure
नियति
##पीस
##aha
आरकिट
करीम
भावी
सकलप
entit
entry
परसि
सपरिग
फलश
फलिप
गोरा
नौसिख
बजता
सिह
##ाइट
चकान
passive
passions
confusing
एलफ
##ergarten
टरकिग
परोजरिया
##दनियाई
datas
sketch
अगनिश
singapore
heartbeat
openness
seth
फसफस
भलन
डिबबा
morse
नयटर
तकनीकि
chariot
protesters
##atively
फरनी
##ियनस
rediscover
visually
untouch
##neys
extr
explicit
interests
reader
detonate
regional
reggie
##सकता
formal
परिवरतनो
मखौ
मखिया
##ॉरडर
सिखाती
बोत
दिखाएगा
distorted
##जिकल
paras
delicate
oppression
महानगरो
गतिशीलता
मोज
मोइरा
connectivity
harper
harness
##सटरी
fuckers
##धीय
advised
advances
##llywood
पथल
वीटो
भजती
बलाक
probes
##idding
submit
winston
यातराए
चिकितस
patrick
महाविदयालय
foods
हारबर
machinery
शादीशदा
stepped
profile
awaken
सदढ
bury
dealers
essex
quicker
उलझा
superher
supermark
supervised
damp
दरदराज
doubled
infilt
politically
उडात
पोषक
पतरो
sentences
##proof
मसतिशक
snap
supportive
tonedea
waller
labs
बताओग
eats
चरबी
protects
bikes
diarr
जोडती
जोडकर
guessing
लबाई
silk
बालटी
हसतहए
भोजना
##ipple
elections
provides
strongly
मौतो
रॉबलिग
कटता
कटटरप
cuts
destination
blacks
weekly
filmm
microph
पौषटिक
arrival
मकडी
मकखन
मकदनियाई
125
viable
malnut
मॉडलो
immort
मिशरित
sweater
mainstream
rockets
antman
antarct
consideration
पहनता
digest
pressing
murders
सभालो
बनाएग
cleaner
भरोस
travels
prisoner
##बारम
covert
परौदयोगिक
hijack
टटता
limb
बरीफकस
धोबी
कोडकस
ऑफलाइन
१९७
मरखो
telephones
इमजिग
गराउड
##हमार
सजय
सवरधन
draws
185
circus
tedsters
targeting
##ermo
urine
affection
addressed
squir
##जातियो
acceptance
loses
sanj
sanitation
neighboring
परियजनो
exceptions
फकना
मिटान
सकरट
feeds
mirrors
occurs
ससाधित
worthless
ससथागत
गणितजञ
defining
अकलापन
रीसाइकिल
निजीकरण
irresp
riding
riders
spiral
चढन
नाइटरोजन
launching
२००७
२००५
२००२
उपचारो
variation
grades
transformative
psychopath
विलियमस
beaten
democrat
democracies
##चालन
starve
floating
authors
सटरिग
skinny
innovators
achieving
portal
davis
cycl
critics
darcy
suggested
चिललाना
ern
erad
पढाक
अभियानो
समबनधित
competitive
catching
parkins
नवबर
रोमाटिक
predictable
वरगीकत
decisive
balanced
sections
गीली
गिनी
interactions
जिममदारियो
उतरन
##worth
pollinators
##ascal
defeated
strikes
striker
दौडत
visualize
palace
palermo
diagram
blend
marching
परतिसथापित
assuming
denver
denmark
versions
visitors
२०१४
grocery
नवीनीकरण
परजीवी
praying
##रदानी
initiated
गमनाम
डाकओ
डाकटर
celebration
celebrating
documented
contributed
टाउन
सनीता
rounds
branded
crowds
participation
सकनर
इशार
कचलन
वरणित
puppies
diagnose
ellens
mythology
उपभोकताओ
तिजोरी
आपातकाल
##letes
libraries
homicide
नोटस
फाटक
मचछरदानी
boarding
sustainability
miami
wooden
बतौर
मगजीन
सवीटी
पजीकत
manufacture
नयरोसाइस
roman
बीजगणित
melissa
अनयायी
सटीकता
विशषजञता
मतरमग
magnitude
loudly
tyr
डनवर
मिरच
accidentally
hypn
logistics
courtesy
encouraged
hatred
hatto
अटकल
घमाव
यनियन
सिलिक
healed
chuckling
अकषमता
पॉवर
##heads
debts
integrate
blessing
tech49
philosopher
आलख
कडवा
चमगादड
##celled
ecology
ecstasy
ततपर
surgical
occurring
jean
jeans
injected
priorit
मीटिगस
मसलमान
1960
historically
immigration
शहरीकरण
orphans
निरमाताओ
translated
translates
settings
distracting
reflected
mosquito
mosquitos
बोरडिग
असहनीय
barbarian
mathematical
punched
ruined
tunnels
जवकीय
sacred
assemble
empowering
bothered
रजवलट
##secret
societal
hooked
shelf
coordination
coordinate
expanded
खलनायक
loneliness
हॉसप
prospect
obstacle
broadcast
platforms
guts
pyram
बखबी
बोरिग
बजरगो
clubs
कषतिज
arrangement
introduction
beside
##लगताह
hamilton
embracing
excla
exclusive
disappearing
athletes
अविषकारक
ऑसटरिया
champagne
spaceship
pregnancy
apologies
gigantic
mmhmm
टराइडट
confronted
जादगरनी
hindi
ओवरलक
मगलवार
toyota
विदशियो
धधल
chairman
scanning
cortisol
फारस
एकाधिक
coastal
1970s
डारविन
शासतरी
सिसटर
minimize
transparent
परोपकार
१९९८
फोरबस
बोसनिया
परपरागत
tribal
शरषठता
disruption
vegetable
surprisingly
prevention
contrary
magazines
##criptions
परतिबदधता
माइकरोफोन
avenge
avenue
krish
इसलामिक
doodle
forbes
forbidden
frightening
frequent
satisfied
१९८०
misunderst
misunderstand
अमलय
heights
अनदखी
उपाधि
निमनलिखित
margaret
storyteller
इडसटरी
रनव
thickness
होमवरक
उभरत
गजारा
charts
निचोड
मसकराहट
ethnic
दारशनिको
इकलौती
दिवस
परकाशक
whistle
विशवसनीयता
1945
delayed
मिथया
antibiotic
नियोकता
##laim
william
outsider
siren
tubercul
intuition
incidentally
जिददी
horrific
criticism
kuch
vito
vibrating
दायितव
receptors
दरदरशन
implemented
adjustments
फलोरिडा
टाइटनिक
portrait
mobilize
फिलिसतीन
duration
mantis
naray
झकाव
नलसन
भतीजी
रहसयमय
convenient
tweets
attribute
assassin
exploitation
शरोतागण
cigarette
borrowed
ceremony
harsh
हौसला
suffers
अवयव
fungi
चिपाजियो
असीम
##िडीज
##अभीभी
reefs
मतभद
cocac
सटडियम
treadmill
skeptical
klan
tubes
टकरात
मठभ
विडोज
metabolism
refriger
pentagon
पटागन
registered
legisl
conventional
africanamerican
olsens
ऑटिजम
गडरिया
चबकीय
hazard
arrows
exhausted
substantial
emphasize
cdc
हिरासत
reunited
अरजटीना
pleasant
reconstruct
exercises
scholarship
furniture
goro
peculiar
razor
अचरज
नायको
thermal
##keeper
हाफना
compatible
सिडनी
enterprise
uncertainty
dividing
linguistic
शिषटाचार
##engine
कायाकलप
staircase
outrage
intervene
creepy
नयायाधीश
opponents
destroying
aisle
cuckoo
पोटशियल
हफता
##चिलला
stoick
##olerant
cocoa
slogan
सतयापित
respiratory
paralegals
statistical
डायनासोर
पाठयपसतक
dynamics
handwriting
bartender
nitrogen
tatsuhei
फौरन
hayley
asbestos
असहाय
florida
caregivers
elaborate
हतोतसाहित
एनडरसन
गडगडाहट
prosthetic
nickname
enthusi
निषकासित
gastro
jennifer
mascul
sauce
dementia
##ोटाइप
fluctu
पारमपरिक
##वयवहार
ticktat
kongstrup
bizarre
cemetery
pneum
roosevel
tuesday
तयोहार
रढि
षडयतर
कीटाण
इसटिटयट
withdraw
ammonia
likelihood
progeria
agloe
mujinju
interventions
पलरमो
switzerland
आरकिटकट
tonedeaf
diarrhea
कटटरपथी
malnutrition
irrespons
मतरमगध
tuberculosis
46
56
66
67
aes
bun
boris
cg
cot
cum
cows
cured
dion
dys
doth
dug
dime
dung
eu
ego
eternal
fm
fame
fue
fides
faint
fictional
gren
gaz
hp
hut
homet
heter
hilar
jc
jake
jord
kur
kig
kab
khal
kicking
kelly
lid
lind
lav
luther
mt
mong
mater
masa
nether
nino
od
ot
oven
oval
pse
pint
pork
paus
pto
pipe
rally
rag
riz
races
rains
rival
rapt
raging
rangers
ranging
ss
sans
siber
tys
tits
tips
ud
uber
ubi
wider
yak
आवश
आयवाद
आकसीजन
इय
इडिया
इगित
उमम
ऊनी
ऊतको
ऑरल
औट
कदा
कपर
कयर
कडाई
कदो
कवट
खौ
खया
खदा
खजली
खजान
खदाई
गात
गवर
गिग
गायक
घना
घसी
घसा
घनट
चग
चटर
चसन
चमप
चडलो
छरा
छदम
जह
जिला
जडो
झको
टह
टाय
टरस
टोसट
ठणड
डप
डस
डग
डिश
डरो
डबी
डबो
डविना
तिथि
थॉ
थम
थला
दानी
दमन
धरत
धतत
धबब
नड
नह
निन
नचर
नसीब
पित
पारी
पषट
पकिग
पवाइट
फन
फकस
बआ
बथ
बकट
बततिया
भना
भान
भदी
मॉन
ममो
ममब
मदारिन
यक
यास
रझ
रली
रडी
रजी
रिग
रवय
लिट
लमरिकन
वट
वः
वादी
वतति
शश
शवाल
शॉरट
शबदा
सया
सिय
सदध
सिट
सदन
सिलाई
हब
हइ
हवाल
हवाला
२४
##ao
##aired
##aeda
##vid
##vous
##eel
##eous
##dog
##rit
##rand
##rons
##raki
##uum
##uvc
##iq
##tw
##tom
##tolerant
##oen
##oard
##oys
##oves
##nat
##gun
##gree
##gary
##giving
##min
##िबल
##रियन
##किस
##कको
##ोम
##पप
##पाती
##पतियो
##सघ
##सिस
##सकल
##सकत
##सपरिक
##watch
##लियम
##cat
##cot
##जाल
##जरी
##जारी
##जिसट
##जसय
##वटी
##विसट
##गरा
##गिर
##hor
##haped
##bar
##bro
##bies
##biting
##pm
##दडो
##दरीय
##फिस
##फली
##माल
##मशन
##मोस
##थार
##you
##yan
##बरो
##डरो
##चकर
##चसटर
##fish
##हज
##हटन
##खासत
##खवाह
##भल
##झाई
##षम
##षको
##za
##zes
##इली
##छार
thirst
##erous
##inn
##inum
##inine
##inational
##atosphere
##ndant
##यादा
tob
##ारियो
##ारकट
##ारडर
##anas
##lling
##llah
##ength
##oned
##onie
करमी
करवात
##ताप
##orient
##orters
परयकत
परवासियो
ishma
##oton
inex
inaug
##iser
##isia
ofne
##itas
कियी
##arh
##omere
whim
एकबार
##ानन
कोमल
कोसट
कीमो
कीटना
weld
weighs
weeping
##leys
##lemy
यहएक
##ico
##icap
##icides
beep
beef
hail
##ald
notions
notorious
काप
##ste
##star
इसरा
##हाली
##ayers
सकॉ
सकोग
सकशन
सकणड
##idian
sty
sting
stool
stems
stenz
heir
heil
hect
heath
तमिल
तममझ
##ाहिक
##uration
goose
goss
reign
rebel
sober
soles
sovere
sofus
##ासट
##ासटर
mend
##verse
अपित
साय
सादा
सायक
साउड
साखयिकी
##irsson
shith
shipping
liability
उनमा
भीषण
##amous
##राइट
##adim
anatom
anthony
##ecy
##thand
##three
##thesis
canary
##िसकी
##िसटर
asge
वहन
वहिसकी
##oored
chit
chow
chim
chol
chord
दखि
दखरख
amp
amane
##chair
##लाजी
##वाक
##वापस
##ोगर
aboard
mol
##anting
alloc
allerg
alleg
मरगा
मरती
fract
frames
atar
करनवाली
हीथरो
सबल
सबम
सबजी
##कीला
##gevity
knight
##कोड
लगो
लगानी
trance
बारीक
मनहटन
##ियॉ
##ियट
##गरड
##करत
##कररह
orth
याग
जबान
जबरन
##ctive
##ainted
##andal
##androll
alab
alike
exceed
exagger
node
outfit
outstanding
defect
conform
##igious
##iguous
दोहन
##usively
##usiveness
##abs
upro
बचती
बचकर
बचाती
बचारा
##माएल
##ifies
##ifier
कारयान
कारयालयो
##परय
##परिट
enables
माब
मामा
मागत
plast
plates
जीसस
someplace
बदरो
spill
sperm
spotted
##ादायक
manages
mango
manners
manchester
सोल
सोरस
सोफस
सोशियल
कामगार
चलगी
logo
अधी
अधः
sue
suz
suite
sufficient
##दरद
सवक
दरपयोग
brad
bride
brace
brib
फिरत
##िशान
महफ
##ोटिन
लोगोको
नाशत
सोची
सीनट
feas
feature
yearning
intensive
जरम
जरनल
##ema
wellknown
lethal
clich
clapping
clonie
uncover
बताएग
compuls
drav
drank
drums
##fell
हरर
हरष
हरदय
उपदर
जीविका
जसटिन
पिच
twode
परिपथ
workforce
grands
चाहिएः
perpet
लाएगा
arrog
newcom
newcast
bluff
##वीपीय
मारगा
मारकस
पीली
reson
resem
resident
मानस
मानग
मानगा
मानको
##िगड
कलन
evenings
##iaut
दशी
दशदरोह
दिखी
दिखग
##ोरन
firms
सनहर
बनगा
अलब
fuzz
##ysus
लडग
##irect
firstly
गरवार
##षटता
cram
crane
cracking
crushing
दनियाभर
disconnected
disabled
निरवासन
##riet
जलिया
scent
scoot
scoffs
underrepres
phoen
बाया
बाटा
bund
ads
पसनद
preced
precip
conting
##adev
##मनिर
बिठ
बिगाड
##ffective
bollywood
कषतरीय
okrs
idol
पडाव
##लोए
बदलकर
remar
roast
वरजित
wrink
writes
realization
##rency
##century
##धारियो
##सथायी
##वशिक
smiles
सारगी
तबस
##ictable
showers
incon
decides
वयजन
पछिए
बिलला
##जरलड
परतो
सनाए
सनाता
kindly
kindergarten
greatly
सहिता
कितनो
maid
वाटर
वाइट
बीफ
सटल
सटाल
सटशनो
##cession
##xton
surfaces
##aws
डरना
डरिक
hover
earning
चलाई
lastly
घटको
कारयपरण
कौनस
##play
##plus
miners
minecraft
भागती
invade
inviting
##मतलब
पारसपरिक
thankfully
समायोजन
मजह
सीखग
बहमत
बहराषटरीय
heywood
महतवका
slim
relent
ओहियो
runners
personnel
schooling
reclaim
solo
बोलगा
राजसव
joins
joining
systemic
वयवधान
learns
learner
learners
faruvc
nothings
builds
##ोसॉ
presents
handc
handling
परणव
पततियो
opio
swelling
creator
##ॉनमी
imagery
assign
assigned
सामजसय
accidents
brainw
फलग
examine
नौसना
artistic
artwork
सिगा
सिदद
##identified
##ाइय
sonny
airb
अतरग
अतरनिहित
sawyer
आयगी
confessed
टरसी
टरिप
टरिडट
generals
generates
generating
##दनिया
अगलोए
singh
गिरती
lighting
डिझाई
moro
centimeter
विसम
विसटन
हवाओ
फरड
##टोपल
आईय
आईआर
redd
redes
visa
visits
खोजकरता
##ificent
deadshot
उदाहरणो
modest
readily
woken
regener
addison
addicted
विकासवादी
economist
यदधो
fighter
grey
सकषमता
बोबो
distinction
parade
parole
गायो
traff
robes
बटमन
restore
fucker
कानो
continental
निकालता
messing
पटल
खशियो
chef
cheat
cheek
##idedown
सखयाए
valued
superpower
##brand
colum
खडित
damned
histories
कबिनट
अकलपन
chron
grandchildren
grandparents
equations
equator
खाकर
infl
infirm
investor
पोप
पोकर
कनसर
##aires
##shine
amaze
amazed
नकशक
snot
ahh
परिणामसवरप
मासा
fireworks
रसिग
चरान
biom
coping
picks
pickandroll
मिलीमीटर
##ताहिक
southeast
dias
बचाता
बचाकर
spacex
calories
certified
खानः
##भागियो
##धिकरण
वायर
विदवान
silas
कतय
बालिका
चनौतिया
15th
भोज
expectation
एसब
एसिड
provoc
poorly
मडकर
रॉयल
batman
inclusiveness
engineered
1000
##ारकिक
blackm
accessed
sunny
sunshine
एनरजी
टोप
दाता
खनिजो
hunters
##जियम
aviation
कमीशन
##ोततर
selfdr
selforgan
posters
approval
मकखियो
मतयदड
2018
12th
difficulties
पायगी
dropout
malala
fastforward
geometry
दविनिया
##aids
campus
चौडा
चौकस
मनात
discovering
targary
encoded
rocked
viewing
audit
audiences
मागना
गोलड
गोलार
धरवीय
धरमनिर
उठाकर
cooler
चिली
हथौ
statues
बदकिसमती
राजाओ
identifying
आइलड
judah
judged
universes
रोबोटिकस
यारड
##ानकटन
आदशो
risky
hymens
paths
राजनीती
परौदयोगिकियो
multim
multinational
कमाता
##पाजी
मिसाइलो
##rophe
चोच
चोकर
१९५०
communicating
##umbo
##umbles
divine
motors
अलाई
unfair
printer
accounted
beneficial
purple
teddy
scripts
violated
##मटरी
सरववयापी
admire
फलाना
मछलियो
edges
सफदी
किननर
terrain
iceberg
smartest
banana
पाठशाला
improv
civilians
दलहन
annum
sufi
सपनन
losers
sanja
lowcost
sensory
sensitivity
photographed
गसो
turk
शीट
शीतल
embod
capitalists
पदक
पदचि
summ
शातिपरण
ककषाए
आहवान
मोडो
टरकटर
एडिसन
obsession
obscure
वयवसायिक
गजरना
लाइफ
असरदार
हकम
हकटर
replacing
बिताय
psycho
tennis
विलसन
सरचनाए
शासित
बिदओ
खिलवाड
पजीवादी
throws
escal
escaping
misinform
छतरी
सथितिया
cardiac
cardiov
portray
davin
davina
मातभमि
सॉयर
vacuum
फीत
सिखाओ
detectors
galile
donation
donate
errors
fairy
rainy
rainfall
##ika
परयोगशालाओ
parker
नविग
##echanging
डराइग
अशवत
सलाद
colorful
dinosaur
epiph
पटरिक
उतरत
तफानो
##टिनो
mobility
शॉवर
activated
activism
tradeoff
tradeoffs
irony
ironic
आपरशन
hosting
hostage
assumed
denying
foolish
कोरटिस
उदयगढ
terminated
नशडी
produces
रडिट
१००००
deserts
भतकाल
परोटोटाइप
murderer
247
rapist
सकॉटलड
discussed
discussions
courageous
midw
मटिस
suitcase
पछतावा
1986
ethics
लॉकर
शॉनः
##forced
inequ
##abbar
पारकिसस
mutual
इकॉनमी
algae
सलझाया
achievements
campaigns
associate
शिफट
accompany
इशमाएल
layers
willingness
links
titles
डायरी
बरटः
1990s
homophobia
routes
verge
verified
फाड
representing
bridgework
bobo
favel
मगफली
calculations
principal
liberation
grownups
डबब
नोवा
निगल
निगमो
लिपट
analyzing
novelty
bonus
ensuring
magnet
classrooms
tyres
डनमारक
revenues
##after
upsidedown
telomere
virtue
फरासिसी
bicycles
fifty
fifteen
wildfire
अटारकट
अकषम
blessings
दबाकर
कोलकाता
असवसथ
परोफाइल
नीलामी
robbery
investigating
defending
##एमः
commerce
bangles
nursing
undo
उगलिया
टलोमर
जबरदसती
दरशकः
दःखी
हिलाया
reveals
1960s
dresses
websites
translation
distracted
distractions
महादवीपीय
migrant
valleys
असहमति
barbec
austria
ruining
घाट
##haig
appearance
attempts
attempting
lamlam
ratio
गहयदध
झाक
निसदह
angels
franz
सरोतो
grassland
grassroots
बरसात
##नहीह
teenager
वकवर
वलफ
##लिगी
##अपनी
measuring
जागरक
graphs
settlements
demonstration
demonstrate
नारियल
नसलवाद
conclude
scenes
invisibility
परणालिया
akin
frogs
mimicking
आइसलड
गतवय
तातपरय
तारीफ
सिगन
तनखवाह
तराकी
chickens
containers
बलातकारी
गाठो
orphanages
matthew
matrix
casino
फडफ
बौछार
reverb
antonio
adopted
simplest
regarding
continuing
pillar
rushed
चालाकी
physician
नसख
1970
bathrooms
अहकार
डारसी
डारलिग
फफडो
butterfly
निरदशाक
परतिरोधी
auntie
cassander
pools
परपराओ
recruits
फायरमन
बझान
ninth
rogue
उछल
दासता
मजरिम
reinvent
priests
टरासमीटर
sacrific
jacobs
कधो
prophecy
kryptonian
girlfriends
transferred
pretending
subsid
उभरा
छापा
पगमबर
साधना
acquired
वयवसायो
electronics
observations
एगजाम
यनानी
सकोच
dispatch
anticipated
ethnosphere
gallons
मटरिकस
कलोनी
1950s
microscopic
hyperlink
इजिनियर
suspects
guaranteed
गबबारा
semiaut
बागलादश
carlyle
entertaining
लाइबररी
sirens
अकाउट
inherent
एकतरफा
downloaded
rebuilt
icu
crawl
crawling
restricted
territories
dominant
कॉरपोर
सापताहिक
convenience
attributes
exploit
behaviour
harsha
भटकना
करिपटन
करिपटोन
परिशरम
अनिशचितता
ownership
infantry
legitim
temptation
textbooks
360
fertility
ककीज
फाइबर
outlook
परतिदवद
postcard
counselor
renewed
vessels
busted
jinx
ठहराया
तितली
neutral
enabling
enabled
sponsor
evacuate
underestimate
underestimated
extraction
photographing
भडारण
बौदधिक
auction
catholic
longevity
लकीर
सधया
haunted
scotland
बीचोबीच
advisor
legislation
immunity
africanamericans
bosnia
gymn
julia
municip
rusty
ओकसिट
ठोकर
ढलान
बहरहाल
योरक
काउटर
##osaurs
glacier
मजबती
millennium
whispering
यथारथवादी
nonviolent
nonviolence
टॉलमी
डिटकटर
##onalds
समराट
कमपनिया
composition
override
मोहलल
catastrophe
कोरोनावायरस
कायदा
recipe
कारलससन
कारखानो
unstable
workshops
intersection
शरीलका
taiwan
motherfucker
steiners
philanthropy
neuroscientist
stereotypes
sapiens
ऐलफा
नासमझ
बलीग
परोडकट
album
intentions
persecution
expansion
carrier
पनडबबी
patriarch
treasury
रिवरब
nurture
macedonian
eagle
घोसल
चाइना
ठिकान
threem
shells
browser
grabbed
arthur
निवारक
बललबाजी
articulate
परोससर
membrane
juveniles
गरजएट
piano
veloc
##डबलय
काउसिल
sofa
comprehensive
दशमनो
carnival
voluntary
##communications
walshys
horizontal
acknowledging
enlightenment
adrenaline
aquifer
maureen
कबील
टलिफोन
नियामक
फिलाडलफिया
##ठारह
अपतटीय
chirping
trillions
unimag
adequate
सनातकोततर
सिथटिक
calamity
धारावाहिक
lifelong
सटरॉबरी
यगानडा
गदगदी
रिसपशन
mcdonalds
karlsson
shanghai
डिलीवरी
तदरसत
रिएकटर
रावण
रससियो
हमदरदी
livestock
antenna
गरभावसथा
imprison
सटपिड
conspiracy
फसफसात
फरनीचर
parasite
superhero
antarctica
parkinsons
exclaims
misunderstood
narayama
cocacola
मठभड
roosevelt
irresponsible
cotton
dionysus
dothraki
hometown
hilarious
kigali
netherlands
pseud
ptolemy
tyson
udhaig
औटिसटिक
खौफ
रझान
heathrow
asgeirsson
cholera
amaneh
plastics
twodegree
newcastle
underrepresented
##टोपलानकटन
infirmary
selfdriving
पदचिहन
misinformation
cardiovascular
अटारकटिका
करिपटोनियन
41
64
76
80s
92
a1
az
ary
bin
bally
bree
bah
baked
cres
cater
cease
cables
croc
dere
dess
dart
dough
dared
dances
dining
diction
eure
etern
ft
fib
fusion
feared
fagg
gg
gum
ginger
guru
hh
hint
hitch
hugg
hips
hiring
ib
jere
jum
jets
jup
jones
jung
javed
kin
kart
kep
kale
kipp
karen
lt
ling
lod
lass
lakes
lars
mast
mia
mcc
mature
mik
matsu
nate
nag
naught
nerves
olu
pc
pess
pots
packing
rushing
sid
sul
sri
sizes
signing
til
ties
tink
tune
t20
tamil
tipper
udo
vip
vood
vivid
vamp
wiz
wired
wats
witten
xray
zart
अडा
अकड
आड
आयन
आसथा
आचरण
इटल
ईगल
उष
उध
ऊर
ऎसी
एय
एना
एजी
ऐड
ओए
ओमर
ओलप
ओलड
कआ
कयक
कवत
कघी
खख
खति
खशक
खमब
गआ
गवन
गानो
गॉड
घनि
घडस
चय
चद
चरी
चहत
चको
चाप
चयाप
चडिया
छडा
छढी
छतो
छठी
छापन
जप
जवार
जजब
झम
झडो
झोक
झिझ
टार
टाप
टरो
टिकी
टढी
टरसट
ठस
डवल
डबन
डॉट
ढोन
ढोल
ढलन
ढलाई
तान
तसक
तततव
थप
थका
थकस
दीकषा
धमा
धोत
नत
नगा
नली
नाद
नरत
नरो
नजार
नोक
नसो
नराय
नवशी
पगा
पशी
पिशा
पिकन
पकतिया
पकाया
पमाना
फद
फोरट
बीक
भिख
मगी
मिकी
मइस
मिमो
यय
यारो
यारक
यवीसी
रई
रिम
रची
रगन
लल
लारा
लिकन
वदना
शटर
शकरा
शकतिया
सान
सियोल
हश
हसा
हगर
हकर
हाद
हवी
िक
२९
२६
३२
४५
५५
##lord
##loc
##lets
##lived
##liest
##ei
##di
##din
##rus
##rap
##rane
##uj
##uke
##uced
##iang
##iors
##iably
##iables
##iatr
##tim
##oly
##oak
##oided
##nie
##galy
##िहान
##नजर
##कद
##कह
##यमन
##यलर
##ोवा
##आह
##आश
##आदमी
##पाई
##ठन
##ठियो
##सका
##war
##wrestling
##ॉय
##ॉइट
##टको
##टकस
##kh
##kan
##kit
##kata
##cur
##cence
##cons
##conscious
##जती
##जियन
##जबत
##जजित
##वॉ
##वयो
##वकर
##वॉल
##वासतव
##गिया
##गका
##गजार
##गिज
##hu
##hill
##bons
##billy
##pound
##pool
##posed
##दस
##फय
##मथ
##मबल
##मथन
##ममति
##yon
##बि
##बास
##बिस
##बोल
##17
##डना
##डोन
##डाव
##चस
##fin
##fold
##ओन
##ओर
##हक
##होल
##खयक
##भयास
##णडर
##धव
##धियो
##धयन
##zlo
##उसक
##इडर
##इवट
##अन
##घटन
##je
##ॊग
thorn
theoret
##inent
##nders
##ndrome
##real
##याबी
todd
##ारिस
करगर
करणाम
करबियन
##orann
परज
परछ
परवास
परकरण
परखा
परयोजन
परसथान
औरयह
##educ
##otine
inad
infer
##isions
##नाहट
##aro
##armed
##oman
wholen
कोह
कोरल
होक
होमल
होमो
होलोव
कील
कीः
कीनया
##etal
आपएक
यहोवा
##icating
##icism
beers
beats
beams
beads
halt
##alg
##alus
##utta
कापी
##seco
##erelated
##storm
##ayel
##ालयो
dock
docking
सकिप
##entin
ston
stag
stinking
stares
##ातल
##ातिक
##ातमा
तमही
##योजक
##illiondollar
##urf
##urer
gov
ford
rewards
socks
soda
##ासर
##ासका
जादा
जाउगी
##ima
##imited
##ितिक
मझप
समत
समित
समपतति
समलग
shack
shea
shook
shaft
shuff
भीतरी
##गाडी
##amela
whatso
##राग
##राडो
##adic
##adab
ank
anes
anna
जोसफ
##ecd
##itha
##िरो
##ople
withstand
##thet
canal
##िसको
##chus
##chief
##tered
##लाया
##लाइल
seize
seism
seoul
कछक
चाहोगी
abol
abused
moz
moby
moaning
##anton
##antom
##cends
बहतही
ally
alley
मरस
मरोड
विच
विटा
विटन
विधा
विधान
सबतो
##gey
पहनो
रहाह
##ilizing
usa
लगवा
trist
tracy
बारद
तरता
मनसन
मनहट
मनचसटर
##ियता
##िययाह
##करताह
orbiting
यापन
याचना
justin
##ctic
##ulously
##aine
##andan
##नीति
alarms
albert
exit
exquis
outp
outlaw
outof
outdo
##किमो
deact
deeds
मिलिए
peach
##igan
##iggs
##uments
दोसता
##inder
upwards
अबतक
बचगी
##ected
beck
becket
##osing
##osoph
##लीस
teas
proverb
##ीकारो
कयोकी
##माई
##माकन
##ifact
##ifiable
कारलाइल
करतवयो
##apor
##गीर
ench
enters
enroll
बनाऊगा
बनावटी
माई
मागी
माईन
plug
जीरो
अनल
अनतत
अनतिक
अनमो
अनभाग
अनतिम
बदी
बदबद
बदनाम
spain
spinal
##elet
##elah
manila
हाटो
हागका
sheer
sheph
कहिए
##ortem
sahab
सरासर
अधयन
अधधयन
##दरित
कमारी
कमपास
##ivia
दरजा
दरबल
दरभावना
दरवयवहार
##agn
prone
prag
priceless
thinker
##astically
महशस
##ोटी
##resist
anyones
herc
इनफ
नाही
##कारय
मतको
सीसी
सीबी
सीएन
कसट
needless
रखिए
रखगी
coh
coated
coating
cocks
covid
पाऊगा
##idepress
backed
जरसी
पासवरड
clan
cloak
##reatening
unm
unload
unbear
lef
बताऊगी
compart
compressed
##ometric
##cile
##aksh
drunken
##feed
हरगिज
करताओ
उपकषित
उपकरम
जीवविजञान
qui
quo
quart
quiz
quentin
grip
graves
grapes
##ogged
भाष
overhead
##obe
##obs
लाघ
arc
arist
arsen
राशन
blas
blink
bliss
blanch
blih
रोई
रोकत
expend
बसमट
teller
मारथा
daylight
पीता
पीतल
बढाती
मानिए
मानवा
मानकीकत
आदिम
कपास
कपलर
कलर
कलॉ
कलडर
सनक
सनहरा
बनर
अलमारी
अलटोस
अललाह
guiding
poem
acres
acrome
startups
talented
##दधता
निहार
निबध
crum
cries
criter
disen
displace
disreg
##ीनस
निरजीव
##rians
##rients
लगाएग
scans
scars
underw
phantom
बाधन
बरल
बरगर
बरबर
बरखासत
##टाउन
##टाइल
##टाइटिस
##ensions
घरना
indo
indigen
carc
परतिश
helmet
##resses
prey
prefront
##ishment
जिनी
जिनपर
सपदन
बिदी
boot
interfer
interference
##िकाओ
खोई
marking
marian
marines
पडित
emission
बदलगा
बदलगी
पलटो
##िमम
##िमानी
##athe
wrist
विकिपी
##ellion
realise
##धारको
पराजित
पराइवट
strict
stratosphere
county
##velength
flank
floyd
floored
निकास
longr
longest
##onsider
decept
वयकती
description
पछगा
##जररत
synchron
syndrome
आसओ
आसचना
greatness
सहपा
सहमती
जनजातियो
वाः
owns
बीडी
सटक
सटडी
सटकस
waist
thoughtful
killers
pub
खलग
खलिहान
भगतना
##awed
##aware
foster
आयामो
डरपोक
glow
glam
glance
gloves
##rah
##redictable
insite
insign
famously
schm
अवरो
अवकाश
अवतरण
कारयवाहक
कारयसथल
leak
##pling
##places
attacking
खरपत
monument
involving
बरामद
बराउजर
##ibs
पारषण
finner
मजबरी
ओरिन
बहिन
बहिष
##blood
तालिका
##रमण
slipp
communist
20s
reliving
endure
endorse
foundations
warfare
highways
highquality
लोम
reconsider
powered
पिछड
medal
##इनरी
##बलम
मसो
मसाल
मसलन
repairs
##ocop
farming
उठत
preschool
सलट
सललर
पतता
पतरा
missions
oposs
swann
conservation
transactions
जातीय
विशववयापी
##दशो
##erto
imagining
मीलो
##ericain
नियत
headache
सतरीय
accused
waterways
##ahed
आरय
आरडर
जायज
bases
सपरको
सपरबग
hells
फलत
फलसवरप
##grand
##grimage
fourdegree
examining
सामानयता
metast
नौसनिक
artifact
##रसन
जिगर
tapping
##डोज
##ीरिग
password
confined
confusion
एलिययाह
चनिदा
टरिसट
secondhand
generously
1950
camels
रोकती
फसान
दगो
गिरान
कठपत
पशवरो
lighter
mori
morgan
अफरीकियो
charter
charco
millionaire
विसथापन
signe
गणसतर
bothers
पकडगा
speculation
निकलकर
cura
curves
visuals
खोजत
आशरित
##cov
लडकीः
रखाओ
extinct
publisher
##onto
##ontology
सौदो
retrie
launder
lara
corps
नीदर
नीरस
पनटस
deport
deported
मखौल
excites
excuses
pains
दिखाऊ
musician
parach
parks
sidewalk
जडता
जडना
महानगर
महानतम
मोहम
चिकनी
robe
demons
हलोरन
locals
locality
मशकिलो
बटआ
harms
harmed
computational
forecast
forefront
educators
लतफ
advise
##वनिया
followup
popped
researching
जीतता
subm
winners
यातराओ
चिकितसीय
चाउ
मालिश
पहचानता
उममीदो
हारपर
defines
अकयमन
maggie
classified
जनमजात
दवाइयो
steam
stealth
विजञानिक
proport
propriet
कमरशियल
पदावार
awfully
prompt
promoted
##हासपद
सदक
सदव
सदहासपद
बदलावो
##appropri
eskim
ageism
freely
valid
colored
damaged
treats
trem
trend
चिताओ
चिताए
breaker
breakdown
तलनातमक
डरावन
समरति
बढाएग
shareholders
उडगा
barks
पोटर
पोषित
कनमा
##shank
poses
brocc
sentenced
oneself
snare
sniff
slee
stephen
physiology
aha
fearless
tonys
labels
चितरा
मासप
doorstep
caves
चरवाह
biologically
copies
copied
२०२०
पकक
costa
बचाए
तजानिया
वसतगत
##iorate
absent
sisterinlaw
विदयालयो
silos
silently
कतजा
हसतमथन
##दयोगिकी
आतमिक
एसपर
एसकस
एसकिमो
flytr
पकषो
##portation
##portra
इटरन
समानभति
files
filters
filthy
stressed
चपट
रकगी
shortest
microw
ava
avoided
पालक
selfportra
postp
परदरशनो
sells
arranging
मकदम
मकअप
मकखिया
मतयदर
2019
thirds
malignant
लालसा
revati
वयवहारिक
autumn
geys
सातवी
funded
fundra
जकब
uhm
hospitality
beds
bedrock
eighth
eighty
##ussani
tariq
rocky
वारट
##uctions
antis
antidepress
खोलत
लौह
परतीको
mastery
धरव
सिदधानतो
neurological
identification
roadblock
वयवसथाए
pressures
सभालना
personalized
judic
operator
इचछाओ
shutting
cleaned
professors
रोबोटिक
परयावरणीय
resulted
ततरजञान
नकसानदायक
risked
hybr
pathways
दबई
उपलबदध
multid
limbs
सधारना
banker
डॉग
constit
salv
relev
releases
telecommunications
teleportation
##हमह
affirm
##pora
troubling
troubles
screech
accounting
lifting
सविधान
189
18th
सफलताए
scram
admission
छातरवतति
फलाया
crypt
किनही
banned
civilized
मचान
रकतचाप
combining
अभिभत
##उनड
हिससदारी
sensing
sensation
favorites
सकरटरी
bullying
bullied
##समय
searches
निषिदध
शीसट
रीट
कौमार
हिमशल
freedoms
ladder
emerges
recognizing
recognizes
magicians
रिपोरटो
सटीवन
torch
launches
nonst
सभाला
२००९
enemys
archive
experimental
variable
variables
लाइव
रणभमि
##oids
replied
psychologists
psychiatr
suscept
##gener
packaging
floats
अमीरो
यरोपियन
texts
हिलत
सचनाए
मकाम
volumes
मातस
cybor
ranks
मसीहा
फीलड
शाबाश
heroin
सिखाए
suggestions
##विदयालयो
अनादर
अनावशयक
सौरसल
reacting
शरवाती
donated
donkey
luci
rainbow
strategic
अभियातरिक
##coming
competing
competent
benefited
strengthening
catches
बधको
बधवार
positively
घमडी
सघटन
सविधाजनक
ओकआर
लिआ
लिफा
colorado
dinosaurs
किशती
साइज
moderate
परभार
मनोचिकितसक
necessity
तफानी
##worthy
कीजिएगा
measurements
शॉशक
weaker
परतिबिब
ramas
mechanically
shawshank
roller
दौडना
unlimited
activation
arabia
बाधना
चनावो
सकाउटस
राजनताओ
राजनितिक
गिराया
चादनी
ironworks
आपरवासियो
marched
##bbins
teachings
employer
terminal
toughest
नशडियो
producer
producers
repeating
चिनता
##मबना
अपरभाव
हाईडर
डाटाबस
##पलट
initiating
queue
शकरगजार
##पराइज
captivity
टनिस
टनसी
मटटी
foreigners
ambush
हसतातरण
bells
primitive
preventable
confirms
शिषय
laszlo
influences
entrepreneurship
credibility
pilgrimage
##आपको
garment
डायल
clocks
consciously
1990
announcing
कौशलय
interviewing
kenema
रिसपटर
##scale
लमबाई
screening
sustaining
mixt
बासरी
बलकमल
टरनर
calculated
nutrients
चमकता
समनथा
triage
wednes
साकषय
साकषी
उतसकता
melan
melanin
analyst
शिकषारथ
boundary
crackling
winterfell
magnificent
bacterial
एजसियो
दोहराए
बाटत
##quitous
hallorann
dryer
चरणो
धमकत
सिलवर
cruc
कठोरता
dividends
उभरता
##ullying
##headed
##produ
suspension
punished
कठिनाइया
investigated
infrastructures
witches
shocks
manson
salesman
टलोमरज
injecting
priorities
quarant
कथाओ
slightest
collaborate
industrialized
augmented
मोरस
migrated
tumors
rebellion
237
candle
##विनदा
##एचः
driverless
attempted
lamericain
उमदा
वगरा
##घातक
assembled
discarded
पवितरता
altos
hooker
झलनी
फराक
सगरोध
कालीन
triggers
describing
junge
spinosaur
backgrounds
अरथशासतरियो
broader
एरिका
referring
concluded
कषतिगरसत
remotely
सतनपान
counteract
mimics
धवसत
injustices
acceleration
embraced
excluded
exclusively
महादवीपो
athens
सभाषण
remarkably
परवतारो
limitless
शौचालयो
आरोपो
हाइपो
qualify
attending
attendance
inventor
##graduate
confrontation
burdens
hillbilly
kryptons
डिसटर
##friendly
आपदाओ
simpler
continuously
cartoonist
फयरी
chopart
chopper
आनवशिकी
complaining
surveyed
leslie
watts
एकाएक
एकागरता
अतयावशयक
holloway
टकनोलोजी
gaining
hugs
owes
tsi
फफड
##wait
poisoned
disasters
अभिवयकत
१९९०
administrators
cosmic
mummy
wiret
करसिया
tribute
अधयापको
शरषठतम
मौजदगी
recruited
fitzpatricks
aimed
झपकत
नयकसल
बझकर
मियामी
thumbwrestling
dissolved
remittance
adventures
dufayel
kruger
परातन
इसलामी
shirtless
surgeons
minorities
protests
frequency
जमानत
beasts
विडमबना
##करनक
उपाधयकष
margins
marginal
opensource
prophets
mmmhmm
इडियन
##चाहत
savage
savior
अगठबाजी
गतिविधिया
अवधारणाओ
aerial
dumping
nicer
पगला
लचीली
converted
##ipedia
acquire
acquaint
निभाई
transmitted
transmitter
गोलाबारी
disturbing
disturbed
hydrogen
##rophobic
astonished
prosperous
गवाहो
लाईट
dispos
occupied
negotiations
ethnicity
jammed
डटकर
##गनाइजशन
thirtythree
deployment
guidelines
irrational
panties
voters
tolerate
perceived
confirmation
rioters
अछत
बयरो
मयजियम
रवती
हावरड
inherit
##charged
cheerle
labeled
palestine
अपरिचित
अपरिहार
kuwait
vibrant
वततचितर
दरदरशिता
नाचत
मोहबबत
mantra
एथस
##eza
cherry
cherno
texting
चारागाह
favourite
repeatedly
ceremon
obligation
पोरटल
stamps
buffet
अवयवसथा
montreal
fungus
multiplication
multiplayer
ducks
तडप
काफरस
stanford
परतयाशा
recycle
postcards
altruistic
bulb
dictator
dictators
##jacket
कमयनिटी
रपातरित
resettle
flourish
burglar
purchase
announcement
giussani
kolkata
pouring
tigers
कटोरा
सशलषित
meltdown
selves
मानयताओ
accumulating
cambodian
delighted
reproduce
nerd
nerdy
choking
unpredictable
रोगाणओ
मजबानी
await
hydrant
biochem
iconic
mourn
sacked
vaginal
ऑकसफोरड
चिरसथायी
जफरसन
टॉलजन
भितति
conceived
सनसनी
prestigious
kidnapped
deteriorate
immersed
फलाईटरप
extremes
catastroph
jefferson
ruling
जयोकी
हपटाइटिस
किरदार
chewing
नानाजी
leverage
expeditions
marvelous
1930s
महाकायता
महाकावय
facilitate
revolutions
penetration
buddhist
dubai
hesitate
yields
एनीमशन
जियग
दिसमबर
rewind
मरदानगी
unnecess
scavs
hummingbird
breeding
doubts
potatoes
लिहाजा
trolley
मितराविनदा
ventilation
हाइपरलिक
उदघोषकः
ऑपटिकल
rejuvenation
जहरीला
फकीर
लारस
शफला
stumbled
alaska
spacetime
सरवाधिक
residual
mindwandering
forensic
controversial
georg
मधमकखी
crystal
खटखटाया
tshirts
wonders
##बोरग
lipids
abracadab
wormhole
शरदधाजलि
coincidence
graffiti
निरवाचित
prejudice
टरडमिल
आईसीओ
temporarily
irrele
initiative
rooftops
fountain
iyeza
mithrav
picn
wikipedia
योनि
pranav
cluster
unemployment
सहलियत
caretaker
फसफसा
suburbs
turbulence
atmospheric
bengta
गटठर
triangles
inevitably
मआवजा
bachel
bernard
zealand
चिगारी
चिडच
झनझ
##help
उसताद
rehears
deemed
deforestation
सरखण
सविटजरलड
browse
राषटरीयता
अलझाय
disadvant
disrespect
solarelectrified
dataset
अगनिशमन
supermarket
भोजनालय
microphone
sanjay
fluctuations
pneumonia
aesthetic
cumulative
jordan
mongol
ubiquitous
इयजा
चगः
ममबई
शशश
सयाही
सियरा
ishmael
कीटनाशक
gossip
molasses
alabama
माबाप
महफज
dravidian
newcomers
fuzzy
##ोसॉरस
handcuff
सिगापर
विसमयकारी
नकशकदम
diaspora
एसबसटस
blackmail
धरमनिरपकष
davinia
फडफडा
legitimacy
gymnosoph
ओकसिटोसिन
unimaginable
ballys
dessert
dictionary
eureka
eternity
kepler
pessim
voodoo
watson
ओलपिक
कयकसो
घडसवार
तसकरी
नरायमा
पिशाच
पिकनिक
मिमोसा
शकराण
##ranean
##आशचरय
करणामय
wholeness
होमलड
whatsoever
मनहटटन
दोसताना
अनततः
हागकाग
shephelah
covid19
acromegaly
indigenous
prefrontal
विकिपीडिया
finnerty
बहिषकत
charcoal
##appropriate
broccoli
flytrap
कौमारय
wednesday
spinosaurus
abracadabra
2nd
39
4am
59
57
68
62
650
73
750
86
830
94
96
98
agh
aah
bm
bc
bent
bip
cc
cau
cud
cree
cens
caut
cabb
dor
dun
dab
dink
dors
dual
diving
dudes
danton
dibs
fart
fitted
founder
gm
gad
gau
gab
gel
gib
gaut
gears
g20
hight
higgs
iq
ire
icy
jing
jas
jill
jams
jigg
km
kp
ky
ket
kits
kicks
kham
kung
lh
lan
lur
lec
lace
leah
linking
lime
linc
liters
mou
mact
mild
mba
moneys
ns
nair
nago
nba
nailed
odys
pau
pals
pope
panc
pete
pension
pistol
rut
rug
rides
sow
sain
sie
sial
sigh
sars
sings
sank
sne
sins
tam
tus
troy
ticking
tapes
ull
vs
vod
voy
vicious
wil
wip
wakes
wished
wrest
wils
wretch
yu
zimb
अमन
अदश
अदय
अजान
अठारह
आट
आति
आतर
आनी
आजा
आयोग
आवर
आटा
आऊगी
आजीव
इतर
ईटो
उमी
ऊन
ऍफ
एलब
एमस
एसटट
ऐश
ऐपस
ऐबलस
ऑस
ओन
ओबर
औपन
कति
कवी
कटनर
कडोम
खमी
खिता
खिसक
गडा
गाली
गमस
गिना
गपश
गपता
घिरी
चत
चच
चनी
चचा
चिथ
चकरो
चमम
चखन
चभन
छपान
जए
जिया
जली
जकस
जहन
जतन
झर
झकार
झकता
झलन
टच
टडी
टलिस
डबा
ढला
ढकल
तिम
तवरण
तखता
तारकिक
थिक
थयो
थरी
थली
दाना
दाया
दिआ
धरा
ननो
नोर
नहर
पब
पण
पियो
पिला
पकारा
फि
फिन
फको
फाई
फरस
फीर
फकता
फजली
फोरड
फिनर
फरसट
फिदा
फटोपलानकटन
बिकन
भि
भगा
भोग
भोर
भदद
मडी
मिग
माली
मयन
मथन
मएक
मणड
मोनो
यर
यल
यश
रश
रकी
रसाय
रतन
रबड
रनन
लभ
लोन
लिसट
लिटल
लसटर
लिली
लहज
लॊग
वज
वड
वला
वडर
वॉन
वचारिक
शाह
शकस
शाला
शिट
सठ
सछ
सगी
सॉल
सधि
सजो
हअ
हगा
हयर
हिगस
२८
२७
४८
४२
६१
६५
८५
##los
##lical
##liter
##ais
##aism
##vo
##van
##eu
##eight
##dad
##dest
##dled
##dney
##rot
##rising
##uity
##iene
##ioma
##town
##tys
##tons
##tub
##ois
##overs
##okes
##nan
##nity
##nys
##nament
##gg
##gon
##gies
##gars
##giene
##mal
##meter
##metic
##िटर
##िबर
##तित
##तमा
##तहल
##नॉ
##नियो
##नसट
##नकरा
##कछ
##कयो
##काह
##कमा
##कडी
##कॉपटर
##यहा
##ोद
##ोडा
##आग
##आए
##आलिक
##पम
##पनी
##ठो
##सब
##सभी
##समी
##सतान
##सबरग
##size
##sky
##will
##wall
##with
##wire
##witz
##ॉफट
##टिम
##टियन
##ku
##kill
##ाशा
##car
##cam
##cable
##जव
##जम
##जड
##जमा
##जजो
##वव
##वटर
##वपरण
##वसन
##वयकति
##विरोध
##गारी
##गलो
##गारो
##ho
##hm
##hop
##hun
##hink
##but
##bag
##bast
##bish
##bines
##border
##bullying
##pid
##page
##दरा
##दखा
##ौक
##ौनो
##ौहार
##ौकिक
##मौ
##मिस
##मचछ
##मिश
##मदी
##मबा
##मिति
##मटिक
##yas
##ईसी
##बव
##बढ
##बिक
##बाह
##बका
##बदी
##बताओ
##10
##चात
##चिन
##चको
##चयर
##fol
##five
##fru
##fashion
##हह
##खोर
##खिला
##खाना
##भो
##भद
##भोग
##एः
##एलए
##qaeda
##शः
##शियम
##धया
##धयाप
##उटन
##xy
##इसक
##अमर
##अानन
##घा
##घम
##छित
##jar
##jus
##jorn
##52
theft
##inous
##ato
##atile
##atts
##ndez
##यामी
toe
towers
##ारभ
##esa
करप
करमो
करिब
##तापरण
##orus
##orah
परॉ
परकर
पराव
परवर
परसस
परोगरा
औरव
isn
isaiah
##edy
##otes
##otle
##otch
##otrans
inappropriate
##isk
##isc
##isation
##हीरो
oft
किक
किधर
##aris
##arthy
##omin
कीडा
weeds
##level
##icem
##icable
bef
beet
beak
belle
beij
haul
haunt
##alyp
##alysis
##alaza
##uty
##utors
##िएल
काढ
कायाप
##िकरण
##िकरमण
##seen
##stad
ons
onetime
इसाइट
##ayed
doyle
##acco
##enter
##idt
stur
stall
stew
##ातम
heck
heated
hendry
##योन
##योजना
##illac
उसप
gob
goats
forci
##रीज
reper
reilly
recharge
sore
sobs
##ासतर
##िलक
##िलो
##िलिन
##ियाना
meets
जाई
जागा
जागन
अपकषित
साड
साच
साशा
सादगी
साकतिक
##irs
समद
समपनन
समापति
समीप
shred
shave
shaking
shipped
उनमलन
रहिए
रहोगी
##गाई
##amo
##राव
##ador
anne
जोनस
जोअानन
##echn
##eccable
##opl
##opp
##opters
##think
##thold
cancel
cancelled
##aun
nev
##िसफ
##िसमत
asy
वहिडी
chases
##तिफा
##rocl
##robbins
दखगी
amit
amster
##tering
##वाहा
##ोगय
segreg
sebast
mock
mocking
allys
allah
allright
मरो
मरता
मरथा
worms
frown
frail
framed
विव
विघटन
करनक
करनस
thereafter
हीन
##कीसवी
##gelein
kneel
##साइड
tru
trave
trimes
##ppers
बारबक
तरन
तरसत
तरटियो
कियाः
likewise
gettin
जबो
##oln
##olar
##olas
##ulin
##unks
alm
alignment
aliens
alqaeda
##ायरम
outwe
outfits
outperform
depl
debr
debb
deaf
degener
congo
मिलमन
peas
peac
peps
##igs
##igent
##induced
##abwe
##abha
##abalaza
upgrade
uprising
whorem
बचकाना
##oses
##osene
tease
##माग
##माथ
कारी
कारब
काराव
##परह
##परवाही
##गीय
enzy
माए
मागो
माइल
plun
pluck
plural
plots
##ोननति
जीः
कहाः
अनि
अनर
अनध
अनवाशिक
बदत
spher
spying
spouse
spoon
spiders
##elt
##elike
manic
manns
manmade
maneu
सोय
सोसाइ
वालशी
timeline
##कषमता
कहोग
कहनी
सरप
सरगो
सरकिट
rightful
righteous
##दरस
सवलीन
पताई
##ivals
दरो
##agogue
promet
जिसपर
brink
braun
फिरभी
पहलियो
शरिल
शरमी
##ोटो
herd
इनदर
नाई
नाडी
नाइस
नाचन
सोचगा
मतम
मतदाताओ
सीसा
fegelein
कसबो
कसटम
needing
lookout
##रोम
intel
intric
intends
पाकर
पाइल
##erys
backward
##embers
##emakers
eva
evolves
पासता
hass
साली
clap
clash
cloning
unin
uncont
unidentified
aged
agerelated
चील
leopard
worldview
compelled
##ometer
विशदध
उपज
उपहास
quad
goodwill
पिड
twink
twisted
परिधान
परिपकष
workplaces
gruel
##ogens
##ogging
perse
perry
overhear
overweight
सचाई
लाश
लाटरी
लापरवाही
arith
arav
arctic
##angs
सबसटियन
newest
राबरट
अससी
असखय
असबली
असनिक
रोय
रोती
रोशन
रोजर
रोलर
रोजरस
##टीग
exported
मारोग
मारगरट
##ickers
पीए
पीढिया
पीएचडी
बढई
बढिए
बढाय
बढगी
reserved
reservation
resonate
मानवश
माननीय
मानदडो
##assing
कपस
कलकलस
##ोलिक
दशमनी
दिखानी
##विटज
सनटिनो
अलो
अलबामा
अलासका
guill
सथगित
##चारज
firstgeneration
गरद
acron
##berty
निदा
crow
crude
disgr
disney
disabilities
discharge
betting
mug
निरज
##rias
##rium
जलम
जलमारग
scann
scares
impeccable
बाडी
पहचता
बरौन
बरकिग
बरनस
advers
indef
indicate
पसट
carver
carpet
##भावान
परतिमान
परतिभागियो
परतिभावान
helm
##वादियो
commons
committing
##मनस
boots
boko
interf
interior
intermedi
interconnect
##िकाश
##कसटरा
खोदना
marcus
marina
embody
emmet
##ateral
humidity
मददनजर
remorse
secured
वरड
वरदान
##ignon
##avan
##avis
##rence
##यीकरण
##centric
परागण
strips
##issy
counted
##velope
fling
flame
flipped
अलगोर
smyth
afterward
छोडगा
छोडनी
##शीय
##orship
अपनात
वयय
deser
descent
desicc
descends
बलली
बलाती
बलकारड
##बीस
खदान
खदको
पछी
sydney
सनाया
सनाती
homeown
greatgrand
अतिकरमण
सहली
जनिस
उदो
उदयान
mao
mahar
mapping
बीटा
बीसट
सटो
सटच
सटलाइट
सटिगस
##intu
##िटिड
persia
मलहम
मलकॉ
##ामडल
puerto
puberty
भगत
surplus
##iana
धनय
##week
humanitarian
##forms
fond
kidney
चलाए
glazing
insurg
insula
insulin
lasted
schist
ताक
तादाद
leaks
##plate
mines
खरबो
monst
monaster
monrov
invites
oldfashion
बरागा
serial
servers
seroton
poland
polish
turner
simulations
simulate
पारसल
पारटियो
courty
डालिए
डालोग
डालिय
finances
बडबडा
##बदो
मजदर
##blings
##यापन
waitress
तालमल
ताललक
slum
slipped
अफयर
किससा
परशसको
relation
endea
endlessly
ओहो
##यनस
परववत
founders
technician
warheads
##बाबव
recreate
बोलट
imported
systematic
meditate
collision
supper
supporters
##ापतय
repay
reply
टीः
उठकर
उठाती
अभिल
hull
huang
prescriptions
handker
सलह
पतग
पततिया
misses
swamp
swarm
consp
transaction
विशवसत
##cony
problematic
assured
sorrow
##धनष
नियकत
##िताभ
सतोष
##पीडी
##पीएस
accus
accra
##ancies
waterfront
bret
आरोगय
basics
baskin
entity
bestse
namely
सपरहीरो
फलप
सखती
सखाना
लीए
लीजा
examined
गोबर
गोशत
metro
##धानिक
सिविल
सिआलिक
##ाइए
##ाइयो
monthold
अतरविरोध
complained
confessions
एलक
एलिव
एलविस
गरीयर
##ergy
टरसा
टरबा
टरडिग
परोब
परोमथ
possession
सतरिया
companion
companys
ski
skins
skirt
1900
eyew
heartbreak
heartbreaking
watches
cambr
setback
##मलय
##वरतनीय
questioned
गिरत
##oster
तकनीशियन
charming
charging
charitable
developers
पाचन
पाचवा
proton
protons
कयॊ
कयरा
फरती
फरिश
फरासी
फरबदल
आईसीय
reductions
पकडत
निकलती
visions
##ifications
explains
exploded
सौपन
सौमय
reads
rethink
परमिट
detach
detained
larges
regime
कलपनाओ
पनप
पनना
पनरत
पननो
पनरम
depress
विशषतः
योजनाबदध
नजरिए
नजरियो
सकषमजव
बोको
दिखावा
parag
delete
जडत
महानता
traitors
मोरी
मोबी
मोचन
मोमब
अमिताभ
robin
बटिया
##retion
##retches
restored
restrain
वयापकता
जिसमानी
haram
##सटड
##सटार
वासतविकताओ
वीजा
आशाए
भजग
clearing
बलाए
bloodstream
populated
निकालग
जीतग
जीतना
जीतगा
subsequ
winters
सफलताओ
कॉलर
patrol
खासियत
चाच
##करमिक
माफिया
महाशय
महाशकति
अकरा
classifier
steering
stevens
apu
##inson
खशहाली
processed
सदभावना
chee
honks
dealt
testify
मशाल
sixty
##fund
shoel
shoots
sorted
एमआरआई
उलमन
##bras
##brush
succ
कसाई
अनसची
दरदशा
##राबदी
चिताजनक
जिमबाबव
##eneg
समरथित
समरपता
अदाल
खाए
बढाओ
बढाए
villagers
windmill
उडत
उडानो
barrels
##ushi
कनदरीय
##shar
typing
इलाका
devised
hospice
milest
brogd
cultivate
sneak
sneaking
supports
raj
मखयमतरी
##बोय
##apeut
चितरकार
biologist
biologists
copper
##cedes
पछाड
उततरदाय
costing
diaper
hitman
cannon
आरथर
calib
##सपस
सगध
घटनाय
frey
absor
वायदा
millman
कतयो
कतजञ
projectile
survives
surviving
मशीनरी
आतमबोध
programmed
##ographics
बॉलीवड
provoke
बचचाः
poorer
scientifically
खीचती
मडला
##फाश
निशचितता
पकषपाती
bats
inclined
inclusion
परतिकल
destruct
इटरकटिव
sunita
sunrise
दाग
दाखिला
5050
रकखम
shortcut
philist
hunted
वकतवय
पालना
##aneous
daughterinlaw
selfs
selfhelp
posting
postsecret
approve
northwest
लमह
normality
मॉड
##ausible
immaterial
गोलीबारी
uhoh
चौडी
servant
परतिकरियाशील
bedside
eightyearold
आकारो
discoveries
##हनही
encodes
viewpoint
मदबदधि
पातरो
antthony
आनदोलनो
मधर
considerably
गोलडन
विशालता
टाइसन
दौडा
nearchus
उठाएग
पहनती
हथकडी
receiver
neurotrans
microc
microseco
तयौहार
recorder
birthplace
favors
judaism
opera
operational
slowing
##sylv
##लकिन
जटिलताओ
पसतिका
reflex
उततराधिक
रिकति
hygiene
pathway
pathogens
दबात
सारवजान
भागयवश
multitas
richest
##annys
फटपा
कोडिग
performer
responsibly
चोदा
##heus
##hehe
darker
salam
wishin
wishes
civility
##पटरा
motive
motions
सजावट
unfamil
supposedly
186
##cla
##cloud
shooter
toolkit
अनमानित
violin
violation
सरवनाश
admin
urdu
affecting
predators
predicting
terrifying
masses
massage
respectful
banner
nationality
optical
पाठको
हथियान
##उनह
sanct
उपलबधता
neighbours
mathare
कमपटर
कमपयटिग
essay
essays
bullies
mirac
गसटरो
fixing
searchable
worthiness
turbines
hairs
centered
रीड
beginnings
mercedes
samuel
summar
शातिपरिय
cement
fitness
कौआ
कौतहल
ridge
चिपच
चिपकान
emergencies
nuke
चढना
हनन
हनदरी
##igrade
furious
धरमो
गजरी
२००३
२००१
inspires
पहाडियो
##boards
असरकषा
saddle
छिपी
बगटा
रणदव
##alypt
##alyzed
replies
replicate
बिताता
psychiatric
dominating
नागरिकता
packets
शासक
starks
starboard
sarus
खिलान
खिलौनो
सझाया
सटरल
chemo
textile
हिलन
हिलता
हिलान
मकसिकन
##शवरवाद
cardboard
portland
portfol
volt
volume
##पोरटशन
dangerously
jumps
ranking
ranadev
##cycle
आतमाए
शाफट
हममम
reactive
चिललाया
bottles
donald
fairness
rainforest
पढाता
मितरता
##comput
competitors
गरवित
विसतारित
strengths
strengthen
नवमबर
separating
खातो
बिसकट
रोमाचित
consumed
अशाति
घमती
सघट
सघटक
angles
apartments
140
cofounded
accordion
arresting
blinded
bald
balcony
sectors
गीजर
interactive
जलाया
दादीमा
साइकिलो
पलासमा
captains
गारजियन
कराए
कराता
stripped
mechanics
shawl
safest
correl
double0
diagrams
गिराना
therapeut
बनियाद
ministers
110
नरसिग
नरसहार
##balls
hostile
denial
denied
ननसी
कोरोन
२०१७
employed
employers
availability
tougher
नवीकरण
चिनहित
चिनतित
17th
अपरवासी
अपरासगिक
अनपसथिति
हाईसकल
birthdays
13th
वबसा
initiate
technologists
kaijus
tourism
कशमीर
गमभीर
परोटॉन
capturing
joyful
characteristic
भिननता
stickers
discussing
efficacy
चटकी
चटकल
रसीद
contributor
contributing
मीटरस
1980
avoidance
टागो
ineffective
ashore
ambitions
सचीबदध
correctness
166
losses
mutters
इकविटी
इककीसवी
कवरज
टलीपोरटशन
branding
associates
laborers
lasers
petition
diagnost
membership
निपटा
अधयकषता
subjective
हिदी
##महोल
अवसथाओ
1994
निराशावादी
verne
लसजलो
opposition
representation
representative
bhan
bhai
बासकिन
मगनी
पररणादायक
loading
smiley
calcutta
करानति
insecure
liberate
liberated
liberty
grownup
चालकहीन
इलकटरिक
इलकटरोड
डबकी
दातो
##ौलत
feminist
females
feminine
romilly
alphab
बीजिग
परिसथितिया
pounding
melting
melody
declined
algorithmic
randomly
mentions
तगडा
पलाट
पलावक
##ollect
cracked
typh
अवशो
आविषकारक
आविषकारो
एजलस
एजिलस
झटको
दोहराता
hypocr
परयव
उतारन
contractor
virtuous
snowcat
घमाओ
सिलक
सफरति
##इएज
knocks
spokes
cruise
emailed
automate
automob
automatic
automatically
bowling
उभरन
कॉरटकस
##mitters
debates
कारटनिसटो
clinics
suspic
suspend
आलिगन
कडिलक
चमडी
लबादा
कोलरा
shouted
विफलताओ
असवीकति
resisted
robbed
senile
senator
uncond
jeopard
आवग
एटीबॉ
injections
brightest
उपनगरो
perceptual
swords
छायादार
सगरहण
##orescent
flags
collaborating
1968
maintained
ऑफिसर
volunteered
अनाथालयो
rahuls
kilos
परचारक
फिलिपीस
हारमोनस
reflecting
yellowjacket
rico
बलबरी
शयरधारको
rebec
commanderinch
sync
rukh
##बदधता
परदाफाश
sharon
succeeded
harvesting
गनदा
गनगना
झाडियो
परकटिस
isolate
exhilar
discretion
substitution
holoc
tightly
नरभ
रजरो
रजिसटर
रोटिया
विदयमान
altitude
grasslands
चमतकारिक
हननाः
##onomous
measurable
विधयक
विधवस
पतरकारो
घसना
selective
byebye
flatten
frog
jaya
louder
mimosa
गतिरोध
rejection
exchanged
accelerated
accelerating
सटारबोरड
attractive
टीकाकरण
ridiculed
revealing
janice
##handed
bonded
mmhm
matty
आलोचक
टराइएज
applying
folds
folding
attendant
inventors
policeman
वशयाए
wheelchair
documenting
auguste
casinos
squealing
width
ओवरराइड
ओवरडोज
पिलस
फलोयड
साइटो
drifted
बरनदन
बरनारड
accurately
continuum
congratulate
धडक
मडलिन
##िबधीय
सथानातरण
floods
astronomer
ओलिम
नसखा
नापा
पोलिस
पोलिओ
##peace
##people
rewarding
rewarded
अनरपता
intrud
metaphors
survivor
requirements
हहयस
chaotic
विवाहित
museums
बलॉको
परोपकारिता
illnesses
मचछरदान
hobbies
iii
javel
jersey
wireless
आकना
फोरस
पहनावा
commentary
disruptive
sandwiches
गफाओ
हताहत
##विलियमस
##balance
किरणो
exposing
flowering
explosive
पकजिग
माइकरोवव
ninja
paxton
pursuit
आवासीय
छडछा
##दियाह
##एलः
अनवषक
scaling
desperation
illustration
illustrates
tablet
पातरता
sophie
flashes
मसकराना
breasts
breastfeed
circular
circulation
इलकटरॉनिकस
दाहिनी
cuban
rigid
rigged
ऊगली
ढालन
पावर
##िआनि
frustration
prostitution
sucked
drowning
eliminated
हाथीदात
हालातो
constructive
एलिजाबथः
aerody
derive
diesel
ukrain
wicked
उदधत
उदधरण
##जाइम
firmly
phenomena
बायोम
गोलाकार
hydro
racial
खराबी
नगदी
फॉरमयला
brutality
पिघला
cadet
cadillac
झकना
तीरथ
पिकचर
वसटास
inhales
बाइबिल
helicopters
explorers
corona
इजिनीरिग
merchants
irrigation
flexibly
rabbi
नियोजन
weighed
shields
permanently
पटरोलियम
analogies
skeletal
partnerships
lumps
##करसकत
homelessness
जिदगिया
बालकनी
अपरिवरतनीय
argentinian
फोटोगराफरो
माइकरोसॉफट
eclips
icos
mitig
tagged
tastes
vitamin
घबराओ
पसीन
हितो
stretched
lieden
##aggert
अलपकालिक
households
मोहिनी
infinitely
establishment
fulfill
fulfilled
verte
घबरात
झगगी
झगडा
झगगियो
हलीकॉपटर
toilets
##etti
विनियमित
buddies
squadron
overwhelmingly
वाणिजय
परारमभिक
kerosene
tetra
अजय
जमीनी
पोरटलड
फासट
##vasive
होशियारी
solely
suffoc
yearolds
appealing
buffal
ideology
regulator
tempted
cyberbullying
fertil
कथानक
कथोलिक
गटसः
घोटाल
दिनाक
परासगिकता
shamans
असमभव
परतिदवदी
reconcile
dmca
klaus
santa
santino
wandered
गौतम
टकरान
तितलियो
पोरक
मदरण
##ochrom
stunning
anthropology
anthropologist
तरटिहीन
enlightened
sponsored
cocktail
flourishing
publishers
bankruptcy
bolt
cathed
diverted
echoing
giants
germans
ipod
katja
railways
नपकिन
सशलषण
haunting
altering
spiderman
scotty
removal
descendants
##control
टरॉय
pennies
pennsylv
weaknesses
nuna
sinks
ठोडी
stimulate
जावद
aspirations
सीडीसी
परतगाल
capitan
deprived
deprivation
trajectories
सातवना
hydrants
portugal
exhibit
discourse
substantially
intimidating
ingredient
namaste
vestas
जरीए
धाराओ
फसाया
भिततिया
शतानो
हिरन
grieving
##मरजसी
prestige
परामरशदाता
persuade
genuinely
morphine
deterrent
condemned
mouthparts
तातकालिकता
discipline
diplomatic
ranked
##risk
##passed
rehabilit
कारखाना
हाइडरोजन
workshop
motherfuckers
mercury
neuroscientists
atheism
rackham
अनीशवरवाद
शवसन
सजीदा
##panied
##poses
##मणडल
towel
समभवतः
amplify
orientation
manipulated
राइफल
वाटसन
परमपराओ
मोमबतती
subtit
potato
thrusters
लिहाज
casualties
cosmos
pioneer
porch
अहाब
घिनौना
सममोहन
anomal
anomaly
seamlessly
अनशासन
कहलाता
बरफीली
inspector
memorial
antibody
digitally
सॉसज
photosynthes
ignorant
ignorance
दफनाया
टिपपणिया
टिपपणियो
बरोजगार
बरोजगारी
tweeting
lannisters
mattress
pixels
vendor
zombie
कवारटर
चिमनी
पादरी
फॉकस
##धवनि
परितयाग
परायः
inhibit
हाजिर
कामकाजी
sundays
मानचितरण
mundane
adapted
apocalyp
sentimental
biotechn
वयाकलता
लिबरटी
episode
michele
टरमिनल
recycled
meritocracy
bureaucr
livelihoods
biblical
erupting
gwynne
jeez
आरकटिक
ऑपरटर
चतनयता
हिनद
कोलोराडो
stalin
grinding
सपिनोसॉरस
miniature
repetition
waltz
firefighter
gargantua
enslaved
mathematicians
astronomers
recruitment
यथासथिति
दिवालियापन
adolescents
incorporating
prescribed
sincerely
fecal
sasha
wenck
yoga
ओडिसी
चमबकीय
नितब
##minded
##जिटिव
परकषपवकर
एकसपो
थायराइड
shaky
tropical
lobby
सरवसममति
##सतरागार
उपजाऊ
quexo
grumpy
grapefru
कलोनिग
अलपसखयक
impulse
##टाइम
symmetry
ताइवान
relativity
conservative
entitled
चिकितसालय
immortal
digestive
परौदयोगिकिया
सिलिकॉन
prioritize
हॉसपिटल
pyramid
krishna
reconstructed
रढिवादी
fmri
gaze
raptor
यासीन
लिटिल
शबदावली
सदधातिक
tobacco
##oriented
inauguration
ofneil
उनमादी
mangoes
suzanne
bluffing
inconven
सटालिन
hovering
डिझाईन
columns
वायरलस
provocative
targaryen
गोलारदध
हथौडा
summary
epiphany
midwife
favela
barbecue
semiautonomous
कॉरपोरशन
परतिदवदवी
patriarchal
velocity
udhaigarh
crocod
faggot
jupiter
zartan
घनिषठ
चकोतर
चयापचय
नरोबी
बीकन
समलगिको
seismic
मरसिडीज
विटामिन
exquisite
माईननकरा
lefthand
aristotle
blasphem
criteria
disregard
परतिशोध
marianne
schmidt
##ahedron
नीदरलड
parachute
मोहममद
proprietor
geyser
hybrid
lucien
हाईडरट
resettlement
irrelevant
mithravinda
अलझायमर
gymnosophist
bmw
bipolar
creek
cabbage
dantonio
gadget
gautam
ireland
kettle
khamisa
lhc
lincoln
mactaggert
nairobi
saints
sialic
ullman
zimbabwe
अदशयता
अदयतन
आजीविका
उमीद
औपनि
खमीसा
गपशप
चममच
टलिसकोप
तखतापलट
थयोरी
फजलीन
फिनरटी
रसायनो
##ndezvous
करिबियन
परससकरण
beijing
forcibly
वहिडीओ
amsterdam
sebastian
allyship
travelling
बारबकय
##ायरमट
debbie
whoremong
कारावास
enzyme
सोसाइटी
prometheus
scanners
desiccation
मलकॉम
monrovia
oldfashioned
serotonin
handkerchief
baskinrobbins
एलिवटर
परोमथियस
cambridge
फरासीसी
largescale
मोमबततिया
brogden
neurotransmitters
microseconds
उततराधिकारी
सारवजानिक
फटपाथ
unfamiliar
एटीबॉडी
commanderinchief
हहयसिथ
छडछाड
apocalypse
biotechnology
माईननकराफट
44
5th
83
88
89
87
9th
aar
aus
aph
awhile
arous
bould
bore
bass
bish
batch
bands
biling
backing
baza
bacon
bidding
cb
cod
cite
cakes
cited
cues
cuz
dre
dal
dome
dame
dia
daw
dings
dull
dizz
dangers
dwell
doris
daunt
dazz
ew
ere
ero
fn
fon
fals
fences
fizz
fbi
gy
gill
gyp
ganes
gaug
giov
hust
hots
hany
iink
ions
iced
jl
jur
jore
jars
jug
jub
jelly
jiko
kip
kav
kuf
lust
lure
lame
lud
lax
ml
mop
mig
mating
merg
mits
mitch
nk
nec
nie
nour
nich
nip
nina
nails
ober
oei
oecd
ps
pon
pate
pins
pairs
piles
pony
poured
qarth
ration
rans
rue
rile
rider
rented
rites
ripe
rascal
si
sly
sab
sach
sang
sands
saul
saint
seneg
tg
tb
tz
tes
tac
tib
tuck
tah
tilt
tada
taped
ul
vl
von
vas
vect
vents
vib
vince
vows
wight
wool
wilt
waved
wrestling
xen
yr
yor
yam
yach
yass
yorb
zo
zap
zach
अयो
अकर
अाप
अकत
अकषा
अजञान
आसत
आरो
आमल
आटो
आलाप
इवान
इफा
इमरजसी
ईश
ईवा
ईवन
ईजाद
उफ
उखा
उकसान
उगान
ऊटो
एत
एनट
एहम
एजाइम
ऐन
ऐकट
ऑड
ऑफर
ओउ
ओकल
ओटा
ओवल
ओईसी
कढ
कची
कवक
कइयो
खडन
खणड
खणडो
गरो
गमर
गबद
गडो
गराम
गिनन
घरत
घमान
घोर
घिसा
चख
चता
चौर
चचल
चचरा
चसना
छबी
जवर
जमम
टटर
टॉन
टमट
टहल
टावर
ठठ
ठा
डौ
डिम
ढड
ढह
ढकी
ढरो
तवा
तहर
तटो
ततीस
थमा
दहा
दसी
दशा
दिग
दिवार
धवल
नहा
नकष
नमर
नकषा
नयम
नॉन
नडल
नापन
नगण
नहान
नबज
नबरो
पना
पिए
पकस
पाली
पटन
पशत
पयास
फिकस
बअ
बयो
बतर
बटर
बजना
बझा
भमी
भोल
मण
मकी
मदा
मटा
मलो
मडर
मवक
मोरट
मढी
मिसटरी
यपी
यकतिया
यकरन
यवको
रीच
रिको
रायन
रटिग
रचन
रशम
रजाम
रवड
लद
लः
लइ
लका
लाव
लजी
लटा
लटन
लॉट
लोटस
वजद
शार
शाल
शाद
शपन
शमि
शतक
शतानी
शावर
शसतरागार
सय
सति
सतम
सलो
सशन
सजना
सदम
सझा
सराय
सजीव
हउ
हॊ
हगी
हारी
हानी
हदी
हारा
हॉर
हडल
हिज
हनि
िविग
३३
९५
९२
##lace
##listed
##afe
##vist
##vana
##eing
##drop
##depend
##dimensional
##rd
##rad
##rue
##rative
##uation
##iis
##ibe
##iju
##tles
##tawa
##oi
##oire
##oix
##ni
##nb
##nin
##nav
##nets
##nik
##namic
##got
##gir
##gate
##gling
##mn
##mes
##mac
##mur
##mount
##mile
##moth
##mills
##moon
##mlin
##िपर
##िफर
##िषकार
##तिल
##नतर
##रर
##रमा
##रियल
##रथक
##रहाह
##कअ
##कली
##कताओ
##कठा
##यहस
##यतना
##आज
##आओ
##आना
##आवाज
##आउट
##पताह
##पथी
##पहल
##ठित
##सः
##साल
##सभा
##सयता
##सिदध
##sight
##ww
##wit
##wolf
##woman
##ॉनो
##ॉपी
##टास
##लान
##लमन
##लियर
##लाहट
##लोगो
##cers
##city
##card
##cup
##cling
##जरा
##जाय
##जलस
##वद
##वता
##वति
##वसट
##गिस
##गली
##hou
##his
##hoo
##hist
##hem
##hara
##heart
##haved
##bery
##bia
##brow
##bread
##bags
##pill
##pea
##pace
##pans
##path
##pkins
##दासत
##ौसम
##फान
##फरी
##फोर
##मच
##मात
##मरा
##मोट
##मबी
##मबन
##थिया
##थिग
##ycl
##ईड
##बानी
##डरी
##डियन
##चड
##चान
##चरो
##चिका
##fo
##fif
##four
##fia
##found
##fired
##fathers
##हना
##हिन
##हसत
##खट
##खज
##भरा
##भिमानी
##झड
##एलियो
##शना
##शको
##शियो
##33
##धद
##धली
##धीर
##zel
##zhou
##ः३०
##उममीद
##xist
##इश
##अलग
##छी
##छाद
##छाया
##jen
##jit
##jad
##jour
##job
##jee
##27
##200
##ऊपर
##ऑफ
thump
thuds
##erk
##erations
##inid
##aters
##inges
##ingle
##यासत
##यानो
toon
toki
##ारती
youii
##anx
##anth
##anny
##llower
##energy
##ongh
कराय
करोन
करिम
करॉल
करिसटल
करदाताओ
##ताई
##oras
##orrh
परड
परोग
परहार
परलय
परखन
परजाता
औरइस
औरवह
isis
##edged
##otent
inade
inqu
ingen
inbox
##isan
##isec
##isual
##नाल
##नाग
ofcon
किला
किलर
किलिग
##arra
##arities
##arming
##omo
##omy
whack
whee
whites
एकसल
##ानवित
##ानसार
कोस
होऊ
होमस
कीनिया
कीचड
wein
weep
welf
weave
नहीह
##etr
##etz
##eted
##etoric
आपा
##icill
##icular
##icela
bew
hah
##alanx
notre
##िएट
काकी
काटी
##search
##story
##stress
इसा
इसिल
इसतरह
dol
doo
doses
सकच
सकिया
##acour
##acao
##acelet
##entimes
##idon
##idated
stain
stats
stern
stunt
sticking
stamm
stretches
hex
heap
heater
तमार
तमबा
तमाशा
##योरक
##योदय
##ाहित
##uri
##urized
goons
goof
forge
forum
forrest
##रीकष
reall
revel
reorgan
recession
rendezvous
soak
##ासिता
##ासमह
##िलन
##िलर
##िलिप
##िलिटी
##िनसन
mead
##verance
##verbal
जाब
जाचना
अपार
अपील
अपॉइट
##imm
##imony
थाई
सादर
सायर
साफटवयर
##allic
##irmed
मझको
समच
समपर
समाना
समपाद
समताप
shady
shits
shane
shaved
lily
उननी
रहह
##amas
##aments
##राट
##राई
##राड
##रापी
##राणी
जोकी
जोबी
##ecost
##econom
##opolit
##opilot
अपनआप
##तीरण
withd
##than
canyon
butch
butcher
neh
asper
वहान
chry
chimes
chai
chili
chorus
##तिषक
##rod
दखबाल
amph
amnes
amjad
##choo
##लाओ
##लाजा
##लापो
##लाईन
##वाट
sewer
sewing
abd
abys
abeg
abusing
modu
बहतरी
##ighty
alleys
allev
मरतियो
मरिना
मरतय
मरभमि
मरतिया
मरयादा
मरिआनि
##भीह
frump
framing
fridge
विदाई
विघट
करनकी
हीटर
हीलियम
सबो
सबदध
सबजियो
##कीआ
##कीतरह
##geist
knuck
##कोसट
पहनाव
##साक
##ilin
##ilant
trio
traps
trinid
बारदी
लकवा
सकतह
तरिआ
लोगी
मनय
मनअल
comin
combs
##ested
##गरही
##गरिया
##करग
##करना
##करोग
##करतिक
##करटस
जबस
जबबर
ifak
##olete
justify
##essa
##ulu
oneway
##नीज
alban
alvin
alois
##ायती
exits
noor
noses
noisy
जानिए
outn
outwards
outcast
##किड
##odies
##odity
तमहरा
conj
cones
confer
मिलवा
मिलाय
मिलाप
pep
peoc
pepper
pendant
##arti
##igo
##igans
##uming
##istically
##herent
##usions
##usale
##aby
##aboy
upright
upgrad
तरहस
अबग
##लीटर
teem
proc
proving
howard
##ीकषण
##माद
##ifada
कारयातमक
वोड
वोलट
##चछदन
##परवरतन
##apult
##apital
enact
envelop
envelope
##मीज
बनाइय
मागर
मादा
मापत
plum
plausible
pledged
##ोनट
जीपीएस
अनठी
अनगामी
बदो
बदिश
बदनामी
बदौलत
sput
spine
spont
spared
##eler
##elin
##eling
##inky
##ooked
##ावी
##ावान
##ावधि
करनाटक
सोए
सोफा
सोलर
हाहा
sheik
वालव
##टरियो
##टरोल
##टरकट
##टरिड
##टरलिया
##टरडम
कामरड
चलह
lok
locking
loops
##orts
sahara
सरहद
सरपराइज
सरयासत
सरयोदय
suited
rightly
##रतट
सविस
सविग
होगाः
कमिया
कमबल
कमाती
कमिकल
##ivable
दरिया
दरारो
दरधय
दरगम
##agog
##agram
pry
brig
brah
brushing
brothel
bribe
bracelet
##िशिया
##asting
##inee
moreover
himal
imf
imit
रपी
इनडिया
इनसल
इनतिफा
##जीटल
##जाज
##जाएगा
##कारण
##ourcing
मतक
मतदाता
सीवर
सीटो
सीमट
feather
thanking
मरीन
yearn
कसबा
needles
रखल
रखिक
रखवाल
cove
##रोसट
##रोथी
##रोसपस
intest
intake
intifada
पाम
पाख
पागलो
backp
जरमी
evident
evapor
hasht
##actory
##वारड
welld
wellme
सालस
रहीम
clam
clues
##reath
अधिका
unra
unites
unjust
unaware
unthink
agile
aggreg
चीत
worldclass
compose
compress
composed
##ichi
##cials
##ciating
##akash
drip
drains
##feld
##izer
##izoph
##यकाल
acted
उपमा
जीवधारी
जीवविजञानी
##aches
quake
quinc
goodnight
goodlooking
जसट
takeaway
दसव
दसता
twow
twent
tweed
##udge
परिचालन
workfl
worklife
सिरदरद
grit
gram
groo
grier
grapp
##ogy
भाजय
समझिए
makeover
##जनम
perd
perish
permit
perimeters
pervasive
उतपर
overg
overre
overload
callum
सचको
सचरण
लामा
लाऊगा
लाठी
लापरवाह
##वरधन
##angling
हआग
newfound
blud
blamed
रोष
रोकी
रोलस
रोबरट
##टीज
##टीमीटर
expenses
##othermal
मारती
मारको
##icker
resh
resolved
resigned
reserves
resulting
मानिय
happiest
कलकत
दिखायग
##विता
apples
सनजा
बनवा
बनदक
अलबरट
downward
बादम
##मरड
guided
सथलो
सथापतय
poetic
होनपर
lifeforms
जातियो
अरसत
अरजन
अरविन
अरनसट
acids
acoly
##दधी
निजा
निधिकरण
crick
crappy
disse
disem
disint
disarm
disbel
disloc
discharged
जाताह
##लबी
muck
निरमल
निररथक
जललाद
scoo
scold
scrib
scumb
scoring
scroll
scattered
underdog
undergraduate
impart
impress
phd
phalanx
बाइनरी
बरिड
बरसो
बरदासत
##टागराम
adh
adul
##ensed
indicated
indirect
carpent
##भावन
maya
mayday
परतिबन
परतिमाओ
परतिवयकति
preacher
prehist
diff
contents
contempt
commence
commend
commute
commodity
##isha
सपार
सपरीम
सपलाई
findings
बिच
बिमार
बिमारियो
करोमोस
##oodle
कषदर
intercept
interpre
खोली
marie
marco
mariju
##लोक
##लोनी
emma
बदलनी
पलोड
पलटिन
##athaz
##बरन
##बरश
##बरान
remi
rembrand
remembers
roj
rover
securing
वरगा
वरमहोल
वरदधी
विकट
विकष
दीख
##ella
##ellers
realised
realizes
##फीटी
##ultural
पराधिकार
पराधयाप
पराकरतिक
strand
strive
strapped
belts
flut
flown
flav
flatter
flames
flares
flapping
flappy
floppy
smash
longed
longlived
##ologies
##ologue
##bek
##कतिमान
आगाह
तबतक
incub
मौसी
मौको
वयह
यादगार
##ससम
desal
बलत
बलल
बलला
syring
परतिलिप
आसटरलिया
भरता
विचारको
अतल
अतलय
अतरीकष
सहस
सहना
सहकारी
जनत
जनमत
जनिफर
maur
mapped
mazer
mafia
वाज
बीता
बीसवी
बीएम
सटान
सटिक
सटिग
ऐसटरिड
wavelength
##ानान
bigass
मलर
मलिक
मलरप
killick
खलगा
खलपन
भगवन
भगदड
भगोडा
धनर
differential
humanize
humanoid
समसयाय
follower
डरकर
hoy
शरीफ
earns
चलाकर
glands
परीफर
insert
insulation
insured
##pering
घटता
घटती
schizoph
अववल
leagues
attent
आनवाल
भागता
monologue
##भाष
understandable
generic
genomics
invoke
बराक
बराडी
बराउज
playground
polite
polishing
politely
##ibles
elig
elvis
##यरिग
instability
instances
instagram
finishing
समाकलन
बडप
##कटॉप
ओरकल
बहमलय
##blowing
महतवहीन
परभावहीन
परभावकारिता
तालियॉ
पढग
slate
slick
sloppy
##althy
बठग
बठिए
communal
परशस
relic
reluct
endocr
##यनिषठ
परवतत
परवसक
परवकता
परवतीय
परवचन
warren
warmer
##बाड
##बाडी
##बाजो
highs
highp
highness
highrisk
लोहा
recap
recollect
solace
बोलिग
clears
mindblowing
##डरिन
आतमी
systematically
mediter
collar
collignon
supplement
विशवासघात
bites
टीको
##occo
##फलड
##फलिकस
अभिज
##ोसिए
hub
huff
##ruciating
presume
शबदकोष
लिखगा
लिखती
लिखावट
handing
handgun
सलफी
सलयन
सलासी
पतनिया
पतझड
hardworking
baba
listens
##ucky
swine
swore
swiss
conscience
consisted
consulting
transgress
विशवभर
creators
परयोगातमक
begs
beggars
##conf
numeric
numerous
##ews
assert
sorcer
सामय
सामराई
cellphones
headl
headphones
headaches
सतयनिषठ
सवाध
सवामित
countryside
जानताह
brainstorm
आरकषित
basit
मानवजाती
ससारो
ससजजित
सपरमार
101
लीवर
##graph
wrongdo
fourteen
crem
creations
creeps
crevas
गोरी
mete
metz
metic
metah
बजो
artem
articles
##ctioned
सिचाई
sciarra
जिजर
housekeeping
##ाइया
soninlaw
businessman
businessmen
airt
शकतिहीन
complim
compliment
चकमा
confuse
एलान
एलिस
एलियन
एलरजी
एलएलए
चनलो
गरीषम
टरको
टरानस
generators
परोदयोगिकी
कलाइट
कलाउस
सतरह
##ॉकसी
payments
##rowing
singers
heartto
##मलिन
रोकग
मगरमचछ
wholehearted
दगन
easiest
lightbul
अफरीक
नययोरक
अरथहीन
developments
centr
centigrade
पाचक
विसर
फरिज
गणश
##टोना
redeem
curb
curry
currency
viscer
untold
आशावान
##coe
फिली
explored
explores
exploding
##थाजो
भविषयवकता
सामनय
परमो
detain
डीजल
डीएमः
regards
regulate
नीब
विकासातमक
depth
deputy
formations
मखर
coupled
greg
gremlin
excruciating
वशयालय
सिखाय
paints
बोरी
##ashi
musicians
socialized
paran
paralysis
delph
delacour
गतिमान
मोती
मोजा
मोजस
अमजद
##सनस
deme
demo
demol
बटए
restless
restoring
photocop
भाषाई
रगड
##orkers
तीखी
पथरी
वीडिओ
आशाः
आशाजनक
बलाता
निकालगा
खिलाफत
messiah
ढढग
ढढगा
ढढकर
nato
submar
subconscious
winwin
patrocl
खासा
पलिसकरमी
परिवरतनशील
hurdles
पटटा
ordering
पहचानो
वसल
उममीदवार
उममीदवारो
defence
default
deficit
macho
classification
जनमभमि
जनमसथान
steer
stewards
apiece
खशहाल
##ारोपण
processor
सदसयता
cheque
chefs
honk
internationally
testament
testimony
shoveling
valve
एमटी
pasta
superg
landlord
##bron
कसाथ
organics
felix
##भरश
cola
coloss
colton
column
damages
dougs
##ospace
armstr
risuke
कषमताए
डरायर
##िविग
energized
equitable
खाएग
infamous
villa
villain
windmills
##भतव
उडना
उडती
उडकर
चकाई
##ogram
mornings
barg
barack
barrel
पोती
पोहो
कनन
कनसतर
##shots
devise
legally
अतिशयो
sentiment
culturally
जाचकरता
snack
stepby
fearful
##amese
ragh
मासक
सासारिक
मखयधारा
मखयपषट
fireman
रसद
रसख
चरित
चरिटी
चरवाहा
pickup
मिलीलीटर
gunshots
कॉमरड
पछाः
##करीट
southwest
उततरो
उततरजीवी
30year
costly
diary
cannibal
तजसवी
खानो
animated
freaked
लबानान
वायगति
millisec
silo
कतई
कतली
projection
projections
programming
तनावगरसत
एसोसिए
##uben
##ubby
provider
providers
provoked
खीचत
जटलमन
मडती
##ronts
##फाक
##फाजत
##उसकी
कटटर
batting
वयाकरण
##ursor
tompkins
incremental
successor
statements
sleeps
sleepy
filing
filed
filmed
filming
sunscreen
एनवाय
एनकोड
दामाद
रकग
रकम
रककर
##maid
लिखाः
खनिको
परशिकषक
amazingly
hunter
हसियत
हसमख
aval
परवाहित
selfp
selfre
selfmed
selfreg
selfcontrol
objectively
पापो
परिसतिथि
thanksgiving
vein
veins
रचनाओ
hotels
##odeau
malik
revs
revive
autod
autograph
geograph
जकः
जलदबाजी
मिशिगन
keyboard
camping
sweating
borne
चौदह
चौबीस
मनाया
मनाही
परतिकरियाए
bednets
maine
लाभानवित
encycl
हडली
हडसन
हडलाइन
वारड
वारिस
वारदात
विनी
temples
potent
मधया
##ampoix
practiced
considerable
लौटना
खरचो
netfl
networking
दौरो
धरातल
शानत
पहनकर
cooling
coolest
##रोपण
satan
##entials
microfin
आइल
सभालत
judges
इचछाशकति
johns
johnson
traveler
refres
refurb
refusing
medicaid
रिकत
दबाना
riches
mounted
कमाए
कमाडो
सधारो
फटज
फटकर
समदरो
constell
constrained
performers
performances
meaningless
hangs
hangers
##etheless
closet
१९०
तोडत
तोडकर
journeys
salad
salmon
रिहाई
रिवरस
telepath
telegraph
काटकर
गराफीटी
motts
heavier
printers
drawer
180
ache
purposes
##होताह
अनमानो
privat
आठवा
आठवी
admitting
greenpeace
crosses
crossborder
respectable
banished
bananas
nationalism
optic
कमजोरियो
civilizations
bosses
combines
combinations
plantbased
specialty
specialized
जोखिमो
दलदल
हतयारो
avert
बरफबारी
euros
sensations
कमपयट
favorable
convict
reduces
##समह
##समसया
cooperative
occas
sickness
##गारटन
निषध
haircut
असतय
असतलन
असतोष
पदयातरा
पदोननति
रीफ
thrilling
sumit
fitter
irs
कौम
हिमस
हिमालय
battlefield
nukes
हनमान
##बकवास
toronto
पहचाएग
nonm
nonverbal
nonetheless
सभल
नयायपरण
##ॉरडियन
archers
obser
obsolete
variet
gradual
collectors
उललास
छिपाना
susan
विलियम
विलासिता
अविशवास
straightforward
packaged
##वटरी
बरहमी
typefaces
sarita
इकटठी
पजीपति
सटरिप
texture
समझाओ
innovate
पोसटस
हिली
agreements
currents
catapult
misery
volatile
कारोबारी
aster
astrid
danil
ranjit
critically
darpa
movin
दकानदार
भखडो
detectable
करवाए
reacted
erase
raining
competitions
pushes
नवपरवरतन
समलगिकता
furthermore
fella
पनरजनम
predicts
predictor
proudly
घमात
सलामत
citizenship
14th
geriatric
gerontology
interval
##zza
बदधिजीवी
balancing
साइकल
falaf
मनोविजञानी
जिममदाराना
दादीमाओ
pollinate
grandmaster
penal
penicill
कराएग
सकरियण
jimbo
martial
rams
सकारतमक
activist
contacted
correlation
palms
roofilin
बजाता
##ोगराफ
quantit
quantities
उतसरजनो
राजनयिक
doublegl
शारीर
परारपण
सनदरता
##cussions
111
latino
matching
matched
pigment
fooled
कोरियन
executions
commandos
surveys
२०११
धारणाए
terminator
prayed
विशलषक
लोकशाही
परसतावो
डोमिन
डोरोथी
रडम
इनकथाजो
bitches
172
cooker
आधनिकता
अपरयापत
विजञाप
हाईव
climat
130
initiation
determining
campaigning
accordingly
sandra
tournament
कशर
नावो
भतता
visionary
breathes
panor
tendency
परियोजनाओ
दोगनी
1984
1987
1985
harmony
टाक
रमाल
लॉबी
##forcing
ineffic
inefficient
ambiguous
##abbing
सदरभित
experimenter
experimenting
mutations
mutants
brandy
maxwell
nigerians
उडाया
हराया
हराना
हरामी
सकनया
arguments
accompanied
petrified
इशारो
जमाव
दरघटनाओ
puppet
influential
ellie
नयरोनस
comforting
अनकलता
willingly
fluids
fluorescent
डायपर
डायरिया
हिच
हिफाजत
##महसस
1997
1992
gifted
kenned
verb
verse
verify
लससा
लिगो
chiefs
opposing
representations
bharat
bathe
बासित
भडक
मगोल
princip
nutrit
liberating
francs
manufacturers
गरामीणो
folk
इलकटरो
नोआह
भलावा
##िओइड
निगराणी
spotlight
guarding
relaxing
bombing
lacked
umbre
एटलस
टिपपर
शभारभ
melts
lifts
अनयायो
declines
warmth
symbolic
bonuses
mentality
पलाजमा
सितबर
methane
magnets
rahim
tyrant
witnessing
एजटो
डनिएल
दोहराना
spanning
smokes
रसायनिक
ravana
वॉलश
सपरणता
##afting
plato
platinum
logical
शिकायतो
transported
falsely
pakistanis
freshman
wildlings
अटकी
गौरव
गौरया
धमकाया
लायग
##गणना
spoil
airports
automation
dickinson
fantas
पॉकट
पॉजिटिव
integrating
gunsche
ayodh
चमड
चमबन
जयराम
कोलटन
mexican
mexicans
विवरणो
resisting
अफसरो
robbing
robbies
investigator
defenders
ecological
senators
लहरात
##एमआरआई
commercially
commercials
departure
banging
आवकषण
सरवशकतिमान
असपषटता
requests
पसतकालयो
motivating
coworkers
इकाइया
हिलाना
##standers
##urbjorn
fueled
उदासीन
1962
1965
maintaining
dressing
nationwide
washed
निरतरता
reflects
bandages
ricci
यातरिकी
rebound
पराणाली
synthes
barbarians
ruins
घाटियो
##मिलन
परवीण
beaches
sharply
अनवादित
browns
puzzling
succeeding
lifesaving
harvested
mixing
navy
reno
##efined
उतपीडित
उलझान
चिललान
yesterdays
utility
utilit
wester
निसला
फरीडम
##पिआस
stocks
stockp
गरीनपीस
अनयायियो
philosophical
hookers
paddle
purely
rotate
rotors
rotating
##पालिका
coordinated
भागीदारो
expressing
describes
नकारातमकता
टकसट
वधता
अनकही
crashes
demonstrations
mirandos
israelites
pyong
ऋणातमक
नारिया
whiskey
habitats
references
विवादो
कषतिपरति
वाइपर
counterfe
भटका
injuries
hamburg
alternatives
उतसाहपरण
commitments
बलडविसट
fingerprint
categor
तनजान
हिपपो
##लॉग
किगस
किगाली
shrunken
शरणीबदध
apologise
mystical
excellence
हाइव
imperative
policemen
वशयावतति
hindus
widows
डिसारडर
concub
##ोनोवायरस
displays
independently
सपीयर
continuity
surrendered
pillow
ऑरकसटरा
ऑरकिड
मिनी
जीनोमिकस
acidity
scanner
premortem
complaint
conducting
fleeting
fabrics
रसोईघर
gaming
gamble
lester
rumors
छलनी
पोलड
पोलियो
भकपीय
एकाकी
##परिवरतन
blanket
implication
अतयाधनिक
requirement
diversion
owed
ruby
rubbish
अहकारी
amygd
poisonous
secrecy
##शीरषक
torturing
cassette
hobby
jerusale
pencils
दनीया
फोरसिक
severely
vegetation
सभयताओ
encouragement
louisiana
शिविरो
dumbass
ऊचाइयो
फायरिग
tragedies
सवचछता
dissolve
prevented
दःखद
pursued
गिलहरी
गिलोटिन
टबलट
दयालता
##orbital
परातततव
forbid
reinforce
scaled
scalable
phrases
विकरषण
१९८६
executives
dialed
hanuman
अमलता
पपसी
बकसो
लपटा
fragrance
bruises
सीनटर
निपटान
निकटता
storytellers
caesars
australian
scenarios
disgusted
उजाल
घणट
strokes
##रायली
तरासदियो
नाटको
eliminating
सलसियस
पनरनिर
aerospace
deriv
derail
kalabh
converts
sprink
springs
intensely
बतायगा
उतकषटता
sculptures
phenomenal
joints
disturbances
colonies
diamonds
observable
kilometer
pm2
मलबा
रौः
पाउला
lebanese
appropriately
marshall
सहारन
profitably
freaky
इजराइली
traditionally
disappointment
कोरटकस
लियोनारड
cords
gallery
gallows
ivy
ivan
पिकसल
incentive
inhalers
कलोरी
महतवाकाकषा
महतवाकाकषाओ
1953
hypert
ऑसटरलियाई
बदधिमानी
ऑलराइट
गबबर
समारोहो
##optera
spelled
indicator
डरगनो
instincts
instinctively
motorcycle
tuition
अछि
बयटी
inherently
उपदशो
dismay
precursor
जिदगियो
skulls
पटटिका
cheerful
horrors
horrifying
authenticity
routinely
tactical
tactile
आयरलड
चिटठिया
दायरा
वीरता
streaming
##िसीभी
atlant
दरदरशी
उतपरिवरत
insults
consistently
completing
mobilized
mobilizing
dashes
droughttolerant
mantle
narcot
stakeholders
साउदी
intentional
बनदिश
strawberries
सटारटअप
nonvisual
splashes
hypotheses
shrinks
नवाचारो
cerse
nomadic
oblig
patches
कबाङ
धाग
धागा
फासला
रोडस
परिशदधता
परथाओ
solemn
ideological
नौकाओ
अतरदशीय
regulatory
alexandria
rhino
rhetoric
दिवय
दहज
फाइटर
innoc
काफिल
shyness
degrading
commissioned
boatsman
reconnect
beheadings
फीसदी
सघनता
skepticism
जॉरजिया
bulk
lynd
lyric
lynch
loosely
naive
wandering
comrades
cocky
legendary
factorial
burglars
absorbed
reframe
purchases
निषपादित
फीडबक
executioner
benchmark
अवशषो
ipad
pentecost
कटोरी
वकषो
परचड
anonymity
selasi
मरसथल
compounds
complementarities
exports
exporting
विचारधाराओ
slingers
accumulate
nightmares
टरॉमटिक
कलाकतियो
1920s
valentines
रॉबिनस
१९६०
शाखाओ
इकठठ
ecosystems
विकटोरियाः
olympics
olympias
dreadful
olsen
pedal
pedest
poseidon
उबरन
ऑटोगराफ
दालान
##पहली
##एकसदश
काउटी
जानकारिया
enhance
enhanced
unpaid
निपणता
adolescence
persistent
persistence
glaciers
अभिभावको
exhibition
overlooked
intimidate
fishermen
डोरिस
शताय
समराई
कमपनियो
unreal
reconstruction
condemn
sympath
उदधारकरता
rebuilding
ndicela
ruler
voicem
रिटायर
रिटायरमट
किरान
किलोगराम
recipro
##keepers
हाइडरो
दरवयो
braga
compatibility
expedition
intersect
smugglers
pupil
आयातित
scheme
बहतायत
singularity
bursts
रिवाजो
utterly
दषटीकोण
contradict
astonishingly
खिचाव
dassey
dubbed
kamal
mesmer
ribs
अनीता
ओपिओइड
फिगरपरिट
##position
meggend
मरदाना
सरजनशीलता
branches
expansive
crooked
carriers
deposits
treasures
एनिमल
सरवोचच
editorial
nadu
piercing
vernacular
फववार
फववारा
यवती
शमिट
शमपन
##guard
tossed
##legged
dodge
##opedic
##कोशिश
अनशासित
पाशचात
clowns
residue
disobedience
बरफील
सपाट
instructional
forensics
controversy
snobbery
digitized
championship
receptionist
sigurbjorn
zombies
कगाल
यौवन
यौगिक
लफजो
uploaded
prolong
कामकाज
mundo
निरधनता
बरिजवरक
adapting
relieved
highlights
apocalypt
columbia
sentiments
episodes
giggles
टरमिनटर
orchestra
dumplings
dhobi
jessie
maman
mammals
जजीरो
तदए
थियरी
थियटर
फडरल
बिखरी
भवनो
हरोइन
##जहाज
करमादश
परताडना
offend
rendered
जाघिया
choochoo
drafted
exponentially
resignation
roeblings
वरचसव
वरचअल
writings
recurring
transfusion
वहीलचयर
caffe
बॉयफरड
कटरीना
रिचची
embarked
taxpayers
करियानवित
करियानवयन
अहिसावादी
vocalizing
interpretation
riflemen
thoroughly
hierarchy
cnn
hudson
sikh
इलजाम
खशनसीब
गॉबर
ठकदार
धमकिया
धमाकदार
inhabit
कोठरी
कोलबिया
weakened
सापकषता
shakespea
abnormal
clutch
compensation
blurry
अभियोग
explicitly
मखौट
awakening
filmmakers
१९७०
squirrels
ernest
घमावदार
मसलमानो
broadcasting
scholarships
एनडरसनः
masculinity
dysfunction
grenade
maternal
ottawa
ऑरलियनस
गिगलस
चमपियन
टहलन
डसकटॉप
थॉमस
ममोरी
रजीत
##two
whimpering
इसराएलियो
सकॉटी
sovereign
सायद
सायकिल
chitra
chimney
##कररहह
कारयानवित
feasibility
cliche
resonance
crammed
phoenix
precipice
wrinkles
मजहबी
relentlessly
opioids
brainwave
airbnb
reddit
trafficked
amazement
auditory
improvising
turkish
portrayed
नविगट
कोरटिसोल
municipal
threemeter
arya
crescent
dereg
darts
doughnut
hugging
kalel
lassa
naughty
tinkering
viper
wittenoom
एयरोसपस
खतिहर
जजबात
डवलपर
धमाका
नरतकी
भिखारी
हशटग
##वासतवम
##jeea
##educated
inadvert
inferior
कोहनी
tristam
outpost
बदबदात
pragmatic
##resistant
सीएनएन
cohort
compartment
quartile
arsenal
blanchard
expenditure
strictly
longrange
glamorous
insignific
endorsement
लोमडी
preschoolers
पतराचार
opossum
artifacts
गणसतरो
proportions
eskimos
पोटरट
sleeve
मकदमो
fundraiser
judicial
relevancy
अपरभावी
कौशलयपट
रिसपटरस
mixture
समनथाः
melanoma
शिकषारथियो
crucify
quarantine
हाइपोथ
acquaintance
अपरिहारय
सनसनीखज
georgia
picnic
disadvantaged
cuddle
cautious
dorothy
hightech
jiggle
lurking
odyssey
wiping
wilson
आतिश
ऑसकर
खिताब
चचाजान
फरसिसको
वलादि
वडरलड
सछम
oftentimes
कायापलट
repercussions
समदरतट
nevada
trimester
almighty
outweigh
deploying
pepsi
अनिचछक
spheres
intricate
perseverance
arithmetic
aravind
guillotine
disgrace
intermediate
monastery
accusations
bretodeau
फरिशत
सकषमजवकीय
उततरदायितव
absorbs
कतजञता
destructive
philistines
salamander
portfolio
सघटित
नवीकरणीय
वबसाईट
मगनीशियम
अवशोषित
unconditional
jeopardy
rebecca
holocaust
ओलिमपिआस
javelin
aerodynamic
ukraine
mitigate
vertebr
cathedral
pennsylvania
rehabilitated
anomalies
एकसपोजर
grapefruit
औपनिवशिक
arousal
bishop
gaugamela
iinkathaz
jorel
miguel
mitchell
necks
patel
senegal
tibet
vector
yassin
yorbetal
zooming
zachary
अयोधया
अकतबर
अकषाश
इफाकारा
एनटरापी
ऑडियस
ओटावा
ओईसीडी
कढाई
टटराह
टमटम
डौलर
धवलता
मवककिल
मोरटम
िविगगन
परोगरस
परजातातरिक
inadequ
ofconner
welfare
सकियारा
तमबाक
reallife
अपॉइटमट
सायरन
समानातर
abyss
abegg
module
विघटित
trinidad
तरिआयामी
ifakara
इनतिफादा
hashtag
unthinkable
quincampoix
कलकतता
अरविनद
disintegr
disbelief
scumbag
marijuana
पलटिनम
rembrandt
पराधयापक
बीएमडबलय
परीफरटल
schizophren
reluctant
endocrine
परवसकली
mediterranean
अभिजात
sorceress
सतयनिषठा
सवामितव
सपरमारकट
wrongdoing
crevasse
एलएलएम
hearttoheart
delacourt
submarine
patroclus
armstrong
अतिशयोकति
stepbystep
selfregulating
netflix
microfinance
कमपयटशनल
falafel
penicillin
nutritious
umbrella
ayodhya
amygdala
jerusalem
kalabhairava
narcotics
पाशचातय
iinkathazo
350
440
63
74
79
77
84
93
aa
ail
apt
aka
bs
bing
bce
bour
baz
berg
bier
bots
bitten
baff
bmi
c4
cse
cct
cul
cun
cel
cact
cages
cels
cull
cds
census
coding
cinn
dak
dates
dating
dicks
dhar
duk
dancer
ech
eject
eco
eury
eeg
ecom
fade
fiddle
fades
faking
fading
gle
gare
gem
gumbo
gabbar
hound
hool
hott
hides
homb
hiph
ils
jr
jaws
jumbo
jabbar
jorah
ki
ko
kg
kk
kes
kir
kod
kios
kabul
ld
lx
lest
lick
lama
loun
lacking
loos
lola
lynne
mw
mh
mink
moth
mint
mates
mural
nt
nir
nure
nile
nail
nash
nude
ov
ore
omen
oops
osc
oreg
pas
pim
pall
pia
pater
paw
peck
purity
pike
pune
punk
paren
pascal
pensions
rer
rim
rook
rous
rating
ripp
rna
rbs
raced
rained
ratt
ranged
rotted
ripple
sb
siz
sway
saus
srik
soto
sissy
tan
tut
tying
tigr
tresp
tidal
ugh
vom
vet
vive
vist
vary
vah
vene
vatic
vadim
vandal
wishing
wizz
wuh
wreath
xx
xin
ye
yn
yb
yin
yut
yose
yves
yale
yuk
zool
zabalaza
अरा
अतम
अषट
अमत
अममी
अचक
अटल
आरा
आकत
आइट
आवत
आवट
इचछ
इजी
इयर
इगन
इमो
ईव
ईसिया
ईथियोपिया
उङ
उषण
उडल
उरद
उखड
ऊबड
एगल
एरिया
एडो
एएच
ऐक
ऐषण
ऑग
ऑब
ओफ
ओसत
ओबी
ओपरा
ककड
ककट
कधा
कगन
कवाल
कथी
कजस
ककटस
ककरीट
खप
खग
खबी
खीर
खफा
गप
गचछ
गोट
गबर
गाती
गडिया
गगन
गिरी
घडिया
घराबदी
चबर
चिको
चॉक
चखा
चढी
चबक
चियरस
चकलस
चहमह
छर
छठ
जौ
जाह
जनो
जाली
झाल
टिन
टकी
टमा
टोर
टीन
टकट
टलस
टगो
टटना
टलट
टिगर
टॉरन
टसला
ठप
ठल
डला
डको
डली
डडा
डोट
डबत
डकिन
डरीम
डजलस
ढहत
तिक
तिल
तिस
तसी
तनो
ताहर
ताई
तौल
थल
थअ
थकी
थिग
